{"!":0,"\"":1,"#":2,"$":3,"%":4,"&":5,"'":6,"(":7,")":8,"*":9,"+":10,",":11,"-":12,".":13,"/":14,"0":15,"1":16,"2":17,"3":18,"4":19,"5":20,"6":21,"7":22,"8":23,"9":24,":":25,";":26,"<":27,"=":28,">":29,"?":30,"@":31,"A":32,"B":33,"C":34,"D":35,"E":36,"F":37,"G":38,"H":39,"I":40,"J":41,"K":42,"L":43,"M":44,"N":45,"O":46,"P":47,"Q":48,"R":49,"S":50,"T":51,"U":52,"V":53,"W":54,"X":55,"Y":56,"Z":57,"[":58,"\\":59,"]":60,"^":61,"_":62,"`":63,"a":64,"b":65,"c":66,"d":67,"e":68,"f":69,"g":70,"h":71,"i":72,"j":73,"k":74,"l":75,"m":76,"n":77,"o":78,"p":79,"q":80,"r":81,"s":82,"t":83,"u":84,"v":85,"w":86,"x":87,"y":88,"z":89,"{":90,"|":91,"}":92,"~":93,"¡":94,"¢":95,"£":96,"¤":97,"¥":98,"¦":99,"§":100,"¨":101,"©":102,"ª":103,"«":104,"¬":105,"®":106,"¯":107,"°":108,"±":109,"²":110,"³":111,"´":112,"µ":113,"¶":114,"·":115,"¸":116,"¹":117,"º":118,"»":119,"¼":120,"½":121,"¾":122,"¿":123,"À":124,"Á":125,"Â":126,"Ã":127,"Ä":128,"Å":129,"Æ":130,"Ç":131,"È":132,"É":133,"Ê":134,"Ë":135,"Ì":136,"Í":137,"Î":138,"Ï":139,"Ð":140,"Ñ":141,"Ò":142,"Ó":143,"Ô":144,"Õ":145,"Ö":146,"×":147,"Ø":148,"Ù":149,"Ú":150,"Û":151,"Ü":152,"Ý":153,"Þ":154,"ß":155,"à":156,"á":157,"â":158,"ã":159,"ä":160,"å":161,"æ":162,"ç":163,"è":164,"é":165,"ê":166,"ë":167,"ì":168,"í":169,"î":170,"ï":171,"ð":172,"ñ":173,"ò":174,"ó":175,"ô":176,"õ":177,"ö":178,"÷":179,"ø":180,"ù":181,"ú":182,"û":183,"ü":184,"ý":185,"þ":186,"ÿ":187,"Ā":188,"ā":189,"Ă":190,"ă":191,"Ą":192,"ą":193,"Ć":194,"ć":195,"Ĉ":196,"ĉ":197,"Ċ":198,"ċ":199,"Č":200,"č":201,"Ď":202,"ď":203,"Đ":204,"đ":205,"Ē":206,"ē":207,"Ĕ":208,"ĕ":209,"Ė":210,"ė":211,"Ę":212,"ę":213,"Ě":214,"ě":215,"Ĝ":216,"ĝ":217,"Ğ":218,"ğ":219,"Ġ":220,"ġ":221,"Ģ":222,"ģ":223,"Ĥ":224,"ĥ":225,"Ħ":226,"ħ":227,"Ĩ":228,"ĩ":229,"Ī":230,"ī":231,"Ĭ":232,"ĭ":233,"Į":234,"į":235,"İ":236,"ı":237,"Ĳ":238,"ĳ":239,"Ĵ":240,"ĵ":241,"Ķ":242,"ķ":243,"ĸ":244,"Ĺ":245,"ĺ":246,"Ļ":247,"ļ":248,"Ľ":249,"ľ":250,"Ŀ":251,"ŀ":252,"Ł":253,"ł":254,"Ń":255,"à¤":256,"à½":257,"Ð°":258,"ĠÐ":259,"an":260,"Ġà":261,"à¥":262,"Ġd":263,"áĥ":264,"à¼":265,"en":266,"Ð½":267,"Ø§":268,"in":269,"Ġà¤":270,"er":271,"à¼ĭ":272,"à¦":273,"ÑĢ":274,"à²":275,"Ġs":276,"áĢ":277,"Ð¾":278,"ar":279,"Ð¸":280,"Ðµ":281,"ÑĤ":282,"ĠØ":283,"Ġa":284,"Ð»":285,"áŀ":286,"Ġt":287,"on":288,"Ñģ":289,"Ġp":290,"Ġm":291,"Ġn":292,"Ġk":293,"al":294,"à¸":295,"ĠÙ":296,"Ġl":297,"es":298,"is":299,"Ñĭ":300,"Ñĥ":301,"à¤¾":302,"at":303,"ÙĨ":304,"Ø±":305,"àº":306,"Ġb":307,"ÛĮ":308,"as":309,"à´":310,"Ð°Ð":311,"ch":312,"or":313,"el":314,"ÙĪ":315,"à¥į":316,"un":317,"it":318,"ÙĦ":319,"àª":320,"à³":321,"Ð´":322,"et":323,"à¬":324,"Ðº":325,"à§":326,"Ġc":327,"il":328,"à¨":329,"à®":330,"à°":331,"Ġ1":332,"âĢ":333,"Ġo":334,"Ġ(":335,"am":336,"Ġh":337,"Ġv":338,"à¾":339,"Ġde":340,"Ġg":341,"Ġe":342,"Ġf":343,"Ð¼":344,"à¤°":345,"à½¦":346,"ur":347,"ad":348,"Ñį":349,"à·":350,"ÙĬ":351,"ĠÃ":352,"Ùĩ":353,"ir":354,"ol":355,"Ð³":356,"Øª":357,"áı":358,"Ġr":359,"ĠS":360,"áİ":361,"om":362,"à¶":363,"os":364,"Ġw":365,"ĠÑ":366,"Ġà¦":367,"Ð²":368,"us":369,"Ø¯":370,"ak":371,"Ùħ":372,"à¤¿":373,"Ġ×":374,"Ġi":375,"ÑĮ":376,"àµ":377,"ĠA":378,"Ã©":379,"à¥ĩ":380,"ĠØ§":381,"Ð°Ð½":382,"Ùī":383,"em":384,"ik":385,"Ġin":386,"áŁ":387,"Ġà²":388,"ĠÚ":389,"ĠM":390,"ed":391,"ag":392,"à¤¨":393,"Ġy":394,"ti":395,"à½Ĥ":396,"Ð°ÑĢ":397,"à½²":398,"à¤¤":399,"Ġj":400,"ul":401,"à½ĳ":402,"id":403,"Ûķ":404,"Ø³":405,"um":406,"à¯":407,"te":408,"im":409,"à³į":410,"ĠÐº":411,"ta":412,"Ã¡":413,"Ñı":414,"Ġ2":415,"ĠB":416,"à¤¯":417,"Ġdi":418,"à½ĸ":419,"à½¼":420,"ang":421,"ĠP":422,"à¤ķ":423,"Ñħ":424,"à¦¾":425,"Ã¤":426,"Ä±":427,"ia":428,"ro":429,"ic":430,"Ġà¨":431,"ra":432,"Ð·":433,"ÑĪ":434,"à«":435,"ĠC":436,"Ð°Ð»":437,"áĥĲ":438,"ĠÑģ":439,"ĠT":440,"re":441,"Ð¹":442,"à¤²":443,"ĠD":444,"and":445,"à½¢":446,"Ġ19":447,"ĠÐ±":448,"à¥Ģ":449,"ay":450,"ĠK":451,"à©":452,"ĠØ¨":453,"à½Ħ":454,"áĪ":455,"àŃ":456,"ĠL":457,"ek":458,"×Ļ":459,"Ã³":460,"Ġáĥ":461,"Ñĸ":462,"à½´":463,"ab":464,"00":465,"Ġàª":466,"ah":467,"ig":468,"à±":469,"ÃŃ":470,"Ġz":471,"à½ĵ":472,"ĠØ¯":473,"ut":474,"ĠÙħ":475,"ng":476,"áĥĺ":477,"Ġla":478,"ĠÐ¿":479,"ent":480,"eg":481,"Ø§ÙĨ":482,"ĠÑĤ":483,"ĠI":484,"ĠN":485,"ing":486,"ãģ":487,"Ġna":488,"à½ĺ":489,"áĥĲáĥ":490,"à¤Ĥ":491,"Ø¨":492,"ĠÙĪ":493,"ï¼":494,"Ð±":495,"ÐµÐ½":496,"he":497,"à¹":498,"od":499,"à¤®":500,"à¤¸":501,"Ñĩ":502,"Ð¿":503,"à½º":504,"ĠâĢ":505,"Ġen":506,"àµį":507,"ot":508,"ĠG":509,"áĢº":510,"ÑģÑĤ":511,"à¥ĭ":512,"à¾±":513,"Ġun":514,"ãĢ":515,"ĠR":516,"Ġan":517,"à½ł":518,"ri":519,"ĠE":520,"ĠH":521,"à¤µ":522,"Ð°ÑĤ":523,"à½²à¼ĭ":524,"st":525,"Ġu":526,"ÐµÑĢ":527,"ap":528,"à¯į":529,"Ġà¬":530,"Ã¨":531,"à½£":532,"×ķ":533,"ÑĬ":534,"à¥ģ":535,"le":536,"ĠÐ´":537,"Ġáİ":538,"Ã«":539,"qu":540,"ĠÚ©":541,"Ġá":542,"ie":543,"Ã¶":544,"à²¿":545,"ĠÐ½":546,"Ġà¤ķ":547,"Ò¯":548,"Ð¾Ð½":549,"Õ¡":550,"à§į":551,"ion":552,"Ð¸Ð½":553,"à»":554,"ok":555,"×Ļ×":556,"Ú©":557,"Ø´":558,"Ã¼":559,"Ãª":560,"Ø§Ø±":561,"ĠÐ²":562,"ĠF":563,"ÑĭÐ½":564,"la":565,"ud":566,"ï¼Į":567,"ÑĨ":568,"ĠÐ¼":569,"à½Ķ":570,"Ġà¶":571,"Ð¾ÑĢ":572,"à¦¿":573,"ist":574,"ĠÞ":575,"Þ¦":576,"Ġà¤¸":577,"áĥĶ":578,"à²°":579,"ov":580,"Ð°Ð¹":581,"ĠÎ":582,"de":583,"li":584,"à¦°":585,"à³ģ":586,"Ġse":587,"Ġch":588,"Ġà°":589,"ĠÐ¸":590,"ÙĤ":591,"Ġda":592,"est":593,"àª¾":594,"og":595,"Ð¾Ð»":596,"Ð¶":597,"Ġà´":598,"áŁĴ":599,"ĠØ³":600,"op":601,"ci":602,"Äģ":603,"Ġal":604,"ä¸":605,"uk":606,"áĥĺáĥ":607,"ĠÐ¾":608,"Õ¡Õ":609,"áŀ¶":610,"na":611,"à§ĩ":612,"ĠØª":613,"à¼į":614,"wa":615,"Ãł":616,"×ķ×":617,"Ø§Ø":618,"à²¾":619,"iv":620,"Ã¦":621,"ant":622,"Ã¢":623,"Ġng":624,"Ġsa":625,"ĠJ":626,"Ġà®":627,"ĠV":628,"ha":629,"áĥĶáĥ":630,"á»":631,"da":632,"Ġà¤ª":633,"Ð¾Ð²":634,"Å¡":635,"ĠØ§ÙĦ":636,"ĠW":637,"ĠÕ":638,"ØĮ":639,"iy":640,"ĠáĢ":641,"Ġle":642,"à¤ª":643,"Ó©":644,"je":645,"Ð°Ñģ":646,"à¦¨":647,"ers":648,"ne":649,"Ð°Ð´":650,"ĠO":651,"Ġ'":652,"à¤¦":653,"Ġis":654,"à¥¤":655,"à¤¹":656,"à¤Ĺ":657,"Ġpr":658,"Ġar":659,"ĠÐ³":660,"up":661,"áī":662,"ib":663,"Ġst":664,"ĠÑĥ":665,"ub":666,").":667,"sk":668,"ĠÑħ":669,"ug":670,"ob":671,"),":672,"ĠÙĨ":673,"Ð°Ð¼":674,"iz":675,"à³Ĩ":676,"ÏĦ":677,"ip":678,"ÅŁ":679,"ãĤ":680,"Ø§ÙĦ":681,"à²¦":682,"ana":683,"âĢĻ":684,"Ġ\"":685,"à·Ĭ":686,"Þ°":687,"Ġ-":688,"Ġà¤®":689,"Î±":690,"se":691,"ÉĻ":692,"à²¨":693,"Þ¬":694,"áĬ":695,"áĭ":696,"ĠÙ¾":697,"Î¿":698,"×¨":699,"Ġqu":700,"ĠÛ":701,"à¬¾":702,"Ø²":703,"ĠØ¬":704,"ari":705,"à¨¾":706,"à´¿":707,"ara":708,"Ø¹":709,"ter":710,"à²¤":711,"âĢĭ":712,"à§°":713,"áŀĵ":714,"×¢":715,"ja":716,"Ã²":717,"Ġà¥":718,"az":719,"ãĢĤ":720,"ĠU":721,"Ð°Ð²":722,"à²²":723,"áĥĿ":724,"eng":725,"áŀļ":726,"av":727,"Ġ3":728,"ÑĥÑĢ":729,"ĠÄ":730,"eb":731,"à¦¤":732,"Ġel":733,"ãĥ":734,"ac":735,"ÐµÐ»":736,"ÓĻ":737,"à±į":738,"ĠØ¦":739,"Ú¯":740,"áĢ¸":741,"Ġes":742,"Ġì":743,"àŃį":744,"Ã´":745,"ong":746,"ÛĴ":747,"áĢ¬":748,"ÅĤ":749,"ĠÐ·":750,"à¾²":751,"Ùģ":752,"ka":753,"à¬°":754,"à¸²":755,"ÑģÐº":756,"ÑĭÐ»":757,"ran":758,"Ġà¤ħ":759,"Þª":760,"à·Ĵ":761,"Ø¦":762,"Þ¨":763,"Ð¸Ð»":764,"ni":765,"Ûĩ":766,"Ã®":767,"ow":768,"ĠÑĢ":769,"ÙĪÙĨ":770,"Î¹":771,"Ð¾Ð´":772,"Ð°Ð³":773,"ÙĪØ±":774,"Ð°Ðº":775,"ĠÙĦ":776,"Ø¬":777,"Ġta":778,"Ġ200":779,"Ġma":780,"sa":781,"ev":782,"Ã§":783,"ÖĢ":784,"×Ĳ":785,"ec":786,"Ð¸Ðº":787,"ÛĲ":788,"Å¾":789,"Ð¾Ð¼":790,"ÐµÑĤ":791,"Ġsu":792,"yn":793,"à½Ĥà½¦":794,"Ùĥ":795,"hi":796,"ez":797,"01":798,"à¬¿":799,"end":800,"àº²":801,"Ð¸ÑĤ":802,"ma":803,"to":804,"àºĻ":805,"à«ĩ":806,"ep":807,"Ġthe":808,"Ġ18":809,"Ġas":810,"à¸²à¸":811,"à¦¯":812,"à²Ĥ":813,"ou":814,"ya":815,"ina":816,"Ġà¤µ":817,"Ã°":818,"âĢĮ":819,"Ġpro":820,"Ġte":821,"Õ¸":822,"Ù¾":823,"ĠâĢĶ":824,"Ð¸Ñı":825,"ung":826,"Î½":827,"áĥĿáĥ":828,"Ġcon":829,"Ġka":830,"nd":831,"à¯ģ":832,"Ġet":833,"Ġà¤¹":834,"áĢ¯":835,"Ã¬":836,"19":837,"io":838,"à¦²":839,"à°¿":840,"à¤ļ":841,"ĠÂ":842,"ada":843,"ÛĮÙĨ":844,"Ġya":845,"Ġà¤ľ":846,"à®¿":847,"Ê»":848,"ij":849,"à´¨":850,"ÑįÑĢ":851,"ÑĥÐ»":852,"à¤£":853,"à½´à¼ĭ":854,"Äį":855,"Ġje":856,"à¤Ł":857,"à¥Ĥ":858,"Ġer":859,"Ð´Ð°":860,"àµģ":861,"à¤ľ":862,"à°¾":863,"Ä«":864,"à¸Ļ":865,"Ð°Ð·":866,"Ãº":867,"à½¼à¼ĭ":868,"Ġpar":869,"Ø³Øª":870,"Ġof":871,"åħ":872,"à¦ķ":873,"Ñİ":874,"ala":875,"ÑĦ":876,"ĠØ´":877,"ÞĤ":878,"Ġto":879,"ine":880,"Ã½":881,"ich":882,"ÐµÐ¼":883,"áŀĢ":884,"à²ķ":885,"Ġha":886,"ĠÙĩ":887,"Ġke":888,"à®ķ":889,"Îµ":890,"Ð¸Ð¹":891,"ĠÐļ":892,"äº":893,"ke":894,"à¤·":895,"Ġno":896,"lar":897,"Þĩ":898,"Ø®":899,"à¶±":900,"àª°":901,"à½ºà¼ĭ":902,"ĠØ±":903,"si":904,"áĢĦ":905,"Ġam":906,"à²Ĺ":907,"di":908,"Ġ4":909,"à´¾":910,"Ġwa":911,"ĠÑĪ":912,"ÑĥÐ½":913,"Ġà¤°":914,"æľ":915,"áĢ±":916,"ann":917,"áıĹ":918,"Ð¸ÑĢ":919,"ĠÐĲ":920,"Ġdel":921,"Ġà¤¨":922,"à´¤":923,"ĠÐ¡":924,"Õ«":925,"tr":926,"Ð¾ÑĤ":927,"Ø§Øª":928,"ĠÑĩ":929,"ba":930,"à«į":931,"Ð¾Ð³":932,"áŀĶ":933,"Äĥ":934,"áĢŃ":935,"ÄĹ":936,"à´ķ":937,"à¸£":938,"à¤¶":939,"tu":940,"oc":941,"Ġper":942,"Ġon":943,"ata":944,"Õ¶":945,"Ġ×Ĳ":946,"ali":947,"ÐµÐ´":948,"áıį":949,"ĠÐ¿ÑĢ":950,"Ð½Ñĭ":951,"à²¯":952,"Ġko":953,"ere":954,"×ľ":955,"Ø§Ùħ":956,"ÙĦÙī":957,"Ïģ":958,"à²µ":959,"Ġà¤Ĩ":960,"à¶º":961,"à½¡":962,"ìĿ":963,"Ġba":964,"ga":965,"Ġne":966,"Ġà·":967,"à¨°":968,"ini":969,"we":970,"ens":971,"à©Ģ":972,"Â»":973,"ĠÙĤ":974,"à°°":975,"Ġà¤¬":976,"ce":977,"ÐµÐº":978,"Ġcom":979,"£áĥ":980,"ĠÐ½Ð°":981,"va":982,"áŀŁ":983,"ru":984,"à·ı":985,"ĠÙģ":986,"Õ¥":987,"Ġat":988,"Ä±n":989,"Ø©":990,"ika":991,"ĠÐ»":992,"Ġdo":993,"Ġku":994,"Ġ5":995,"áĢĢ":996,"ĠÂ«":997,"à®¤":998,"ho":999,"Ó§":1000,"à¤¥":1001,"Ġ201":1002,"Ġà¤¤":1003,"Ġà¥¤":1004,"áŀĺ":1005,"ort":1006,"me":1007,"ØŃ":1008,"à½Ģ":1009,"à¤¡":1010,"à²¡":1011,"Ġli":1012,"ĠÐľ":1013,"áº":1014,"Ã±":1015,"Ġme":1016,"àª¨":1017,"Øº":1018,"à°Ĥ":1019,"ill":1020,"Ġq":1021,"ÙĪÙĦ":1022,"ast":1023,"und":1024,"Ġà¤¦":1025,"Ġà¤Ń":1026,"Ð°Ñħ":1027,"ua":1028,"à¨¿":1029,"ien":1030,"ÑĭÑĢ":1031,"Ġë":1032,"Ò»":1033,"áŀĦ":1034,"à±ģ":1035,"à¦¼":1036,"ind":1037,"à¤§":1038,"à¾Ĵ":1039,"all":1040,"ÛĮØ§":1041,"à½ŀ":1042,"Ġ×Ķ":1043,"ÑįÐ½":1044,"×ĺ":1045,"Ïĥ":1046,"ell":1047,"ĠØ¢":1048,"Ûģ":1049,"ih":1050,"ĠÚ¯":1051,"à¶»":1052,"ama":1053,"à¥Ī":1054,"à´¯":1055,"ĠØ¹":1056,"art":1057,"ny":1058,"Ú¾":1059,"à¤¬":1060,"Äĵ":1061,"Ġil":1062,"à§ģ":1063,"à©ĩ":1064,"ĠØ®":1065,"Ġà¤Ĺ":1066,"Ð°ÑĪ":1067,"ord":1068,"Ġ6":1069,"che":1070,"ale":1071,"å¤":1072,"Ð°Ð±":1073,"Ġsp":1074,"Ġsi":1075,"Ġad":1076,"à¹Ī":1077,"ãĢģ":1078,"Ð¾Ñģ":1079,"Úº":1080,"Ġit":1081,"àº²àº":1082,"ani":1083,"ate":1084,"ĠY":1085,"àŃĩ":1086,"à«Ģ":1087,"ÚĨ":1088,"ki":1089,"oh":1090,"Ġvan":1091,"res":1092,"Ġre":1093,"Ġhe":1094,"à¸Ń":1095,"ÖĤ":1096,"oj":1097,"à½ģ":1098,"áŀı":1099,"ard":1100,"Ġog":1101,"ĠâĢĵ":1102,"à½Ĩ":1103,"ĠÐ¶":1104,"Ò£":1105,"Ġso":1106,"ier":1107,"Ġand":1108,"Ġx":1109,"ĠÑį":1110,"ÏĤ":1111,"ach":1112,"ĠáĬ":1113,"Ġth":1114,"Ã¹":1115,"Ġfor":1116,"Ãµ":1117,"ÓĢ":1118,"à½ĸà½¦":1119,"åı":1120,"ÐµÑģ":1121,"ÙĨØ¯":1122,"Ø§ÛĮ":1123,"emb":1124,"Ø§Ø¯":1125,"Ð¸Ñģ":1126,"à»Ī":1127,"int":1128,"Ã¥":1129,"Ġáĭ":1130,"era":1131,"à¦®":1132,"ans":1133,"áĢŃáĢ¯":1134,"Ġdie":1135,"Ð¸Ð¼":1136,"Ġáİł":1137,"Î·":1138,"×Ķ":1139,"áĮ":1140,"å¹":1141,"ca":1142,"ĠZ":1143,"áĥ£áĥ":1144,"ä»":1145,"ys":1146,"rit":1147,"Ġti":1148,"ä¹":1149,"Å«":1150,"Ġáı":1151,"áģ":1152,"ation":1153,"eri":1154,"ÏĢ":1155,"áĢĲ":1156,"Ġque":1157,"à´°":1158,"Õ¸ÖĤ":1159,"ĠCh":1160,"Ġtr":1161,"à°²":1162,"Ġ199":1163,"×ł":1164,"Ģà¸":1165,"Ê¼":1166,"à¦¬":1167,"lu":1168,"åľ":1169,"ĠIn":1170,"Ġmu":1171,"Ġà¤²":1172,"oo":1173,"áĢĻ":1174,"à¤¾à¤Ĥ":1175,"Ñĺ":1176,"ane":1177,"à®Ł":1178,"Ġdes":1179,"are":1180,"ĠÚĨ":1181,"Ã»":1182,"Ïħ":1183,"áĢ¼":1184,"ĠÑı":1185,"ica":1186,"ÑĭÐ¼":1187,"Ġest":1188,"à®°":1189,"àªĤ":1190,"ĠÃ©":1191,"áĢŀ":1192,"Ġop":1193,"ve":1194,"à°¨":1195,"ĠÐŁ":1196,"à²¸":1197,"zi":1198,"à·Ķ":1199,"Ã³n":1200,"Ġor":1201,"Ġà¦¬":1202,"ond":1203,"ĠÐĳ":1204,"lo":1205,"ĠÙĬ":1206,"à¸ĩ":1207,"Ġni":1208,"ĠÐ°":1209,"no":1210,"Ð½Ð°":1211,"Ġim":1212,"ff":1213,"ÐµÐ¹":1214,"lan":1215,"à¸±":1216,"à·Ģ":1217,"Ġak":1218,"Ġab":1219,"à¾Ł":1220,"áĢĶ":1221,"Ð¾Ð¹":1222,"àº°":1223,"ost":1224,"Þĥ":1225,"ĠáĪ":1226,"àº±":1227,"Þ§":1228,"à¤Ń":1229,"áŀĽ":1230,"ĠAl":1231,"za":1232,"łáĥ":1233,"Ġag":1234,"à¤ĥ":1235,"à¶Ń":1236,"à¸ģ":1237,"aka":1238,"àª®":1239,"ÄĽ":1240,"áį":1241,"ĠÏĦ":1242,"à½ĳà½Ħ":1243,"ente":1244,"à¾Ĵà¾±":1245,"àºĩ":1246,"à³Ĭ":1247,"à®¾":1248,"yr":1249,"Ġ7":1250,"sch":1251,"åĲ":1252,"Ð¾Ðº":1253,"Ñĳ":1254,"àºĶ":1255,"ont":1256,"Ġnga":1257,"à¾±à½²à¼ĭ":1258,"Øµ":1259,"áĢ·":1260,"ĠÑĦ":1261,"áĬķ":1262,"á¹":1263,"æĸ":1264,"ĠÐ¢":1265,"Ġed":1266,"à²ª":1267,"Ġbe":1268,"Ġà¤¯":1269,"ÞĪ":1270,"àª¤":1271,"ÙĨÙī":1272,"any":1273,"à¦¸":1274,"áŀĳ":1275,"à¶¸":1276,"Ġgr":1277,"à½ļ":1278,"pe":1279,"ÑĥÐ´":1280,"Ø£":1281,"×ŀ":1282,"ert":1283,"Åį":1284,"Ó¹":1285,"å®":1286,"Ġ8":1287,"Äķ":1288,"aj":1289,"à¹Ģà¸":1290,"Ã£":1291,"à»ī":1292,"Ġáī":1293,"à¥ĩà¤Ĥ":1294,"à¸µ":1295,"Õ¡Õ¶":1296,"Ġà¼":1297,"uh":1298,"Ġav":1299,"áŀĻ":1300,"Ġki":1301,"Ġap":1302,"à¹ī":1303,"asa":1304,"ÛĮØ±":1305,"aga":1306,"ÛĨ":1307,"àªµ":1308,"à´Ł":1309,"à½Ĳ":1310,"à¶ļ":1311,"ĠAn":1312,"Ġà¦ª":1313,"à½ħ":1314,"sh":1315,"áĢķ":1316,"×Ł":1317,"áĥĺáĥ¡":1318,"isi":1319,"Ð¸Ð·":1320,"ÐµÐ²":1321,"ĠSt":1322,"ati":1323,"ku":1324,"ĠÒ":1325,"Ġja":1326,"amb":1327,"ĠÃ¤":1328,"àºŃ":1329,"Ġà¤ī":1330,"àºģ":1331,"ĠÐµ":1332,"Ġdu":1333,"Ġpo":1334,"ĠÙĥ":1335,"Ġ.":1336,"×ĳ":1337,"ess":1338,"ida":1339,"à½ķ":1340,"ÑĭÐº":1341,"Î»":1342,"ÑģÑĮ":1343,"Ġàº":1344,"à®ª":1345,"yo":1346,"ĠÅ":1347,"ĠÐĴ":1348,"ÙĪÙħ":1349,"ÐµÐ·":1350,"à®®":1351,"ji":1352,"Ġom":1353,"Ġà¦ķ":1354,"ile":1355,"Þİ":1356,"à¤ĸ":1357,"Ġder":1358,"Ð½Ð¸":1359,"Ġà¤¥":1360,"ili":1361,"ÛķØ±":1362,"Ġden":1363,"ins":1364,"à®²":1365,"Îº":1366,"Ġmo":1367,"man":1368,"ye":1369,"Ã¸":1370,"Ġ17":1371,"à²Ł":1372,"à¦Ł":1373,"ÙĬÙĨ":1374,"Ġlo":1375,"à§ĭ":1376,"áŀĸ":1377,"à¬ķ":1378,"Ø·":1379,"ko":1380,"amp":1381,"áŁĭ":1382,"ura":1383,"ore":1384,"åį":1385,"Ġmar":1386,"Ġwe":1387,"Ìģ":1388,"Ø§Ø³":1389,"ze":1390,"å¹´":1391,"Ġà²ª":1392,"à¦¹":1393,"åĪ":1394,"Ġgo":1395,"ĠØŃ":1396,"Ġà¦¸":1397,"Ð»Ð°":1398,"Ġkm":1399,"áŀ·":1400,"Òĵ":1401,"Ġà¸":1402,"ish":1403,"ÛĮÙĦ":1404,"Ñŀ":1405,"ern":1406,"ele":1407,"à¸¡":1408,"Ġter":1409,"ts":1410,"Ġ15":1411,"à½Ķà½ł":1412,"th":1413,"emp":1414,"Ġ9":1415,"Ø§Ø¨":1416,"Ð°Ð¿":1417,"áĢºáĢ¸":1418,"Ġ×ĳ":1419,"inn":1420,"à®©":1421,"land":1422,"Äħ":1423,"ene":1424,"à¨¤":1425,"áĢĬ":1426,"Î¯":1427,"ĠÐł":1428,"à¬¨":1429,"ass":1430,"å¾":1431,"ge":1432,"adi":1433,"ĠÞĩ":1434,"Ġmet":1435,"ita":1436,"Ġcu":1437,"Ġman":1438,"chi":1439,"áĥĲáĥľ":1440,"ĠØ§ÙĪ":1441,"ons":1442,"Ġà²®":1443,"à«ĭ":1444,"áĢħ":1445,"ela":1446,"ÑĭÑĪ":1447,"áĢ±áĢ¬":1448,"Ġà¤ı":1449,"Ġum":1450,"ÑĤÐ°":1451,"Ġà¼į":1452,"Ġny":1453,"ĠÃ¡":1454,"ĠÃł":1455,"Ð½Ð¾":1456,"ä½":1457,"ÑĥÐ³":1458,"à¨Ĥ":1459,"Ģàº":1460,"àª¯":1461,"áĢĽ":1462,"×©":1463,"enn":1464,"Ġpa":1465,"mi":1466,"áĢ¾":1467,"Ġkom":1468,"Ġbi":1469,"àµĨ":1470,"ju":1471,"å°":1472,"Ġfr":1473,"Ð²Ð°":1474,"à¬¤":1475,"ĠAr":1476,"asi":1477,"Ġà²ķ":1478,"ÞĨ":1479,"Ġáİ¤":1480,"ira":1481,"iya":1482,"×ª":1483,"à¾Ĳ":1484,"ÑįÐ¼":1485,"ĠØ²":1486,"yd":1487,"ew":1488,"à²³":1489,"Ġà§":1490,"à¨¨":1491,"erd":1492,"ÐºÐ°":1493,"ĠÃ§":1494,"ĠÊ»":1495,"000":1496,"åŃ":1497,"Ûİ":1498,"iti":1499,"ĠáĥĽ":1500,"ust":1501,"uc":1502,"18":1503,"à½ı":1504,"áŀĬ":1505,"àºĻàº":1506,"à²®":1507,"Õ¸ÖĤÕ":1508,"à´Ĥ":1509,"à¨¸":1510,"àªķ":1511,"ly":1512,"à¸´":1513,"Äĩ":1514,"àŃģ":1515,"Ġà¦®":1516,"áŀħ":1517,"ver":1518,"be":1519,"íķ":1520,"Ġkan":1521,"Ġ10":1522,"Ñī":1523,"mer":1524,"ĠØ¯Ø±":1525,"Ùİ":1526,"âĢĿ":1527,"Ġci":1528,"Ġà¤¶":1529,"ÑĥÑģ":1530,"ona":1531,"ÑĥÑĤ":1532,"ano":1533,"iri":1534,"ÑĢÐ°":1535,"Ø§Ø¦":1536,"Ġva":1537,"×ĵ":1538,"çĶ":1539,"Ã©n":1540,"Ø¯Ø§":1541,"Þī":1542,"Ġsh":1543,"Ġdal":1544,"Ġve":1545,"çļ":1546,"ori":1547,"Ġ198":1548,"ena":1549,"Ġà¨¦":1550,"Ġ16":1551,"à§Ģ":1552,"áŀ»":1553,"pi":1554,"ui":1555,"ĠÛģ":1556,"Ġdan":1557,"olo":1558,"à½ĵà½¦":1559,"Ġpor":1560,"ea":1561,"ler":1562,"Ì¤":1563,"Ġê":1564,"Ġà²¬":1565,"áĢ½":1566,"Ã©s":1567,"à°ķ":1568,"Ġà²¸":1569,"áĢ»":1570,"Ġob":1571,"à¸¢":1572,"à½Ħà½¦":1573,"ado":1574,"ula":1575,"uv":1576,"ĠÐĵ":1577,"à¨²":1578,"Ð°Ð½Ð´":1579,"à¦¦":1580,"ÏĮ":1581,"ĠÐĶ":1582,"ĠÐ¹":1583,"Ġ12":1584,"Ġay":1585,"ĠÛĮ":1586,"à®±":1587,"ÅĪ":1588,"áŀĩ":1589,"áİ¾":1590,"áŁĨ":1591,"ĠÐĺ":1592,"Ã¡n":1593,"Ġyn":1594,"ĠÃ¨":1595,"ire":1596,"una":1597,"ĠDe":1598,"à½ĺà½¦":1599,"ÑĭÑĤ":1600,"ĠMar":1601,"hu":1602,"ĠLa":1603,"á¹³":1604,"Ġ×ŀ":1605,"Ã¶r":1606,"isch":1607,"Î¼":1608,"à©±":1609,"Ġ197":1610,"à®³":1611,"ite":1612,"Õ¥Õ":1613,"ĠX":1614,"Ð¸Ñĩ":1615,"à¸¥":1616,"àª¿":1617,"af":1618,"Óĵ":1619,"ÖĢÕ":1620,"ÛĪ":1621,"à¦ª":1622,"Þ©":1623,"ĠÐĿ":1624,"Ã¤r":1625,"à´²":1626,"à«ģ":1627,"Ð³Ð°":1628,"ld":1629,"Ø±ÙĬ":1630,"àºµ":1631,"à¤Ľ":1632,"à¦Ĺ":1633,"rat":1634,"Ø±ÛĮ":1635,"ÑĥÐº":1636,"à¾³":1637,"ten":1638,"à¸§":1639,"à³ĩ":1640,"×¡":1641,"ĠÒ¯":1642,"æĺ":1643,"ĠÐŀ":1644,"âĢį":1645,"à¸°":1646,"Ġac":1647,"ola":1648,"Î¿Ïħ":1649,"ĠUn":1650,"Ġ196":1651,"las":1652,"Ð¸Ð´":1653,"áŁģ":1654,"à»Ģàº":1655,"oz":1656,"Ã¤n":1657,"áĥĶáĥĳ":1658,"ÚŃ":1659,"Ġek":1660,"ãģ®":1661,"if":1662,"àª²":1663,"Ġund":1664,"Ġem":1665,"lik":1666,"à¸Ķ":1667,"Ġà·Ģ":1668,"à¯Ī":1669,"Ġver":1670,"à®¯":1671,"áİ©":1672,"gan":1673,"ÙĪØ¯":1674,"ĠÐ±Ð¾Ð»":1675,"pa":1676,"Ð¸ÑģÑĤ":1677,"ï»":1678,"à´®":1679,"à½¤":1680,"itu":1681,"áīµ":1682,"mo":1683,"ÑĥÐ¼":1684,"Å¯":1685,"á»į":1686,"Ġtu":1687,"one":1688,"ima":1689,"ÐµÐ³":1690,"Ġà¤ļ":1691,"ÑįÐ»":1692,"atu":1693,"Ġod":1694,"co":1695,"Ø±Ø¯":1696,"Ð¡":1697,"agh":1698,"æĪ":1699,"ora":1700,"à½Ł":1701,"à½łà½ĳ":1702,"gi":1703,"à¨ķ":1704,"âĢľ":1705,"ĠÐ£":1706,"Ø§Ø²":1707,"Ġmen":1708,"à´ª":1709,"Ġ194":1710,"eh":1711,"à°¯":1712,"à¦ĩ":1713,"Ġus":1714,"bo":1715,"Î¬":1716,"Ġuna":1717,"pr":1718,"Ġaf":1719,"ato":1720,"ÑĤÑĭ":1721,"Ġmed":1722,"åĽ":1723,"Ð¸Ð²":1724,"à¤ĩ":1725,"ĠÐ°ÑĢ":1726,"áĢľ":1727,"à½ĸà½¢":1728,"aw":1729,"çļĦ":1730,"Ġang":1731,"ä¸Ģ":1732,"ult":1733,"Ġbo":1734,"ue":1735,"ĠÑĨ":1736,"ÄŁ":1737,"Ġà¦ı":1738,"áĢ¬áĢ¸":1739,"¯áİ":1740,"à·ļ":1741,"Ġser":1742,"Ġ14":1743,"Ġà¨¸":1744,"Ġpol":1745,"Ġà¦¹":1746,"Ð½Ð´":1747,"à¸Ĺ":1748,"Ġvo":1749,"áıĵ":1750,"ÙĨÙĩ":1751,"×¢×¨":1752,"Ġca":1753,"à½ī":1754,"à¤°à¤¤":1755,"ÑĥÐ±":1756,"ĠQ":1757,"Ð¾Ð±":1758,"à¶½":1759,"ĠÑĸ":1760,"éģ":1761,"Ġmas":1762,"Ġà²ħ":1763,"ÞĮ":1764,"Ġkon":1765,"Ð°ÑĤÐ°":1766,"ade":1767,"×¤":1768,"Ġiz":1769,"iss":1770,"Ġpe":1771,"unt":1772,"à½ĳà½Ĥ":1773,"×Ĵ":1774,"à©°":1775,"vi":1776,"ÑĭÐ³":1777,"à´±":1778,"Ġsk":1779,"fr":1780,"àº»":1781,"Ġok":1782,"ÑįÐ³":1783,"ll":1784,"ìĹ":1785,"Ġáĥĵ":1786,"ym":1787,"áŀ¾":1788,"ĠÃ¶":1789,"à´µ":1790,"à·ĥ":1791,"à±ĭ":1792,"áŀľ":1793,"ĠÐºÑĬ":1794,"Ìį":1795,"Ð¾Ð¿":1796,"Ð½Ðµ":1797,"Ġ13":1798,"à·Ļ":1799,"Ð¾Ð·":1800,"ii":1801,"ure":1802,"Ð°ÑģÑĤ":1803,"ber":1804,"Ø§ÙĬ":1805,"ÒĽ":1806,"×Ļ×Ļ×":1807,"áĥł":1808,"à¤ģ":1809,"Ġben":1810,"áİµ":1811,"aa":1812,"Ġmat":1813,"Ġbu":1814,"Ġtil":1815,"Ø±Ùī":1816,"Ġ×©":1817,"×§":1818,"ÑĨÐ¸":1819,"Ðļ":1820,"Ä§":1821,"Ġà¤Ľ":1822,"Ø´Øª":1823,"à°¤":1824,"ä¹ĭ":1825,"ĠÐ°Ð»":1826,"àº§":1827,"áĢģ":1828,"ry":1829,"æĹ":1830,"ett":1831,"Ġ×ĵ":1832,"èĢ":1833,"à¾±à½²":1834,"ÛķÙĨ":1835,"Ġà¦Ĩ":1836,"Ġbir":1837,"Ġche":1838,"so":1839,"tor":1840,"uz":1841,"à®µ":1842,"ĠÑģÑĤ":1843,"cht":1844,"pl":1845,"à¬¬":1846,"à°¦":1847,"áĥķ":1848,"áŀĤ":1849,"orm":1850,"Ġà·ĥ":1851,"ian":1852,"Ð¸Ð³":1853,"jo":1854,"anga":1855,"àº¡":1856,"ĠÃ¾":1857,"à¥¦":1858,"ĠÓ©":1859,"ĠÑİ":1860,"ero":1861,"ĠFran":1862,"Å¼":1863,"ïº":1864,"ÑįÑħ":1865,"Ä±r":1866,"ĠÙ¾Ùĩ":1867,"ÛĶ":1868,"à¶¯":1869,"ÅĦ":1870,"Ġpl":1871,"enti":1872,"Ġà¤ĩ":1873,"à©ĭ":1874,"Ġby":1875,"ĠÃŃ":1876,"200":1877,"ĠLe":1878,"Ġà¨¹":1879,"Ġfil":1880,"Ġfam":1881,"uf":1882,"áŀ¸":1883,"cia":1884,"Ġ×ķ":1885,"ä¸ª":1886,"å¸":1887,"à¦·":1888,"ino":1889,"oni":1890,"Ġfi":1891,"ÑĥÐ·":1892,"à¸ķ":1893,"àº¥":1894,"Ð°ÑĢÑĭ":1895,"áĥ¡":1896,"à°®":1897,"Ġ11":1898,"Ġge":1899,"ash":1900,"ĠÙħÛĮ":1901,"Ð°Ð¶":1902,"Ġà¨µ":1903,"isk":1904,"Ġ195":1905,"ĠØ¨Ùĩ":1906,"ĠÐ´Ð°":1907,"tt":1908,"Ġkar":1909,"..":1910,"ĠØ§ÛĮ":1911,"Ã¼r":1912,"olog":1913,"ĠÙħÙĨ":1914,"ith":1915,"Ġvi":1916,"Ġfu":1917,"à¨¦":1918,"áĪŃ":1919,"Ġnu":1920,"Ġ×ľ":1921,"per":1922,"Ġvar":1923,"Ġdr":1924,"à¬®":1925,"kan":1926,"à¸ª":1927,"Ġza":1928,"Ġ×¤":1929,"Ġex":1930,"ske":1931,"äºº":1932,"ete":1933,"aki":1934,"isa":1935,"å·":1936,"Ġur":1937,"áĭį":1938,"à¸ļ":1939,"Ø±ÙĪ":1940,"áİ¢":1941,"ĠÚª":1942,"ista":1943,"Ð°Ð½Ð°":1944,"Ġind":1945,"eni":1946,"Ġga":1947,"áıĽ":1948,"aya":1949,"à¤ı":1950,"II":1951,"à¤Ī":1952,"Ġàªª":1953,"Ġáİ¯áİ":1954,"áŁĩ":1955,"Â²":1956,"Ġlu":1957,"à¶§":1958,"Ġà¦ħ":1959,"å¤§":1960,"Ø§ÙĪ":1961,"ëĭ":1962,"ila":1963,"ise":1964,"ÂŃ":1965,"Ò¯Ò¯":1966,"Ġmi":1967,"ÙīÙĦ":1968,"ÛķØª":1969,"Ġ20":1970,"Ġdat":1971,"ÙĦÛĮ":1972,"oll":1973,"à¾¡":1974,"Ġah":1975,"æŃ":1976,"bi":1977,"ĠØ§ÙĨ":1978,"à¥ĥ":1979,"Ġáİ¾":1980,"po":1981,"esi":1982,"Ø¤":1983,"Ø§ÙĤ":1984,"Ò³":1985,"àª¾àªĤ":1986,"Ġreg":1987,"à¦ľ":1988,"Ð¸Ñħ":1989,"Ġol":1990,"nu":1991,"Ð°Ð½Ñĭ":1992,"âĢĵ":1993,"Ġsc":1994,"áŁĤ":1995,"ÐµÑģÑĤ":1996,"Ġ|":1997,"tic":1998,"of":1999,"à´£":2000,"ĠâĢľ":2001,"ĠÚ¾":2002,"Ġpi":2003,"qa":2004,"Ð½Ñĸ":2005,"ĠØ¬ÙĬ":2006,"Ġ,":2007,"ide":2008,"Ġra":2009,"ĠThe":2010,"±Û":2011,"Ġà¨ķ":2012,"éĢ":2013,"oma":2014,"anda":2015,"ÐµÐ½ÑĤ":2016,"Ġà¶´":2017,"ĠÐ¥":2018,"ĠÄĳ":2019,"Ġles":2020,"uw":2021,"ä¸Ń":2022,"que":2023,"ven":2024,"ĠÐĽ":2025,"Ġáİ¯áİł":2026,"ald":2027,"à´³":2028,"ĠØ£":2029,"ÙĲ":2030,"Ġfa":2031,"Ø§ÙĨÛĮ":2032,"eta":2033,"Ġpre":2034,"ĠSch":2035,"ĠMa":2036,"Ø§Ùĩ":2037,"Ã¨n":2038,"yl":2039,"Ġà»":2040,"Úª":2041,"Ġir":2042,"Ġ193":2043,"Ġà¶ļ":2044,"Ġmil":2045,"ÑĭÐ²":2046,"áİ´":2047,"Ġáīł":2048,"à¨¹":2049,"Ø¯Ùī":2050,"uri":2051,"bu":2052,"ĠâĢŀ":2053,"sp":2054,"Ø§Ø±ÛĮ":2055,"à·Ħ":2056,"à¦¶":2057,"Ġlos":2058,"gr":2059,"àŃŁ":2060,"yon":2061,"Ã¢n":2062,"min":2063,"ÑģÐ°":2064,"Þį":2065,"ĠáĥĲáĥ":2066,"ĠÅ¡":2067,"Ãªn":2068,"áŁĦ":2069,"áıĤ":2070,"Ð¾ÑģÑĤ":2071,"Ġáĭ¨":2072,"æķ":2073,"Ġjo":2074,"ĠØ§Ø³":2075,"aro":2076,"ÙĦÙĩ":2077,"igh":2078,"Ġgu":2079,"ÐµÐ½ÑĮ":2080,"ante":2081,"Ġber":2082,"ici":2083,"aba":2084,"Õ¡Õ¯":2085,"Ġdis":2086,"Ġsom":2087,"Ø¶":2088,"ks":2089,"à°¡":2090,"áıħ":2091,"áĪĿ":2092,"Ġco":2093,"Ó©ÑĢ":2094,"áĢŀáĢĬ":2095,"áĢ®":2096,"Ġà¹":2097,"ãģ«":2098,"èĩ":2099,"áŀ¼":2100,"àºª":2101,"Ġpos":2102,"ÐĲ":2103,"ÐµÑĪ":2104,"wo":2105,"eld":2106,"ĠÚ©Ùĩ":2107,"ĠØ§ÙĦÙħ":2108,"vo":2109,"à³Ĥ":2110,"à¨¼":2111,"àº´":2112,"itt":2113,"×ķ×ª":2114,"ake":2115,"Ã©r":2116,"Ġbar":2117,"ole":2118,"è¡":2119,"go":2120,"ĠEn":2121,"wan":2122,"Ġáĥ¡":2123,"tion":2124,"à·ĬâĢį":2125,"ĠEl":2126,"×ķ×Ł":2127,"§à¥":2128,"ļáĥĺ":2129,"Ð´Ñĭ":2130,"Ġà¤ıà¤ķ":2131,"à¬²":2132,"Ø¯Ùĩ":2133,"ema":2134,"ÞĲ":2135,"ĠAng":2136,"els":2137,"ÙĦÙĬ":2138,"Þĭ":2139,"×Ĺ":2140,"ÎŃ":2141,"ament":2142,"à¾£":2143,"áŀ¢":2144,"Õ¸Õ":2145,"ese":2146,"à¦Ĥ":2147,"ĠPar":2148,"att":2149,"Ð½Ñı":2150,"17":2151,"áıįáıĹ":2152,"Ð¾Ð³Ð¾":2153,"Ġà¬ķ":2154,"ede":2155,"eder":2156,"ĠáĢ¡":2157,"fa":2158,"Ġà¤ĸ":2159,"ement":2160,"han":2161,"ÑĥÑĪ":2162,"gu":2163,"ĠtÃ«":2164,"Ø±Ùĩ":2165,"'s":2166,"à´¸":2167,"à²£":2168,"ĠÏĥ":2169,"ame":2170,"ĠÎ±":2171,"àºļ":2172,"Ġmin":2173,"ÅĽ":2174,"Ð°ÑĢÐ°":2175,"ren":2176,"20":2177,"à¬¹":2178,"áĢºáģ":2179,"Ġà¬¸":2180,"ØªÙī":2181,"æĿ":2182,"áİ¦":2183,"Ð¸ÑĪ":2184,"Ïī":2185,"Ġà¤ªà¤°":2186,"Ġ0":2187,"Ġmga":2188,"åĬ":2189,"Ġgen":2190,"ako":2191,"áİ¯":2192,"åĺ":2193,"Ġtal":2194,"ìĿĺ":2195,"Ã¼n":2196,"áıĻ":2197,"ÐµÐ¿":2198,"à¾±à½º":2199,"les":2200,"áĥĽ":2201,"ÐµÑħ":2202,"ĠÎº":2203,"Ġgi":2204,"à·Ĳ":2205,"ĠÃ¼":2206,"Ġ:":2207,"Ø§Ø´":2208,"ste":2209,"à·ĵ":2210,"ÑĥÑĮ":2211,"à¨Ĩ":2212,"ÑĭÑģ":2213,"Ã«r":2214,"ras":2215,"ity":2216,"Ġàªķ":2217,"æľī":2218,"wi":2219,"Ġing":2220,"Ġbil":2221,"ĠÐ¨":2222,"Ġà¬ª":2223,"10":2224,"Ġà¤¸à¤®":2225,"ss":2226,"eli":2227,"ĠÏĢ":2228,"Ġ25":2229,"à¸«":2230,"ÙĪÛĮ":2231,"à°Ł":2232,"áİ¬":2233,"Ġut":2234,"à´ļ":2235,"Î³":2236,"Ġye":2237,"anu":2238,"Ġà°ª":2239,"ice":2240,"edi":2241,"áĢ¡":2242,"Ġvun":2243,"ÞĢ":2244,"ende":2245,"ä»¥":2246,"à²ľ":2247,"alo":2248,"iga":2249,"Û°":2250,"Ġson":2251,"amm":2252,"Ġí":2253,"uss":2254,"ron":2255,"akan":2256,"Ġ×Ĳ×Ļ×":2257,"cu":2258,"ä¿":2259,"à¦Ľ":2260,"ï¼ī":2261,"éĩ":2262,"\",":2263,"ĠÞī":2264,"Ġann":2265,"Ġfo":2266,"à¨®":2267,"Ġcun":2268,"Ø³ÛĮ":2269,"áĪį":2270,"Ø§Ú":2271,"à¦¼à¦¾":2272,"Ġlas":2273,"atan":2274,"ÐµÐ»ÑĮ":2275,"Ø³Ùī":2276,"áĥļ":2277,"éĥ":2278,"ĠÙĦÛķ":2279,"Ġsin":2280,"orn":2281,"ï¼Ī":2282,"æĶ":2283,"iko":2284,"à¾±à½¼":2285,"uo":2286,"ĠàªĨ":2287,"Ġà²¨":2288,"ÅĻ":2289,"ĠÃ½":2290,"Ø«":2291,"uma":2292,"áĪµ":2293,"Ġhet":2294,"urg":2295,"Î±Î¹":2296,"ciÃ³n":2297,"Ð°Ð»ÑĮ":2298,"Þģ":2299,"Öģ":2300,"ĠPr":2301,"Ġpop":2302,"à¤¤à¤°":2303,"à©ģ":2304,"Ð¸Ð¸":2305,"Ð°ÑĨ":2306,"Ã¡s":2307,"isti":2308,"å±":2309,"jen":2310,"ÑıÐ½":2311,"ĠÐ±Ð°Ð¹":2312,"×Ļ×Ŀ":2313,"åĮ":2314,"Ġà¨¨":2315,"ĠÐ¾ÑĢ":2316,"Ġkas":2317,"ÑĭÐ´":2318,"Ð³Ð°Ð½":2319,"une":2320,"Ġwo":2321,"à¥Į":2322,"ĠAm":2323,"à±ĩ":2324,"du":2325,"16":2326,"ome":2327,"à½Ļ":2328,"ĠSa":2329,"ÐµÐ±":2330,"ÙĨÙīÚŃ":2331,"ĠÅŁ":2332,"ÑįÐ´":2333,"à°µ":2334,"ÑĹ":2335,"Ġà²µ":2336,"á»¥":2337,"à©Ī":2338,"à¾²à½´":2339,"mu":2340,"Ġpu":2341,"Ġbol":2342,"ÛķÚ©":2343,"ton":2344,"à°¸":2345,"à¤¹à¤°":2346,"áĥ¢":2347,"Ġà®ª":2348,"ÄĻ":2349,"ÙĬÙĪ":2350,"rop":2351,"à¨¾à¨Ĥ":2352,"æ°":2353,"è¿":2354,"Õ¥ÖĢ":2355,"ëĭ¤":2356,"ÑĥÐ¿":2357,"age":2358,"Î®":2359,"ĠØĮ":2360,"à²¬":2361,"Ð»ÑĮ":2362,"ÑĤÑĮ":2363,"ÉĻr":2364,"Ġinter":2365,"ĠÐ²Ð¾":2366,"201":2367,"\".":2368,"ëĬ":2369,"æī":2370,"Ġhan":2371,"ĠØ¯ÛĮ":2372,"Ġ×Ĵ":2373,"à¬¸":2374,"ìĹĲ":2375,"àª¸":2376,"iki":2377,"Ò¯ÑĢ":2378,"ami":2379,"Ġmer":2380,"ĠÄį":2381,"ef":2382,"àºĹ":2383,"ĠáĥĴ":2384,"ØªØ§":2385,"áĥĵ":2386,"Ð»Ñı":2387,"ÙĪÚº":2388,"15":2389,"Ġhar":2390,"Ġà´ª":2391,"ros":2392,"Ġent":2393,"ats":2394,"ck":2395,"Ġze":2396,"ØªØ±":2397,"à¾±à½´":2398,"use":2399,"ìĿ´":2400,"à¤°à¤ķ":2401,"ĠÃ±":2402,"ĠInd":2403,"ux":2404,"ĠÐ°Ð´":2405,"Ġtra":2406,"Úĵ":2407,"Ã¤Ã¤":2408,"ime":2409,"ito":2410,"Ð°ÑĢÑĭÐ½":2411,"áĥĲáĥ¨":2412,"ê³":2413,"Ġà½ĳ":2414,"×Ľ":2415,"Ġwas":2416,"áıĴ":2417,"ÑįÐ¹":2418,"Ġàª¸":2419,"ØªÙĩ":2420,"Ð¾Ð½ÑĮ":2421,"Ġnang":2422,"à´Ļ":2423,"cha":2424,"ĠÚ©ÛĮ":2425,"åº":2426,"ĠØ¨ÛĮ":2427,"å¼":2428,"lÄ±":2429,"Ġres":2430,"çī":2431,"à¸Ľ":2432,"à½Ķà½¢":2433,"ãģŁ":2434,"ÑĤÐ¾":2435,"Ø§Ú©":2436,"bl":2437,"ige":2438,"fer":2439,"Ð¸Ð¹Ð½":2440,"Ġà¨ª":2441,"ÙĨÛĮ":2442,"aman":2443,"ëĬĶ":2444,"à²ļ":2445,"oku":2446,"alm":2447,"Þ¬.":2448,"ä¼":2449,"ĠÐ³Ð¾Ð´":2450,"ico":2451,"ĠÐ¾Ð´":2452,"çĤ":2453,"Ġwan":2454,"der":2455,"à¦ļ":2456,"eme":2457,"à¦£":2458,"rt":2459,"à³ĭ":2460,"àµ¼":2461,"àµĩ":2462,"ÈĽ":2463,"Ùĳ":2464,"Ġ192":2465,"Ð»Ð¸":2466,"pan":2467,"uu":2468,"Ïĩ":2469,"Ûĭ":2470,"Ð°Ñĩ":2471,"Ġ×¢":2472,"Õ«Õ¶":2473,"áĢ¶":2474,"à³Ģ":2475,"urt":2476,"ÛķÛĮ":2477,"Ã¡l":2478,"ret":2479,"cz":2480,"éĻ":2481,"Ġos":2482,"ĠTe":2483,"tiv":2484,"ÑĥÑĥ":2485,"æĽ":2486,"ÙĦØ§Ø±":2487,"àŃĭ":2488,"Ġho":2489,"Ġkun":2490,"12":2491,"ĠÒ»":2492,"áĢ·áĢº":2493,"à¤°à¤®":2494,"ĠÐ¾Ð±":2495,"à¸Ħ":2496,"Ġà¦¦":2497,"iet":2498,"ive":2499,"Õ«Õ":2500,"Ġà®ķ":2501,"Ð³ÑĬ":2502,"Ġà²Ĩ":2503,"à½ĸà½ŀ":2504,"Ġfin":2505,"ĠáĬł":2506,"ĠÐ±Ñĥ":2507,"Ðł":2508,"Ġaz":2509,"ĠØ¬ÙĪ":2510,"ÙĬØ±":2511,"åĺħ":2512,"dan":2513,"à¾¤":2514,"Ġein":2515,"Ġà°ķ":2516,"áĥĺáĥľ":2517,"ĠSe":2518,"áĢ²":2519,"Ġpag":2520,"æĺ¯":2521,"aran":2522,"áŁħ":2523,"Ġà¦¨":2524,"ãĤĭ":2525,"ĠØ¦Ûķ":2526,"ĠIs":2527,"å¯":2528,"Ð¾Ñĩ":2529,"Ð¾Ð¶":2530,"ĠÛ¾":2531,"à¶ľ":2532,"vin":2533,"ÙĥÙī":2534,"Ò¯Ð½":2535,"Ġ2010":2536,"à°Ĺ":2537,"Ġmag":2538,"Ġyang":2539,"à¨ļ":2540,"Ð¾Ñħ":2541,"ÑĢÐ°Ð½":2542,"ai":2543,"Ġmit":2544,"ÙĬØ©":2545,"ÑĭÑħ":2546,"ÐŁ":2547,"ego":2548,"ÐµÑĩ":2549,"ÙħØ§ÙĨ":2550,"ÑĭÐ¿":2551,"à§¦":2552,"áĥĲáĥļ":2553,"ÑĭÐ·":2554,"Ġdem":2555,"Ãłn":2556,"à¼Į":2557,"à²Ĺà²³":2558,"Ġàª®":2559,"áıįáİ©":2560,"Ġkr":2561,"Õ¸ÖĤÕ´":2562,"Ġul":2563,"ken":2564,"Æ°":2565,"Ġpod":2566,"alis":2567,"à¹ģ":2568,"Ø¯ÛĮ":2569,"Ġà¦¤":2570,"à©Ĥ":2571,"Ġhab":2572,"ĠÐ±Ð°ÑĢ":2573,"à¹Į":2574,"ando":2575,"Ġà¬¬":2576,"ĠÐ¤":2577,"Ġph":2578,"ÈĻ":2579,"Ġà²¤":2580,"Ġpara":2581,"çĽ":2582,"Ù¹":2583,"à¤³":2584,"fi":2585,"Ã¤t":2586,"áĥĲáĥĽ":2587,"Ð°Ñı":2588,"In":2589,"Ã´ng":2590,"eti":2591,"its":2592,"Ðľ":2593,"onn":2594,"à¤µà¤°":2595,"Ġ[":2596,"Ð°Ð½Ð³":2597,"ÃŁ":2598,"Ġà¨ħ":2599,"Ð»Ñĸ":2600,"àº·":2601,"Ð°ÑģÑģ":2602,"ĠÃ¦":2603,"ivers":2604,"men":2605,"ĠNa":2606,"ØºØ§ÙĨ":2607,"elo":2608,"Ġngw":2609,"alar":2610,"à¼Įà¼į":2611,"Ġkat":2612,"uli":2613,"ĠÙģÙĬ":2614,"áİ¸":2615,"Ġàª¤":2616,"par":2617,"Ġseg":2618,"Ġnan":2619,"àŃĢ":2620,"Ġà®®":2621,"ione":2622,"Ġkap":2623,"ÙīÙĦÙī":2624,"à±Ģ":2625,"ÅĤa":2626,"Ã¨r":2627,"Ġnag":2628,"×¦":2629,"áı«":2630,"ase":2631,"ph":2632,"yk":2633,"à¤¼":2634,"ĠSan":2635,"à½łà½ĸ":2636,"ÑįÑĤ":2637,"ĠPro":2638,"áĥĲáĥ¡":2639,"Þ®":2640,"Õµ":2641,"Ġà²ĩ":2642,"Ġà¨ľ":2643,"Ã©g":2644,"Ġnj":2645,"áĥĺáĥ¨":2646,"Ð°Ð»Ð°":2647,"Ġsub":2648,"imi":2649,"ÐµÐ½Ð¸":2650,"urop":2651,"Ġà¦Ĺ":2652,"Ð¸ÑĤÐµ":2653,"à¸²à¸£":2654,"ĠGr":2655,"Ġ30":2656,"Ġket":2657,"Ø¨Ø±":2658,"Ġpas":2659,"50":2660,"Ġju":2661,"ĠØµ":2662,"Ø°":2663,"à¬¥":2664,"ĠÛ±Û":2665,"ĠÐ¸Ð½":2666,"Ġpri":2667,"áĥĲáĥłáĥ":2668,"àµĭ":2669,"Ġà°¸":2670,"Ġcum":2671,"ĠÐ·Ð°":2672,"Ġáİ¢":2673,"ĠTh":2674,"à¸Ī":2675,"atur":2676,"Ïį":2677,"ÐµÐºÑĤ":2678,"ĠÎµ":2679,"ct":2680,"Î¹Îº":2681,"Ð¼Ð°":2682,"Ġàªľ":2683,"à¾²à½¼":2684,"lin":2685,"ĠMe":2686,"ova":2687,"×Ŀ":2688,"kt":2689,"Ð¸Ð½Ð°":2690,"æľĪ":2691,"Ġdia":2692,"Ġtan":2693,"br":2694,"æĻ":2695,"ãģ¨":2696,"Ġrep":2697,"bin":2698,"Ġsv":2699,"Ġsen":2700,"cc":2701,"Ġ24":2702,"Ð»Ñĥ":2703,"åľ¨":2704,"Ġ/":2705,"ban":2706,"éĽ":2707,"à°ª":2708,"14":2709,"Ġdir":2710,"àµ½":2711,"ĠØ¨Ø±":2712,"Åı":2713,"à®ķà®³":2714,"Ġnom":2715,"ãģ¯":2716,"Ġmod":2717,"è¨":2718,"Ø¸":2719,"áĥĶáĥľ":2720,"Ġà¤ħà¤¨":2721,"Ð¾ÑĪ":2722,"áĪĺ":2723,"ĠÐķ":2724,"yen":2725,"ãĥ¼":2726,"ÑĭÐ¹":2727,"åĭ":2728,"áĢºáģĭ":2729,"ĠØ§Ø²":2730,"Ġáİłáİ´":2731,"ĠÐ¸Ð·":2732,"ĠÑŀ":2733,"çķ":2734,"ath":2735,"à½łà½Ĥ":2736,"ìĦ":2737,"Ġast":2738,"ĠÐ¾ÑĤ":2739,"áŀİ":2740,"ÑĢÐ¸":2741,"ĠØ¦Ùī":2742,"à¤«":2743,"Ġkw":2744,"å¥":2745,"åľĭ":2746,"ĠÃª":2747,"ç«":2748,"Ð°ÑģÑĮ":2749,"ike":2750,"Ġnas":2751,"àªª":2752,"oli":2753,"ĠÅ¾":2754,"à¨ľ":2755,"à½ĸà½ł":2756,"ĠRe":2757,"à¸ŀ":2758,"çĤº":2759,"lam":2760,"ÙĨÚ¯":2761,"ĠÐĹ":2762,"à³ģ.":2763,"Ġà¦ľ":2764,"áı¢":2765,"Õ¿":2766,"unn":2767,"Õ¡Õµ":2768,"Ġdh":2769,"Ġà´ķ":2770,"ÑįÑį":2771,"Â°":2772,"éĸ":2773,"áį¢":2774,"åĩ":2775,"au":2776,"ÑĸÐ½":2777,"Ġpal":2778,"ĠÑĥÐ»":2779,"à¸£à¸°":2780,"à»ģ":2781,"àºŃàºĩ":2782,"Ġá»":2783,"Ð´Ð¸":2784,"ĠDi":2785,"ĠnÃ«":2786,"ĠÐ°Ð²":2787,"ĠØ¨ÙĪ":2788,"Ġmak":2789,"à¸¸":2790,"à¾²à½²":2791,"ubl":2792,"ĠdÃ©":2793,"Ġwat":2794,"áĢ«":2795,"Äĳ":2796,"Ġeen":2797,"ĠÐºÐ¾Ð½":2798,"ãĢĮ":2799,"Ġsing":2800,"ãĢį":2801,"ÓĻÑĢ":2802,"ĠÏĦÎ·":2803,"Ġà¥§à¥":2804,"à¬£":2805,"Ġchi":2806,"ÛĩØ±":2807,"yu":2808,"Ġts":2809,"Ã¶l":2810,"Ġsam":2811,"íķĺ":2812,"ĠSh":2813,"ĠÑĺ":2814,"ĠÐ²Ð°":2815,"ary":2816,"ÙħÛĮ":2817,"à¸Ńà¸ĩ":2818,"ft":2819,"Ġà²¦":2820,"ĠàªĽ":2821,"Ġdist":2822,"ë¡":2823,"Ä±nda":2824,"áĥľ":2825,"ÃŃn":2826,"ÑĭÐ½Ð´Ð°":2827,"§à§":2828,"ÞŃ":2829,"à½Ľ":2830,"à¸·":2831,"Ġfan":2832,"Ġà¶ħ":2833,"Ð¾Ð»ÑĮ":2834,"Î´":2835,"Ġà¤«":2836,"Ð°Ð³Ð°":2837,"Ġev":2838,"à¦Ń":2839,"ĠÔ":2840,"elt":2841,"ÑħÐ°":2842,"æĹ¥":2843,"áŀ½":2844,"Ġhu":2845,"Ġdhe":2846,"à¹ĥ":2847,"à¸µà¹Ī":2848,"áŀģ":2849,"alt":2850,"ick":2851,"ĠCom":2852,"ĠÕ°":2853,"old":2854,"àº«":2855,"àª¦":2856,"àµģà´Ĥ":2857,"Ġà¤§":2858,"ÞĬ":2859,"Ġwar":2860,"30":2861,"Ú©ÛĮ":2862,"ĠÐŃ":2863,"ĠSp":2864,"Ã¼l":2865,"ĠÐ§":2866,"ors":2867,"Ġáİ¤áı":2868,"osa":2869,"Ò¥":2870,"à¤ł":2871,"×ķ×Ļ×":2872,"à®ļ":2873,"à²·":2874,"Ġdet":2875,"Ġsup":2876,"ØªÛĮ":2877,"Ġà²¹":2878,"èĪ":2879,"áĢļ":2880,"Ġten":2881,"ĠÞĨ":2882,"ĠìĿ":2883,"gen":2884,"Ã³r":2885,"eks":2886,"ĠÑģÐµ":2887,"ÑĥÐ²":2888,"asyon":2889,"áĥĲáĥł":2890,"Ã¡r":2891,"Ġpers":2892,"É£":2893,"ĠIt":2894,"à¤ī":2895,"áĪĪ":2896,"ÑĤÐµ":2897,"adh":2898,"Ġ×ĸ":2899,"à°¿.":2900,"ĠOr":2901,"ega":2902,"à¹ĩ":2903,"ĠØ·":2904,"Ġmun":2905,"áŁĶ":2906,"ulu":2907,"à¬¦":2908,"Ġáĥ¬":2909,"ĠÎ¼":2910,"ÃŃa":2911,"Ø±Ø¨":2912,"àªĹ":2913,"Ø§Ø¹":2914,"Ð¸ÐºÐ°":2915,"åĴ":2916,"eth":2917,"Ġà¶¸":2918,"ekt":2919,"Ġlan":2920,"Ġà¤ķà¤°":2921,"Ã®n":2922,"áŀł":2923,"ark":2924,"Ġrel":2925,"Ġà¨ĩ":2926,"Ð¸Ð¿":2927,"Ġagus":2928,"×ķ×¨":2929,"ille":2930,"ĠHe":2931,"à¾©":2932,"ĠSo":2933,"yst":2934,"ÐºÑĬ":2935,"ìĿĦ":2936,"ãģĹ":2937,"Ã¬n":2938,"Ġpat":2939,"à¼ĭà¼į":2940,"à½£à½¦":2941,"yt":2942,"ÙĪØ³":2943,"à¨µ":2944,"Ġtot":2945,"Åº":2946,"An":2947,"à¦ĸ":2948,"áĢ°":2949,"aha":2950,"Ġsch":2951,"Ð°Ð½ÑĮ":2952,"à¦§":2953,"esti":2954,"Å³":2955,"Ġtemp":2956,"ÙĤÙī":2957,"Ã¤d":2958,"Ġáİłáı":2959,"å»":2960,"Ä¼":2961,"ãĤĴ":2962,"anti":2963,"Ġáİ¦":2964,"ÙĪØ¨":2965,"ĠáĬ¥":2966,"æĪĲ":2967,"zo":2968,"ional":2969,"Ġà´¸":2970,"Ġbr":2971,"áŀĴ":2972,"ski":2973,"sta":2974,"à´¦":2975,"usi":2976,"à¬ª":2977,"oy":2978,"Ġà®ĩ":2979,"Ġà¤Ĺà¤°":2980,"ĠÃº":2981,"mas":2982,"13":2983,"à¤¾à¤ĥ":2984,"ger":2985,"à¦¡":2986,"ÖĦ":2987,"La":2988,"åĢ":2989,"ãģ¦":2990,"Ðŀ":2991,"æ²":2992,"áŀī":2993,"ember":2994,"Ġini":2995,"åĨ":2996,"ĠÃ©ÃŃ":2997,"Ġdit":2998,"Ġaw":2999,"Ġez":3000,"×Ĳ×¨":3001,"åŁ":3002,"Ġàªħ":3003,"ĠØ¯Ø§":3004,"è¦":3005,"Ġid":3006,"Ġáĥł":3007,"fic":3008,"æµ":3009,"ische":3010,"Ġà¬®":3011,"pu":3012,"Ġkal":3013,"Ġsta":3014,"Ð´Ð¸Ð½":3015,"Ġbas":3016,"à¾Ķ":3017,"adu":3018,"Ġprim":3019,"à½¡à½Ħ":3020,"fe":3021,"à½ĩ":3022,"à®¨":3023,"Ġsab":3024,"iba":3025,"ĠGu":3026,"Î¸":3027,"à²¹":3028,"ÙĦØ§":3029,"ĠÃ»":3030,"Ġzu":3031,"ÑģÑĤÐ²":3032,"uka":3033,"á»ĭ":3034,"áĢĸ":3035,"åĳ":3036,"Ġpan":3037,"Ġcont":3038,"Ġà¶¯":3039,"ĠØ¨Ûķ":3040,"Ø³ØªØ§ÙĨ":3041,"Ð¾Ñĺ":3042,"lat":3043,"ãģ§":3044,"àªľ":3045,"à¾Ĺ":3046,"Ùı":3047,"Ġ×Ļ":3048,"Ġken":3049,"ulo":3050,"Ð°Ð´Ð°":3051,"Ġtur":3052,"Ġpres":3053,"ix":3054,"ÐµÐ¶":3055,"ĠÑįÑĢ":3056,"amu":3057,"ande":3058,"ĠÙĩÙħ":3059,"áº¹":3060,"à¬Ł":3061,"lad":3062,"ĠÃ®":3063,"Ð¢":3064,"çİ":3065,"Ä±ÅŁ":3066,"udi":3067,"Ð°Ð³ÑĬ":3068,"Ġint":3069,"Ġà¨¤":3070,"à¦¥":3071,"à®£":3072,"den":3073,"Ð¸Ñĺ":3074,"àºķ":3075,"à¤Ļ":3076,"à²¶":3077,"ĠAmer":3078,".,":3079,"æĭ":3080,"ĠØ§ÛĮÙĨ":3081,"à¶´":3082,"ĠBr":3083,"ĠÞĦ":3084,"ÌĢ":3085,"ĠáĥĻ":3086,"arn":3087,"Ġlang":3088,"ars":3089,"Õ¡ÖĢ":3090,"zy":3091,"à¾·":3092,"áī°":3093,"port":3094,"Ġà½¦":3095,"uru":3096,"ej":3097,"Ġist":3098,"Ġmal":3099,"ĠáĮ":3100,"ĠÕ§":3101,"199":3102,"à¹Ħ":3103,"Ġval":3104,"ÉĽ":3105,"ä¸į":3106,"oro":3107,"ÙĦÙħ":3108,"ĠÒĽ":3109,"Ó©Ð½":3110,"Ġik":3111,"ÙĪÙĬ":3112,"Î±Î½":3113,"ÑĥÑħ":3114,"ento":3115,"Ġfran":3116,"à¶«":3117,"Ġáĥĺ":3118,"edd":3119,"Ġà¤µà¤°":3120,"ÅŃ":3121,"Ġgod":3122,"Ġyi":3123,"este":3124,"ĠÙ¾Ø±":3125,"ĠAs":3126,"ahan":3127,"Ġiti":3128,"àª£":3129,"áĥĲáĥĵ":3130,"ÑĨÐ°":3131,"Ãªr":3132,"11":3133,"àºį":3134,"ĠÛ½":3135,"ÒĻ":3136,"áĬĵ":3137,"à¨¿à©±":3138,"Ġà®¤":3139,"æ³":3140,"imb":3141,"×ķ×ł":3142,"van":3143,"esch":3144,"ãģĮ":3145,"§Ģ":3146,"ÐºÑĸ":3147,"uni":3148,"åĲĮ":3149,"å½":3150,"Ã³l":3151,"Ġpart":3152,"Ġro":3153,"ella":3154,"Ġaut":3155,"omin":3156,"Ðĳ":3157,"ÑĤÐ°ÑĢ":3158,"org":3159,"yp":3160,"áĥĶáĥļ":3161,"elle":3162,"Ġdin":3163,"eter":3164,"åħ¶":3165,"Ġmay":3166,"Ġà¨®":3167,"ĠÐ±Ð°":3168,"ÐºÑģ":3169,"reg":3170,"Ø¡":3171,"Ġcap":3172,"Ġ190":3173,"à¸Ĭ":3174,"à½ĸà½ħ":3175,"Ø§Ø¬":3176,"ÙĩØ§":3177,"ÙĩÙĬ":3178,"ãģĦ":3179,"Ġmot":3180,"Ġina":3181,"ĠØ§Ø³Øª":3182,"ê°":3183,"Õ¨":3184,"inde":3185,"ĠEr":3186,"Ð´Ðµ":3187,"ose":3188,"åľ°":3189,"hr":3190,"Ġsal":3191,"ono":3192,"çĻ":3193,"ĠÄ«":3194,"Ã©t":3195,"ÏĨ":3196,"ÑģÑı":3197,"ĠÙħÙĪ":3198,"Ġuk":3199,"ÓĻÐ½":3200,"inu":3201,"ÐĴ":3202,"ink":3203,"ĠJoh":3204,"ustr":3205,"à§±":3206,"eka":3207,"nÃŃ":3208,"Ġdari":3209,"Ġnd":3210,"à¬³":3211,"à¥ĭà¤Ĥ":3212,"azi":3213,"entr":3214,"Ġcar":3215,"olu":3216,"Ó£":3217,"erk":3218,"à¬ĩ":3219,"à³įâĢĮ":3220,"Ġup":3221,"Ð»Ð°Ð½":3222,"×ĸ":3223,"ĠÚ©ÛĴ":3224,"Ġ×ł":3225,"ë¡ľ":3226,"ÙĩØ±":3227,"è»":3228,"ĠpÃ¥":3229,"ÐµÑĨ":3230,"Ġeg":3231,"nt":3232,"Ġà¦ĩ":3233,"60":3234,"à¨£":3235,"ogra":3236,"ĠÑģÐ¾":3237,"val":3238,"ĠPa":3239,"Ġà°µ":3240,"Ġinf":3241,"Ġji":3242,"à½Ķà½¦":3243,"Ġfl":3244,"Ġlat":3245,"Ġvon":3246,"Ã¤l":3247,"yi":3248,"Ã¾":3249,"Ġsig":3250,"Ġ×§":3251,"Ġsem":3252,"à»ĥ":3253,"åĽ½":3254,"Ġhem":3255,"ç¾":3256,"Ø¦ÙĨ":3257,"Ġ22":3258,"Ġmus":3259,"ava":3260,"éĿ":3261,"ĠÐºÐ¾Ð¼":3262,"à¤¾à¤ģ":3263,"à¨Ĺ":3264,"à¸¹":3265,"à½ĳà½ĸ":3266,"Ġà´µ":3267,"ÑĤÐ¸":3268,"oko":3269,"Òķ":3270,"onom":3271,"uch":3272,"ĠIl":3273,"åī":3274,"à¨Ł":3275,"ĠTa":3276,"ĠØ³Ø§ÙĦ":3277,"áĭ«":3278,"ĠÏĦÎ¿Ïħ":3279,"Ð»Ñĭ":3280,"ÙĬØ¯":3281,"urs":3282,"ÎµÎ¹":3283,"âĢĶ":3284,"ĠÐºÐ¼":3285,"erb":3286,"ÑĥÑį":3287,"ë¥":3288,"ä¾":3289,"èĢĮ":3290,"Ġsek":3291,"iro":3292,"àºĽ":3293,"Ġai":3294,"ott":3295,"Ø§ØŃ":3296,"áĥ®":3297,"ment":3298,"àªŁ":3299,"áİ³":3300,"agi":3301,"Ä±l":3302,"ĠÞĢ":3303,"ee":3304,"lig":3305,"à¤µà¤¨":3306,"Ġà¤ħà¤¸":3307,"ĠFr":3308,"Ġ23":3309,"ä¸Ĭ":3310,"Ġbat":3311,"Ø§Úº":3312,"Ð³Ðµ":3313,"ĠCar":3314,"Ġ2011":3315,"Ġà¤ľà¤¨":3316,"ÙĨÚ":3317,"ĠÑĤÑĥÑĢ":3318,"Ġ2000":3319,"ĠÛģÛĴ":3320,"oi":3321,"Ġmon":3322,"Ġsur":3323,"ç§":3324,"Ġà®µ":3325,"enta":3326,"ĠHa":3327,"och":3328,"ĠÕ´":3329,"Ġà½¢":3330,"ull":3331,"ÐĿ":3332,"ĠÐ¿ÐµÑĢ":3333,"à¤µà¤¤":3334,"ĠÃ¤r":3335,"ces":3336,"Ġkh":3337,"áĥ£áĥł":3338,"ÛĬ":3339,"Ġsel":3340,"ĠÐ³ÑĢ":3341,"erv":3342,"áī½":3343,"Ġdur":3344,"Õ¡ÖĢÕ":3345,"iva":3346,"èª":3347,"ĠgÃ¬":3348,"ÛķÙĪ":3349,"áĬĲ":3350,"ados":3351,"ĠAb":3352,"áĭŃ":3353,"Ġ28":3354,"Ġà®ħ":3355,"ht":3356,"rav":3357,"ode":3358,"iren":3359,"áĢ®áĢ¸":3360,"Ġvers":3361,"à¤ķà¤°":3362,"angan":3363,"Ò¯Ð»":3364,"áĥĴ":3365,"ĠÃ³":3366,"api":3367,"Ġ27":3368,"hen":3369,"Åĳ":3370,"ĠØ¯ÙĪ":3371,"Ġà²ī":3372,"ido":3373,"ĠBe":3374,"Ġcomo":3375,"áĢŃáĢ¯áĢ·":3376,"ÐĨ":3377,"Ġkl":3378,"Ġce":3379,"illa":3380,"×ķ×Ĳ":3381,"Ã¨t":3382,"ÛķÙħ":3383,"Ġ2006":3384,"do":3385,"esta":3386,"Ġinc":3387,"Ã«n":3388,"ÑĤÐµÑĢ":3389,"alia":3390,"erm":3391,"Ġ)":3392,"Ø§Ùģ":3393,"à¨ª":3394,"áĪĭ":3395,"Æ°á»":3396,"uba":3397,"åİ":3398,"Ġeb":3399,"ĠSu":3400,"ÐºÐ¸":3401,"Ġ2008":3402,"Õ¾":3403,"ç´":3404,"ÞĦ":3405,"ÙīØ±":3406,"ĠÚ©ÙĬ":3407,"Ġvol":3408,"Ġkab":3409,"Ġrec":3410,"Ġà¬ı":3411,"ork":3412,"ones":3413,"ĠÐ¾Ðº":3414,"Ġàªµ":3415,"ales":3416,"ĠáĢĻ":3417,"ÑĥÑĩ":3418,"Ġà´®":3419,"ÑĥÐ¶":3420,"Ð´Ð°Ð½":3421,"à¬·":3422,"oka":3423,"ilip":3424,"Ġ26":3425,"mp":3426,"umb":3427,"Ġà¶±":3428,"Ġà´¨":3429,"Ð²Ð°ÑĢ":3430,"ĠáıĹ":3431,"ÙĴ":3432,"áĢĨ":3433,"Ġtar":3434,"à¤°à¤¸":3435,"idd":3436,"åĩº":3437,"iku":3438,"à»Ħ":3439,"Ïİ":3440,"Ð¸Ð±":3441,"iter":3442,"ĠÐ³ÑĮ":3443,"Al":3444,"Ġtro":3445,"Ã¸r":3446,"Ġyari":3447,"Ġà®ļ":3448,"ãĥ³":3449,"ÙĻ":3450,"Ġkir":3451,"áŀĲ":3452,"Ã¦ÑĢ":3453,"als":3454,"Ġri":3455,"ÙīÙĬ":3456,"ĠØº":3457,"jer":3458,"à¬Ĺ":3459,"Ġà¥¨":3460,"Ø±Øª":3461,"Ġ2007":3462,"à¾Ĵà¾±à½´":3463,"ÙħØ§":3464,"Ġass":3465,"'t":3466,"ĠÑģÐ²":3467,"áŀ¶áŁĨ":3468,"Ø§Ø®":3469,"Ġparti":3470,"Ġà¬ħ":3471,"Ò¡":3472,"ÑĭÒ£":3473,"Ä±m":3474,"esk":3475,"Ã¨s":3476,"Ġà¦ļ":3477,"à²§":3478,"ska":3479,"rans":3480,"Þĳ":3481,"æ¸":3482,"ĠBa":3483,"ĠÙħØ¹":3484,"ule":3485,"Ġcons":3486,"Ëĩ":3487,"ĠKar":3488,"Ġdiv":3489,"áĥĶáĥł":3490,"ÅĨ":3491,"ĠII":3492,"ÙĬÙĦ":3493,"ĠNg":3494,"Ġhi":3495,"Ġsec":3496,"Ġà´ħ":3497,"ank":3498,"Ġall":3499,"ago":3500,"ĠÐ¿Ð¾":3501,"áĢ±áĢ¸":3502,"à¾Ļ":3503,"×ķ×¢":3504,"ning":3505,"åĵ":3506,"Ġ×Ľ":3507,"ĠÐ´Ð¶":3508,"oda":3509,"à·ľ":3510,"Õ¸ÖĤÕ©":3511,"Ð²Ð»":3512,"Ã¢t":3513,"áĢ²áĢ·":3514,"Ġbak":3515,"cies":3516,"Ġgro":3517,"ĠÑī":3518,"Â»,":3519,"Ð³Ð°ÑĢ":3520,".)":3521,"à±Ĩ":3522,"ĠTr":3523,"áīł":3524,"Ġà·Ħ":3525,"our":3526,"ikan":3527,"inas":3528,"ets":3529,"ĠØ¨ÙĨ":3530,"ĠAd":3531,"erg":3532,"æĸ¼":3533,"ÄĹs":3534,"Ġ×ĵ×Ļ":3535,"àº¹":3536,"eke":3537,"ÐµÐ½Ð´":3538,"mun":3539,"imp":3540,"ĠáĢĢ":3541,"idi":3542,"ĠKo":3543,"Ñļ":3544,"ĠÐ°Ð·":3545,"àºŀ":3546,"ĠÑĥÑĢ":3547,"à¸Ĥ":3548,"Ã©ng":3549,"àº²àºĻ":3550,"à½Ĥà½ŀ":3551,"Ð³Ð¾":3552,"iden":3553,"è¡Į":3554,"Ġstr":3555,"uan":3556,"çĪ":3557,"ĠBar":3558,"zt":3559,"iste":3560,"ĠÙĪØ§ÙĦ":3561,"Ġjed":3562,"Ð°Ð²Ð°":3563,"Ù½":3564,"Ġcr":3565,"ÒĵÐ°":3566,"40":3567,"ĠAfr":3568,"Ã³w":3569,"ude":3570,"à«ĩ.":3571,"uj":3572,"Ð»Ð°ÑĢ":3573,"à¤¾.":3574,"Ã¦Ð¹":3575,"Ġ×Ķ×Ĳ":3576,"Ġata":3577,"ĠPh":3578,"×Ļ×ł":3579,"ĠÙħØŃ":3580,"Ġbal":3581,"ĠÐ½Ðµ":3582,"Ð°ÑģÑģÐµÐ¹":3583,"ĠÃ²":3584,"áİª":3585,"Î¿Î½":3586,"áıģ":3587,"pos":3588,"Ġsar":3589,"ĠáĢĲ":3590,"ÑĥÐ±Ð»":3591,"'m":3592,"Ð½Ñĥ":3593,"Ð½Ð¸Ðº":3594,"Ġtel":3595,"Ã³k":3596,"Ġant":3597,"Õ¡Õ¯Õ¡Õ¶":3598,"áĢĳ":3599,"Ġnov":3600,"ĠÑĤÐ°":3601,"Ġbul":3602,"ĠÃ¥":3603,"áĥĶáĥ¤":3604,"dir":3605,"çĲ":3606,"ĠØ§ÙĪØ±":3607,"áĥ£":3608,"Ġvu":3609,"áĢ»áĢ¬áĢ¸":3610,"Ġpopul":3611,"usa":3612,"Ġdy":3613,"à¯Ĩ":3614,"uta":3615,"àª¥":3616,"Ġkil":3617,"ãĤĮ":3618,"Ġspe":3619,"ben":3620,"áĥ¨":3621,"Ġbh":3622,"ÐµÑģÐ¿":3623,"ĠÑģÑĥ":3624,"Ð¾ÑĢÑĤ":3625,"Ġamin":3626,"iye":3627,"Ġà²Ĺ":3628,"ĠKa":3629,"war":3630,"æ±":3631,"à¨¬":3632,"asti":3633,"ÑĭÐ½Ð°":3634,"Ø¦ÛĮ":3635,"ìľ":3636,"Ġà°®":3637,"Ġhad":3638,"¦¬":3639,"ns":3640,"Ġkur":3641,"ĠÐ±Ð°ÑģÑģÐµÐ¹":3642,"ĠEs":3643,"à¸³":3644,"à¤¯à¤ķ":3645,"Ġ189":3646,"àª¹":3647,"Ġà²°":3648,"ĠØ³ÛĮ":3649,"ner":3650,"Ġsl":3651,"Ġdik":3652,"ê³ł":3653,"íķľ":3654,"Ġfe":3655,"Ð°Ð½ÑĤ":3656,"à½Ĥà½ī":3657,"à¤¯à¤¤":3658,"Öī":3659,"Ġher":3660,"oman":3661,"Ġ21":3662,"áŀĹ":3663,"ĠÎºÎ±Î¹":3664,"Ġà¤®à¤¹":3665,"Ġà¤īà¤ª":3666,"ĠGe":3667,"Ð»Ðµ":3668,"cip":3669,"Ġkor":3670,"80":3671,"àºĦ":3672,"åĸ":3673,"alan":3674,"à½ºà¼į":3675,"áıĹáı¢":3676,"Ã£o":3677,"ÉĻn":3678,"Ø§Ù¾":3679,"Ġkol":3680,"gg":3681,"De":3682,"ìł":3683,"Ġbl":3684,"Ġcol":3685,"à¹Ĥ":3686,"¯à¥":3687,"å¿":3688,"à¤ŀ":3689,"Ġwi":3690,"ĠáĢķ":3691,"Ġdag":3692,"à¯ĩ":3693,"ĠÑģÐ¿":3694,"Ġà¨¬":3695,"Ġ×¨":3696,"ÑģÐºÐ¸":3697,"25":3698,"áĪ¨":3699,"à±Ĥ":3700,"ÑĩÐ°":3701,"cy":3702,"àº¸":3703,"ĠÛĮØ§":3704,"àª¡":3705,"oba":3706,"tern":3707,"àª¶":3708,"Ø§Ø¡":3709,"Ġhal":3710,"çµ":3711,"Ã§a":3712,"Ã²ng":3713,"Ġáĥ¨":3714,"ĠáĢŀ":3715,"apa":3716,"akt":3717,"ĠDa":3718,"áĭ°":3719,"wer":3720,"à¤¾à¥¤":3721,"ĠMo":3722,"Ġ2004":3723,"Ð¾Ð²Ð°":3724,"ĠÙģÙī":3725,"yÅĪ":3726,"eno":3727,"way":3728,"à½ĺà½ļ":3729,"Ø¹Ø¯":3730,"ÙĬØ§":3731,"ĠQu":3732,"ÃŃs":3733,"Ú¯Ûķ":3734,"aliz":3735,"ĠÛ²":3736,"Ġins":3737,"Ġgh":3738,"ĠÃ´":3739,"ayan":3740,"ĠÞĭ":3741,"Ġkad":3742,"Ġart":3743,"àµĢ":3744,"ÑıÑģ":3745,"×¢×ł":3746,"Ġpolit":3747,"Ġfamil":3748,"Ġcl":3749,"Ġdec":3750,"Ó©Ð»":3751,"ĠØ¯ÛĴ":3752,"Ð¸Ð¶":3753,"ìŀ":3754,"åŃĲ":3755,"ĠÏĥÏĦ":3756,"Ġbet":3757,"ĠÄ°":3758,"eva":3759,"Ġbin":3760,"ume":3761,"à¤²à¤¯":3762,"áĥĺáĥĹ":3763,"ĠÛĭ":3764,"à§Ī":3765,"Ð¼Ð°Ð½":3766,"Ġà²ľ":3767,"ÑĸÐ²":3768,"Ġ100":3769,"å¾Į":3770,"Úµ":3771,"Ġ%":3772,"Ġhav":3773,"ĠCon":3774,"ç»":3775,"arr":3776,"tim":3777,"Ø³ÙĦ":3778,"ĠÐ±Ð¸Ð»":3779,"è®":3780,"ĠØ±ÙĪ":3781,"Õ¥Õ¬":3782,"æĸĩ":3783,"Î±ÏĦ":3784,"ÐĶ":3785,"ĠÐ°Ðº":3786,"Ġwax":3787,"æ´":3788,"emi":3789,"Ġìŀ":3790,"Ġ29":3791,"ĠØ¦Ûĩ":3792,"ï¯":3793,"uku":3794,"yan":3795,"ÑĪÑĤ":3796,"Ġfon":3797,"ĠÚ©ÙĪ":3798,"àº²àºĩ":3799,"ĠÙħÛĮÚº":3800,"jan":3801,"à¦¼à§ĩ":3802,"ĠÑĺÐµ":3803,"let":3804,"çĦ":3805,"ÑĢÐ¾":3806,"ĠØ§Ùħ":3807,"Ġnam":3808,"idae":3809,"à¾Łà½¼":3810,"Õ¸ÖĤÕ©Õµ":3811,"uman":3812,"70":3813,"ator":3814,"ĠØ§Øª":3815,"áĥ·":3816,"ĠRep":3817,"Ø§Ø±Ùĩ":3818,"Ġà¦¯":3819,"ĠÐºÐ°ÑĢ":3820,"ÎµÏģ":3821,"ä¹Ł":3822,"Ġlib":3823,"àºĬ":3824,"Ġplan":3825,"Ó¥":3826,"Ġpun":3827,"à¤¾,":3828,"ĠáĥĹ":3829,"à«ģàªĤ":3830,"ÑıÑĢ":3831,"ĠKr":3832,"amente":3833,"å®¶":3834,"Ġwal":3835,"Ġà¤īà¤¤":3836,"Ð¼Ã¦":3837,"Ã©m":3838,"á»Ļ":3839,"for":3840,"Ġ2005":3841,"Ġnah":3842,"Ç£":3843,"omb":3844,"Ġà¤Ĩà¤¸":3845,"Ø¯Ûķ":3846,"ìĭ":3847,"len":3848,"ÑįÑįÑĢ":3849,"jet":3850,"Ġlab":3851,"ÑĢÐ¸ÑĤ":3852,"ĠÕ¯":3853,"izi":3854,"lh":3855,"ÄŃ":3856,"ĠÐ°Ñģ":3857,"ĠAt":3858,"Ġmul":3859,"ÙĨØ¬":3860,"tig":3861,"str":3862,"ĠÞĪ":3863,"ĠáĪĺ":3864,"Ġà¦¶":3865,"ĠáĥĿ":3866,"Ð»ÐµÐ½":3867,"à¥įâĢĮ":3868,"áĢ¹":3869,"ĠkÃ¶":3870,"Ġkwa":3871,"Ġmor":3872,"nan":3873,"Ġcan":3874,"ism":3875,"illi":3876,"à¤¿à¤Ĥ":3877,"ï¼ļ":3878,"Ġnak":3879,"ĠÐ°Ð¹":3880,"Ġgeb":3881,"è¥":3882,"Ġàª¹":3883,"ÙħÙī":3884,"zen":3885,"ĠâĢĺ":3886,"Î¯Î±":3887,"Ġera":3888,"Ġ2009":3889,"ĠÐºÐ»":3890,"vu":3891,"ÑĭÐ»Ð°":3892,"Ġtek":3893,"ĠÑħÑĥÑĮ":3894,"Õ¸ÖĤÕ¶":3895,"áĮĪ":3896,"nos":3897,"Ġsol":3898,"à¾¨":3899,"×Ļ×¨":3900,"Ø³ØªÙĩ":3901,"ÑĤÐ¾ÑĢ":3902,"Ġib":3903,"ÙĦÙĪ":3904,"áĥĿáĥĳ":3905,"nik":3906,"à¤¨à¤ķ":3907,"Ġáİ¾áıįáİ©":3908,"Ġiha":3909,"Ġmb":3910,"Ġland":3911,"ÉĶ":3912,"à½ĺà½Ĳ":3913,"åĪ°":3914,"ĠØ¨ÙĪÙĦ":3915,"Õ¡Õ´":3916,"uga":3917,"jon":3918,"Ú»":3919,"rs":3920,"Ġsy":3921,"Ð°Ð»Ñĭ":3922,"Ġmp":3923,"à¬Ļ":3924,"ioni":3925,"Ġeta":3926,"áıįáı":3927,"Ã¤h":3928,"ĠÐ¾Ð»":3929,"ĠCo":3930,"ÑıÑĤ":3931,"alah":3932,"ĠNew":3933,"Ġáŀĵ":3934,"ĠNo":3935,"ĠÃ®n":3936,"èģ":3937,"ĠUS":3938,"Ġà¤Ķ":3939,"ãĢĭ":3940,"ÙĬÙħ":3941,"ãĢĬ":3942,"Ġfilm":3943,"ãģª":3944,"à³Ĩ.":3945,"Ð°Ð¼Ð°":3946,"Ġoch":3947,"ĠÃ¤bin":3948,"Ġform":3949,"éļ":3950,"odi":3951,"Ã¼m":3952,"ÓĢÑį":3953,"ĠÚĨÛĲ":3954,"ÑĥÑĥÐ»":3955,"àµĤ":3956,"pp":3957,"ĠÐĲÐ»":3958,"Ġ×Ĵ×¢":3959,"àº³":3960,"ĠÞĬ":3961,"æİ":3962,"à°ļ":3963,"Ġsan":3964,"rod":3965,"ÑĨÑĸ":3966,"à²¦à²°":3967,"Ġáĥľ":3968,"Ð£":3969,"Ġdep":3970,"aks":3971,"áĪ«":3972,"ĠÙĨÛĮ":3973,"ÏĥÏĦ":3974,"ots":3975,"Ġtre":3976,"ĠNy":3977,"Ġeng":3978,"ĠÈĻ":3979,"Ġkel":3980,"èĢħ":3981,"àºĤ":3982,"åħ¬":3983,"Ġsz":3984,"ey":3985,"Ġau":3986,"ĠÐ°Ð±":3987,"ĠBo":3988,"fin":3989,"Ãłng":3990,"etro":3991,"æĻĤ":3992,"Ġà¤Ī":3993,"Ãºn":3994,"Ã¤ld":3995,"Ã¡d":3996,"ĠPer":3997,"raz":3998,"Ã¶d":3999,"Ġà¤ħà¤Ľ":4000,"Ġorgan":4001,"ĠÂ°":4002,"Öĩ":4003,"adan":4004,"Ġnke":4005,"Ġlig":4006,"Ðĺ":4007,"unda":4008,"à©į":4009,"éĥ¨":4010,"Ġà¨²":4011,"Ġana":4012,"Ġà½ĸ":4013,"à¥Ģà¤Ĥ":4014,"Â·":4015,"ational":4016,"eda":4017,"uda":4018,"ÅĤo":4019,"Ġnum":4020,"Ġprod":4021,"æł":4022,"Ã©k":4023,"Ġà¨ī":4024,"iji":4025,"Ð´Ð·":4026,"çĶŁ":4027,"ĠØªØ±":4028,"à¦ĵ":4029,"Ã¡t":4030,"ĠEurop":4031,"ÑĨÑĮ":4032,"àº²àºĻàº":4033,"Ġà°¨":4034,"èĩª":4035,"lah":4036,"Ġloc":4037,"esa":4038,"Ġbel":4039,"pt":4040,"ĠÑĢÐ°Ð¹":4041,"à§Ĥ":4042,"ĠPol":4043,"ĠLi":4044,"à¤ªà¤¨":4045,"áı³":4046,"åŃ¸":4047,"Ġcor":4048,"ĠÚ©ÛĲ":4049,"Ð¸Ð½Ð¸":4050,"eko":4051,"åįģ":4052,"ric":4053,"Ġà¦Ń":4054,"ëĵ":4055,"umi":4056,"ĠÎ¿":4057,"ĠÑıÐº":4058,"Ã³t":4059,"Ø¢":4060,"itar":4061,"ĠàªĹ":4062,"ĠØªÙĪ":4063,"ĠÐ½Ð¾":4064,"ilo":4065,"Ð°Ð´Ñĭ":4066,"inc":4067,"Ð°ÑĢÑĤ":4068,"Ġà°ī":4069,"Ġkay":4070,"ongo":4071,"omo":4072,"ĠSi":4073,"Ġdar":4074,"à³į.":4075,"à¾Ĵà¾±à¼ĭ":4076,"osi":4077,"áī¥":4078,"Ġfer":4079,"oss":4080,"Ã¤m":4081,"ign":4082,"Ġngwaga":4083,"imo":4084,"oto":4085,"à¤¢":4086,"Ġà²Ĵ":4087,"Õ¡Õ¿":4088,"iske":4089,"ÐµÑģÐ¿ÑĥÐ±Ð»":4090,"çŃ":4091,"Ġei":4092,"ä¸ī":4093,"ĠÚ©Ø±":4094,"à²¥":4095,"àºµà»Ī":4096,"Ð¾Ð½Ð´":4097,"Ġà¦ī":4098,"Ð°Ð»ÑĬ":4099,"áĥĶáĥ¡":4100,"ĠÐ°ÑĤ":4101,"uth":4102,"Ġà¬¨":4103,"à¸ģà¸²à¸£":4104,"ä¸»":4105,"Ĥ¬":4106,"ĠÐ±Ð°ÑĪ":4107,"ç¨":4108,"Ã«s":4109,"Ġà¤°à¤¹":4110,"Ð¾Ð¸":4111,"à¸¨":4112,"ette":4113,"ÑħÐ°Ð½":4114,"ĠÑģÐ°":4115,"ĠáĬ¨":4116,"áĥĻ":4117,"asan":4118,"Ġ×¦":4119,"áĭµ":4120,"Ġ50":4121,"à¬¶":4122,"ayo":4123,"Ġâ":4124,"ĠÐ´Ð°ÑĢ":4125,"Ġsm":4126,"Ġfar":4127,"ker":4128,"eu":4129,"ĠTo":4130,"Ġ65":4131,"idh":4132,"nya":4133,"à¬§":4134,"×ķ×ľ":4135,"ident":4136,"ĠÙĪÙĩ":4137,"Ġuz":4138,"×Ļ×©":4139,"kin":4140,"Ð¾ÑĤÐ¾":4141,"Ġà¦ķà§°":4142,"ä¿Ĥ":4143,"ĠÙ¿":4144,"ÙģØ±":4145,"ìĦľ":4146,"à²¿à²Ĥ":4147,"ÓĻÐ¼":4148,"à¥¦à¥":4149,"Ġdos":4150,"à¬ľ":4151,"ĠØ®ÙĪ":4152,"àº¥àº°":4153,"è¥¿":4154,"oga":4155,"Ġmis":4156,"æĢ":4157,"Ġfra":4158,"Ðĵ":4159,"æ¬":4160,"Ġàª¨":4161,"rib":4162,"ÑĢÑĤ":4163,"ÑĢÑĥÐ³":4164,"Ã¡m":4165,"¹Û":4166,"Ġà¦²":4167,"ect":4168,"ĠØªÙĩ":4169,"atti":4170,"ĠáĢĽ":4171,"ç¶":4172,"Ð½Ð¾Ð¹":4173,"Ð½ÑĭÑħ":4174,"ĠUnivers":4175,"ĠMan":4176,"å§":4177,"Ġble":4178,"à¯ĭ":4179,"Ġà¬¹":4180,"24":4181,"Ġtab":4182,"Ġà§§à§":4183,"à´·":4184,"à³Ī":4185,"ÙĬÙĩ":4186,"idad":4187,"ege":4188,"ÐºÑĥ":4189,"áĮį":4190,"ĠMal":4191,"agu":4192,"Ġà»ģ":4193,"osh":4194,"ĠÚ¤":4195,"à½łà½ģ":4196,"áıĻáıĹ":4197,"asÄ±":4198,"Ã¡k":4199,"Ġpap":4200,"Ä¡":4201,"ĠAnd":4202,"à¯Ĭ":4203,"Ø´Ùī":4204,"çĶ¨":4205,"Ġmes":4206,"à½ĸà½Ł":4207,"àµ»":4208,"lich":4209,"ĠDie":4210,"Ġals":4211,"yns":4212,"Ńáı«":4213,"à¨Ī":4214,"istor":4215,"jar":4216,"Ġtut":4217,"Ð°Ð»ÑĤ":4218,"ĠÑĤÑĢ":4219,"asta":4220,"ador":4221,"Õ¶Õ¥ÖĢ":4222,"Ġbah":4223,"ĠÐ¿ÑĢÐ¾":4224,"æ°ĳ":4225,"Ġot":4226,"à½łà½ķ":4227,"ĠÐ½ÑĮ":4228,"wen":4229,"à¤²à¤ķ":4230,"áĥĲáĥķ":4231,"lav":4232,"ĠÙĨÙĪ":4233,"è³":4234,"ĠÑĤÐµÑĢ":4235,"upa":4236,"à¸²à¸ĩ":4237,"åĲį":4238,"Ġ40":4239,"àºĪ":4240,"ÑĨÑĭ":4241,"Ã±a":4242,"Ġbag":4243,"áĥĿáĥľ":4244,"lia":4245,"Î¹Î±":4246,"ital":4247,"Ġà°Ĺ":4248,"ÙĪØª":4249,"Ġair":4250,"è¾":4251,"Ø§ÙĨØ¯":4252,"Ð°ÑĤÑĮ":4253,"ley":4254,"upi":4255,"æľ¬":4256,"eki":4257,"Ġtah":4258,"ĠÐºÐ¾Ð»":4259,"èµ":4260,"ÑģÑĤÐ°":4261,"var":4262,"Úĺ":4263,"ÙħØ¯":4264,"áĥĿáĥĽ":4265,"¨áıĴ":4266,"Ø´ÛĮ":4267,"Ġling":4268,"à½ĳà½ĺ":4269,"Ġtaki":4270,"22":4271,"é«":4272,"à¸²à¸¢":4273,"ĠáĥĶ":4274,"inan":4275,"Ð°Ð½Ð¸":4276,"bar":4277,"inin":4278,"Ġtak":4279,"ĠÐ®":4280,"isyen":4281,"Ġ188":4282,"ild":4283,"Ð³ÐµÐ½":4284,"Ġbis":4285,"Ã¶n":4286,"Þĵ":4287,"èĭ":4288,"ÐµÑĢÐ¸":4289,"ĠØ¥":4290,"ĠÑĳ":4291,"Å¡t":4292,"Ġà¤ĺ":4293,"Ð´Ð¶":4294,"ÑįÑģ":4295,"Ġparte":4296,"Ġ×©×ľ":4297,"ĠÞİ":4298,"Ġmang":4299,"Ġmill":4300,"Ã¨ng":4301,"×¢×Ł":4302,"Ø®Øª":4303,"åĢĭ":4304,"Ġpen":4305,"à½ĵà½Ħ":4306,"ater":4307,"áº¿":4308,"·¸":4309,"ÑĸÑĢ":4310,"×Ļ×ª":4311,"æŀ":4312,"agn":4313,"áī³":4314,"Ó§Ð½":4315,"Ø¬Ùĩ":4316,"ÑĳÑģ":4317,"fo":4318,"ÑĨÐ¸Ñı":4319,"ÙĪÙĨÙĩ":4320,"åĴĮ":4321,"Ó©Ó©":4322,"Ġà¦ķà¦°":4323,"Ġkam":4324,"Ġthat":4325,"ÐµÑħÑĮ":4326,"Ò±":4327,"ugu":4328,"ÑįÐ·":4329,"Ġcomp":4330,"à´Ĺ":4331,"ĠÎ´":4332,"engan":4333,"áº¡":4334,"har":4335,"Ġmai":4336,"à¥ĩ.":4337,"ĠÙĪÚĨ":4338,"áİ¾áıĹáı¢":4339,"198":4340,"Ńáı«áİ¾áıĹáı¢":4341,"Ġao":4342,"antu":4343,"Ġà®¨":4344,"Ġkum":4345,"ĠBu":4346,"à½¼à¼į":4347,"ove":4348,"ĠØ§ÙĦØ¹":4349,"à¤°à¤£":4350,"à»į":4351,"Ġ2012":4352,"ìĸ":4353,"irt":4354,"ical":4355,"by":4356,"áŀ¹":4357,"Ġà°ħ":4358,"ĠEst":4359,"åįĹ":4360,"Ġà¤Ķà¤°":4361,"ions":4362,"ĠÑĢÐ°Ð·":4363,"æ¯":4364,"Ð°ÑĢÐ´":4365,"ĠRo":4366,"anta":4367,"à³ģà²Ĥ":4368,"ÐºÐ¾":4369,"onu":4370,"ĠàªĨàªµ":4371,"áŀļáŀĶ":4372,"Ä±s":4373,"áĥĺáĥļ":4374,"Ġtam":4375,"Ġesis":4376,"Ġsist":4377,"ĠpÅĻ":4378,"Äĭ":4379,"Ġdas":4380,"ĠÃ©s":4381,"ÏĢÎ¿":4382,"Ø±Ùģ":4383,"ings":4384,"Ġtop":4385,"Ã©e":4386,"ider":4387,"ĠÐ´Ð¸":4388,"jes":4389,"åł":4390,"éķ":4391,"à²µà²°":4392,"Ð°Ð»Ñĸ":4393,"rie":4394,"kar":4395,"minist":4396,"à¸²à¸Ļ":4397,"à¾³à¼ĭ":4398,"ÑģÑĤÑĢ":4399,"á¸":4400,"çİĭ":4401,"æīĢ":4402,"à¦ģ":4403,"ĠâĢĻ":4404,"à¤¯à¤¨":4405,"ĠAc":4406,"zu":4407,"ëı":4408,"ì§Ģ":4409,"Ġpada":4410,"ĠØ¯Ûķ":4411,"pro":4412,"Ø³Ùĩ":4413,"Ġàª¦":4414,"igi":4415,"Ġà¶¶":4416,"äºĮ":4417,"éł":4418,"Ġà¬ķà¬°":4419,"vel":4420,"ĠØ¢ÙĩÙĬ":4421,"27":4422,"amo":4423,"Ã¤s":4424,"Ã©l":4425,"ÛĮÙĦÛĮ":4426,"à·ħ":4427,"ĠÕ¸":4428,"ÄķÐ½":4429,"áĢĿ":4430,"Þħ":4431,"ario":4432,"rito":4433,"ìĿĢ":4434,"à¾²à¼ĭ":4435,"Õ´":4436,"Ġalt":4437,"ĠtÃŃ":4438,"ĠØ¨Ø§":4439,"Ġug":4440,"Ġà¶½":4441,"ĠÅĤ":4442,"Ġsus":4443,"por":4444,"çŁ":4445,"Ġamb":4446,"ØºØ§":4447,"23":4448,"¯à§":4449,"oti":4450,"Ð»ÑĬ":4451,"ĠÙħØ±":4452,"æ¼":4453,"isc":4454,"Ã³Ã³":4455,"Ġsum":4456,"áĪĽ":4457,"Ġiyo":4458,"à¸¶":4459,"áĥĿáĥł":4460,"Ġll":4461,"à½¢à½Ħ":4462,"Ã¶s":4463,"à¤¸à¤ķ":4464,"ĠÑĥÑĩ":4465,"rab":4466,"à¬¡":4467,"egn":4468,"ÙħÙĨ":4469,"Ġà¶ľ":4470,"Ġáĥŀ":4471,"ĠØ§ÛĴ":4472,"Â».":4473,"ĠÐ¿Ð¾Ð»":4474,"à§ĩà¥¤":4475,"Ġgan":4476,"ngi":4477,"El":4478,"Ġáģ":4479,"Ġkont":4480,"áıĦ":4481,"ĠpÃ«r":4482,"ush":4483,"ĠÐ¯":4484,"odo":4485,"orth":4486,"ÏīÎ½":4487,"26":4488,"à¤µà¤¸":4489,"ĠÐ¹ÑĭÐ»":4490,"Ġà²İ":4491,"à¤¯à¤®":4492,"ĠÐ´Ð¾":4493,"ĠÑĥÐ³":4494,"Ġrad":4495,"29":4496,"ĠÚ©Ø§Ø±":4497,"èĥ":4498,"ilm":4499,"×¨×Ĳ":4500,"àª§":4501,"eren":4502,"ĠLat":4503,"Ð°ÑħÑĮ":4504,"ĠbÃ¤ld":4505,"ĠmÃ¶":4506,"éĺ":4507,"ĠÙĨÙĩ":4508,"è©":4509,"ener":4510,"Úĸ":4511,"Ġhat":4512,"Ġà´¤":4513,"Ġà¨ħà¨¤":4514,"ê°Ģ":4515,"å£":4516,"xt":4517,"ÑĤÐ°Ð½":4518,"ativ":4519,"à½ĳà½Ķ":4520,"ĠáİŃáı«áİ¾áıĹáı¢":4521,"itÃł":4522,"xe":4523,"aye":4524,"ĠÐµÐ»":4525,"Ð»Ð°Ð´":4526,"ants":4527,"uy":4528,"ÒĵÑĭ":4529,"áı¯":4530,"åŃ¦":4531,"Ġaan":4532,"urn":4533,"ÛĮÚ©":4534,"à¤¬à¤°":4535,"sc":4536,"¸°":4537,"à®´":4538,"form":4539,"è«":4540,"Ġwith":4541,"Ð²Ð°Ð½":4542,"Ä±q":4543,"Ø¯ÙĨ":4544,"Ġig":4545,"Ã¦Ð½":4546,"Î¿ÏĤ":4547,"Ġmeng":4548,"à·Ŀ":4549,"Ġà¬¦":4550,"ìľ¼":4551,"kl":4552,"Ĭ¤":4553,"eden":4554,"Ġtrad":4555,"28":4556,"à´¶":4557,"Ġnh":4558,"Ġnie":4559,"à½ĺà½ģ":4560,"ĠÓ":4561,"ĠÐºÐ¾ÑĢ":4562,"æĸ¯":4563,"ĠáĥĵáĥĲ":4564,"è·":4565,"ular":4566,"à¥Ģ,":4567,"ÑĸÐ´":4568,"Ġsim":4569,"à½Ĥà½ħ":4570,"hai":4571,"à¸¥à¸°":4572,"Ø¨ÙĪ":4573,"à¤Ĺà¤°":4574,"Ð»Ð°ÑĤ":4575,"Ġmm":4576,"ĠÐ°Ð¼":4577,"ÑĭÑģÑĮ":4578,"ĠMon":4579,"Ko":4580,"inh":4581,"erc":4582,"áĥĹ":4583,"ĠNor":4584,"Ġà¶Ń":4585,"iyan":4586,"ãĤ¹":4587,"áŁĲ":4588,"ĠØ¯Ùĩ":4589,"Ð½Ð°Ð¹":4590,"ÑħÑĮ":4591,"Ã¡u":4592,"ÐµÐºÑģ":4593,"Ġinv":4594,"à¹Ģà¸Ľ":4595,"gh":4596,"Ġwur":4597,"à¤ľà¤¨":4598,"Ã½ch":4599,"Ġ×¡":4600,"à¥Īà¥¤":4601,"ÐºÐ°Ð½":4602,"Ò¯Ð¹":4603,"Ġseb":4604,"Ġ2001":4605,"Ġfun":4606,"à¶¶":4607,"ÑĶ":4608,"ë¥¼":4609,"ç¬":4610,"Ø§ÛĮÛĮ":4611,"Ġàª°":4612,"ç«ĭ":4613,"ÐµÑģÐº":4614,"Ð¿ÐµÑĢ":4615,"Ã«t":4616,"ovi":4617,"Ġprin":4618,"48":4619,"Ġzo":4620,"à½ĺà½Ħ":4621,"Ú¯Ø±":4622,"ÑĢÐ°ÑĤ":4623,"Ġgrup":4624,"45":4625,"Ġban":4626,"áİ²":4627,"enge":4628,"ÞĶ":4629,"eza":4630,"pres":4631,"Ġá»į":4632,"åĪĨ":4633,"ean":4634,"áŀķ":4635,"ÙħÙĦ":4636,"essa":4637,"ikk":4638,"ĠÐ¼ÐµÐ½":4639,"ĠBel":4640,"ĠÈĻi":4641,"ÐºÐ¾Ð²":4642,"ĠPo":4643,"ĠKon":4644,"Ġdz":4645,"ris":4646,"ĠlÃł":4647,"Ġoo":4648,"Ò¯Ð³":4649,"Ġ2013":4650,"áŁĭâĢĭ":4651,"met":4652,"Ġàªħàª¨":4653,"àµ¾":4654,"oth":4655,"ÛĮØª":4656,"Ð·Ð°":4657,"oph":4658,"à¤Łà¤°":4659,"ÑĭÐ¶":4660,"Ġ×Ĳ×ķ×Ł":4661,"mb":4662,"Ġfir":4663,"sá¹³":4664,"å¸Ĥ":4665,"Û°Û":4666,"Ø¦Ø±":4667,"à±Ī":4668,"ĠÐŁÑĢ":4669,"à¹ĥà¸Ļ":4670,"Ġrev":4671,"áİ¶":4672,"Ġlea":4673,"ych":4674,"çľ":4675,"ĠBer":4676,"andi":4677,"endo":4678,"aren":4679,"Ã¼Ã¼":4680,"Ġisch":4681,"anto":4682,"à®Ļ":4683,"197":4684,"à°¿à°Ĥ":4685,"å¤ļ":4686,"Ġà¹Ģà¸":4687,"ĠÑĢÐ°Ð¹Ð¾Ð½":4688,"ÙĩÙĨ":4689,"×Ĳ×ł":4690,"à¤ħ":4691,"atra":4692,"åħ¥":4693,"è¯":4694,"ĠØ¨Ûĩ":4695,"The":4696,"Ã²r":4697,"ĠÐºÑĥ":4698,"ĠDen":4699,"à½łà½ĩ":4700,"Ð½ÑĮ":4701,"Ġdeg":4702,"ĠGer":4703,"Ġmid":4704,"Ø¯Ø±":4705,"ĠØ§ÙĦØª":4706,"Ġker":4707,"áĥĲáĥ®":4708,"Ġ×¤×ķ×Ł":4709,"zn":4710,"Ġpla":4711,"ÛķÙĦ":4712,"65":4713,"áŁĦáŁĩ":4714,"esh":4715,"ÐºÑĤ":4716,"Äģs":4717,"Ð°Ð»Ð¸":4718,"ĠÐ±Ð¸ÑĢ":4719,"ekk":4720,"almente":4721,"à«Ĥ":4722,"ĠÛĭÛķ":4723,"dd":4724,"ĠìĿ´":4725,"Ar":4726,"Õ½":4727,"Ġpot":4728,"osta":4729,"edia":4730,"cial":4731,"ĮĢ":4732,"ĠaÃ°":4733,"Ġpam":4734,"Ġpang":4735,"Ø§Øµ":4736,"à¸²à¸ģ":4737,"à³Ĭà²Ĥ":4738,"ĠØ³ÙĪ":4739,"Ġaus":4740,"Ġpra":4741,"×Ļ×ĺ":4742,"ÅŁt":4743,"Ġìķ":4744,"Ġset":4745,"Ġà¨°":4746,"ĠHo":4747,"Ø§Ø±ÙĬ":4748,"Ã´r":4749,"à¾Łà½º":4750,"Ġà¶º":4751,"ĠÞĤ":4752,"ĠJo":4753,"ĠÕ¥":4754,"Ġyu":4755,"igo":4756,"golo":4757,"Ġsud":4758,"Ã»ng":4759,"Ä¯":4760,"ĠØ¹ÙĦÙī":4761,"red":4762,"ĠÐ°Ð½":4763,"áŁī":4764,"ument":4765,"áĪħ":4766,"Ġàªı":4767,"Ġret":4768,"ĠÙĩÙĪ":4769,"Ġhabit":4770,"ĠÏĦÎ·ÏĤ":4771,"ç¥":4772,"Ġoli":4773,"fu":4774,"áı©":4775,"Ġàª¬":4776,"ìķ":4777,"á¹£":4778,"ä½ľ":4779,"Ġdalam":4780,"ĠáĢľ":4781,"ĠÙģØ±":4782,"Ð½Ð¾ÑģÑĤ":4783,"Ð¸Ð½Ð³":4784,"Î²":4785,"Ã³ng":4786,"elen":4787,"ĠVal":4788,"Ġkaj":4789,"Ġleg":4790,"ÙħÙĪ":4791,"Ã¡i":4792,"kk":4793,"iny":4794,"ä¸º":4795,"Ġ2014":4796,"Ø§Ø³Øª":4797,"ÐºÐµ":4798,"áī£":4799,"ĠÐ¦":4800,"Ġà¨Ĺ":4801,"abi":4802,"embre":4803,"ahi":4804,"dz":4805,"ĠØ³Ø±":4806,"áĢ¼áĢ®áĢ¸":4807,"æĸ¹":4808,"å¾Ĺ":4809,"itan":4810,"21":4811,"Õ¡Õ¾":4812,"à¦°à¦¤":4813,"Ġpou":4814,"alak":4815,"Ġia":4816,"ĠsÃ©":4817,"à·ĸ":4818,"ĠÙĦÙĩ":4819,"à¯į.":4820,"ÑĤÑĤ":4821,"Ġwie":4822,"Ð¿ÑĢ":4823,"Ð¾ÑĢÐ°":4824,"áĥĲáĥĹ":4825,"Ð¾Ð»Ð¾Ð³":4826,"Ð²ÐµÑĢ":4827,"Ġ1999":4828,"burg":4829,"zer":4830,"äºĨ":4831,"ĠáĬĲ":4832,"Ġsak":4833,"Ġgra":4834,"×ķ×ĵ":4835,"æĶ¿":4836,"àº²àºį":4837,"à¹Ģ":4838,"ÑĬÑĥ":4839,"ublik":4840,"áĢ¯áĢ¶":4841,"å·ŀ":4842,"Ð¥":4843,"àª³":4844,"bum":4845,"ĠEm":4846,"ĠÏĦÎ¿":4847,"Â«":4848,"arm":4849,"áĥĿáĥļ":4850,"icht":4851,"ĠÐºÑĢ":4852,"áĥ£áĥļáĥĺ":4853,"ĠEng":4854,"áĢŃáĢ¯áĢ¸":4855,"áĥĿáĥłáĥ":4856,"Ø¯ÙīÙĨ":4857,"Ġword":4858,"ĠpÃ²":4859,"à¶©":4860,"ĠáıĤ":4861,"à¾Łà¼ĭ":4862,"Ġìł":4863,"à¾±à¼ĭ":4864,"ÑĥÐ»ÑĮ":4865,"Õ¯":4866,"Ġ--":4867,"ä¸ĭ":4868,"á»ĳ":4869,"Ġkilom":4870,"Ġend":4871,"êµ":4872,"ĠIng":4873,"à¤ıà¤ķ":4874,"à¦ī":4875,"áĥĺáĥĵ":4876,"ĠSal":4877,"ober":4878,"áı´":4879,"ãģ£":4880,"ê²":4881,"ÑĥÐ²Ð°":4882,"uns":4883,"Ġraz":4884,"Ġnon":4885,"Ġáĥĳ":4886,"ĠÐ¸Ð¼":4887,"Ġ×Ĳ×Ļ×Ł":4888,"Ġgar":4889,"Ġ×Ķ×ŀ":4890,"fl":4891,"ÛĮÙĩ":4892,"Ø¦ÙĬ":4893,"aden":4894,"Ġrah":4895,"Ġà¦¹à¦¯":4896,"àº½":4897,"à´§":4898,"Ġà¬°":4899,"×Ļ×Ķ":4900,"ÏģÎ±":4901,"Ġtor":4902,"ÑıÐ¼":4903,"ÃŃÃŃ":4904,"ĠáĢĶ":4905,"à¥Īà¤Ĥ":4906,"Ø³Ùħ":4907,"éĤ":4908,"35":4909,"ĠAg":4910,"pen":4911,"Ð²ÑĢ":4912,"äºĭ":4913,"larÄ±":4914,"Ġare":4915,"áĥ£áĥļ":4916,"à½łà½Ľ":4917,"Ġprof":4918,"×ļ":4919,"à¨¡":4920,"ĠTim":4921,"ä¸ĸ":4922,"ĠÑįÐ¼":4923,"iq":4924,"Ġord":4925,"inga":4926,"iza":4927,"æµ·":4928,"ĠbaÅŁ":4929,"Ġou":4930,"áĬŃ":4931,"Ġà¤ħà¤§":4932,"áĢ±áĢ¬áĢº":4933,"ÚĻ":4934,"Ġnel":4935,"Ã¡c":4936,"ree":4937,"ÑĢÐ°Ð¼":4938,"Ġsay":4939,"Î¿Ïį":4940,"à¸²à¸¡":4941,"à®ªà®Ł":4942,"Ġgy":4943,"ĠÐ±ÐµÑĢ":4944,"ĠÐľÐ°ÑĢ":4945,"àº²àº¡":4946,"kh":4947,"su":4948,"áĥĳ":4949,"ĠvÃł":4950,"ÑĭÐ»Ð´":4951,"ĠÚħ":4952,"Ġngwag":4953,"xi":4954,"áĥłáĥ":4955,"à½ĸà½Ģ":4956,"ĠÐ¾Ñģ":4957,"ĠØ§ÙĦØ£":4958,"Ġà»Ģàº":4959,"Ã¡h":4960,"Ġstat":4961,"ĠXV":4962,"è»į":4963,"vat":4964,"Ġ31":4965,"ĠØ¦ÛĨ":4966,"sen":4967,"Ä±nÄ±":4968,"xa":4969,"æĮ":4970,"ace":4971,"Ġ187":4972,"à±ģà°Ĥ":4973,"aku":4974,");":4975,"ĠRa":4976,"istan":4977,"×Ļ×ľ":4978,"ĠÛģÙĪ":4979,"tan":4980,"æ¨":4981,"Ġmel":4982,"ĠLo":4983,"Ã³d":4984,"Å¡k":4985,"æľĥ":4986,"ÙĦÙīÙĤ":4987,"æĦ":4988,"æĲ":4989,"ÙħØ§ÙĦ":4990,"ĠBrit":4991,"egi":4992,"ote":4993,"inen":4994,"ĠWe":4995,"Ã°ur":4996,"Ġà¤Ł":4997,"æ³ķ":4998,"ÚĪ":4999,"Ð°ÑģÐ°":5000,"áº£":5001,"Ġà¤ĩà¤¤":5002,"Ġë°":5003,"éģĵ":5004,"Ġdip":5005,"Ġwor":5006,"ĠOl":5007,"èĻ":5008,"omp":5009,"áĬł":5010,"ÙĩØ§ÛĮ":5011,"cion":5012,"Ġvom":5013,"wag":5014,"åĮĹ":5015,"áĥĲáĥ¤":5016,"Ã°i":5017,"inta":5018,"Úĳ":5019,"à¨ĸ":5020,"Ġvir":5021,"ĠÙħÛķ":5022,"enz":5023,"uro":5024,"ÐĽ":5025,"Ġà¤¡":5026,"erra":5027,"à¬ı":5028,"á»ĩ":5029,"ãĥ¼ãĥ":5030,"Ġïº":5031,"àªļ":5032,"ĠÚ©Ø±Ø¯":5033,"à»Ģ":5034,"Ġà¦Ĩà§°":5035,"ÑĩÐ¸":5036,"Ġ×Ĳ×Ļ×ĸ":5037,"En":5038,"omi":5039,"à¶°":5040,"wana":5041,"Ġbes":5042,"ĠEd":5043,"Ð¤":5044,"ÙĦÙīØ±Ùī":5045,"Ò»Ñĭ":5046,"eto":5047,"à¶Ĥ":5048,"Ùĭ":5049,"eve":5050,"Ġlif":5051,"à½ĺà½Ľ":5052,"los":5053,"Ġà¤ªà¤¹":5054,"ØªÙĪ":5055,"Ø¯Ûĩ":5056,"Äģn":5057,"ird":5058,"à©ĭà¨Ĥ":5059,"à¾³à½¼":5060,"Ġover":5061,"à¥¨":5062,"Ġali":5063,"ĠMas":5064,"itas":5065,"ĠÐºÐ¸":5066,"ĠÙħÙĤ":5067,"Ð½ÑĭÐ¼":5068,"Ġà¤®à¤¨":5069,"áģĬ":5070,"etti":5071,"adr":5072,"Ø¥":5073,"Ġnanga":5074,"Ġud":5075,"à¤ªà¤°":5076,"ock":5077,"lov":5078,"ques":5079,"...":5080,"ĠÑħÑĥÑĮÐ»Ñĥ":5081,"ç½":5082,"à°¬":5083,"à§¨":5084,"Ġgw":5085,"ĠØ´ÙĩØ±":5086,"Ġ45":5087,"ĠÊ»i":5088,"à¸·à¹Ī":5089,"ĠTur":5090,"æĬ":5091,"ĠÐ±ÑĥÐ»":5092,"ĠØ§ÙĦØŃ":5093,"áĥĿáĥ¡":5094,"ÐµÑģÐ¿ÑĥÐ±Ð»Ð¸Ðº":5095,"mar":5096,"à·ģ":5097,"ĠÐºÐ°Ð»":5098,"Ð¸ÑĨ":5099,"à¥ĭà¥¤":5100,"ÐµÑĤÐ¾":5101,"áį£":5102,"ìĸ´":5103,"ĠNe":5104,"Ġgl":5105,"ĠàªŃ":5106,"à¾²à½º":5107,"Ġáı¥":5108,"gar":5109,"ëĿ":5110,"ĠÐ±Ð°ÑĢÐ°Ð¼":5111,"Ó§Ð´":5112,"Ġdon":5113,"ĠWar":5114,"ĠSc":5115,"ĠÐºÑĮ":5116,"å±±":5117,"tar":5118,"Ã¢i":5119,"gal":5120,"Úķ":5121,"Ġà¶ĳ":5122,"Ġà´İ":5123,"90":5124,"Ð¨":5125,"Õ¡Õ½":5126,"Ġayisyen":5127,"kat":5128,"adas":5129,"ĠnjÃ«":5130,"ÙĦØ§Ùħ":5131,"Ġgel":5132,"ÙĬØª":5133,"ĠMin":5134,"ĠPl":5135,"ë¦¬":5136,"Ġnt":5137,"ĠØ¨Ø§ÙĦ":5138,"ĠáĢħ":5139,"ÑĭÑĩ":5140,"tica":5141,"ĠDo":5142,"ĠÐ¼Ð°ÑĢ":5143,"áĥĶáĥłáĥ":5144,"nÃ©":5145,"ĠsÃª":5146,"Ð¾Ð»Ð°":5147,"Å¡e":5148,"ÑĳÑĢ":5149,"Õ¥ÖĢÕ":5150,"esp":5151,"ĠÐ¿Ð¾Ð´":5152,"ÐµÑĤÑĢ":5153,"àº²àºĶ":5154,"Ġ1990":5155,"Ġnet":5156,"ĠÅĤa":5157,"Ġroku":5158,"à²¦à²²":5159,"à¶¢":5160,"Ġà¤ħà¤°":5161,"áıįáİ¬":5162,"fs":5163,"ÙīÙĨ":5164,"Ð°Ð»Ð°Ð½":5165,"ëĤ":5166,"à°¶":5167,"ĠÐ¼Ð°":5168,"ĠÐ¾Ð½":5169,"ĠVer":5170,"Ġdengan":5171,"ÙħÙĩ":5172,"36":5173,"Ġàª¶":5174,"à©Ĥà©°":5175,"è§":5176,"Ð»Ð°Ð²":5177,"Ġger":5178,"Ġeste":5179,"ÑħÐ°Ð½ÑĪ":5180,"Ch":5181,"ĠÙĪØ±":5182,"Ġmem":5183,"Ġnin":5184,"ultur":5185,"add":5186,"Ġnor":5187,"idade":5188,"ĠáĭŃ":5189,"ĠáŀĬ":5190,"ĠDr":5191,"ĠØªÛĴ":5192,"Ð»ÐµÐ´":5193,"itÃ©":5194,"áİŃ":5195,"own":5196,"Ġê·¸":5197,"vet":5198,"ÑĥÑģÑĤ":5199,"oki":5200,"Ġà®Ĩ":5201,"ĠMus":5202,"ĠØ³ÛĴ":5203,"Ð¸Ð¹Ð»Ð°":5204,"Ä±nÄ±n":5205,"Ġhis":5206,"ĠØ±Ø§":5207,"Ġste":5208,"esto":5209,"à§ĥ":5210,"Ġ2015":5211,"ÏĢÏĮ":5212,"ç©":5213,"anan":5214,"Ġani":5215,"Ð°Ð»Ð´":5216,"Ġbeg":5217,"Ã»n":5218,"é¦":5219,"Ġtip":5220,"ÑįÐ¶":5221,"antes":5222,"Ġasin":5223,"ç¬¬":5224,"Ð½ÐµÐ½ÑĮ":5225,"à¤°à¤¦":5226,"Ø³ÙĬ":5227,"ĠIm":5228,"ĠÙĬÛĲ":5229,"ÑĭÑĥ":5230,"à½ĸà½Ļ":5231,"uto":5232,"195":5233,"39":5234,"jn":5235,"Ġkul":5236,"ĠmÃ¡":5237,"à¬ļ":5238,"ĠSte":5239,"×Ļ×¢":5240,"ä»£":5241,"Ġà¹ģ":5242,"Ġcal":5243,"ÃŃt":5244,"ĠFl":5245,"à½Ĥà½ĵà½¦":5246,"Ð¸ÑģÑĮ":5247,"ĠÃģ":5248,"ĠáŀĢ":5249,"Ó©Ð³":5250,"38":5251,"é¡":5252,"àµį.":5253,"Ġvel":5254,"ĠrÃ©":5255,"ĠÙħÙĦ":5256,"áĥĶáĥĹ":5257,"Ġà¤¸à¤¨":5258,"Ð»Ð°Ð¼":5259,"ĠâĢ¢":5260,"Ã¦r":5261,"ence":5262,"à°ľ":5263,"ĠÑĤÐ°Ðº":5264,"Ġyo":5265,"uts":5266,"jas":5267,"ĠÞĮ":5268,"Ð¾Ð²ÑħÐ°":5269,"Ġcy":5270,"ĠvÉĻ":5271,"ÑģÐºÐ°":5272,"è¶":5273,"Ġkana":5274,"áĥ§":5275,"Ġ186":5276,"III":5277,"Ð»Ð¾Ð²":5278,"Ġcre":5279,"rist":5280,"æ¥":5281,"wu":5282,"Ð½Ð¾Ð³Ð¾":5283,"ĠÙĪÙĬ":5284,"á»§":5285,"Ð½ÑĭÒ£":5286,"ĠÎ¼Îµ":5287,"Ġgre":5288,"son":5289,"âģ":5290,"éŁ":5291,"ydd":5292,"itz":5293,"berg":5294,"Ö·":5295,"ÑĸÑģ":5296,"ÚĨÙī":5297,"åģ":5298,"Ð°ÑĦ":5299,"ÑĤÑĥÑĢ":5300,"Ġdig":5301,"ĠHar":5302,"èŃ":5303,"Īëĭ¤":5304,"Ġ60":5305,"à¾Ĳà¾±à½º":5306,"Ð½Ð¾Ð²":5307,"àªĸ":5308,"ĠØ¬Ùĩ":5309,"tur":5310,"âĢİ":5311,"Ġyw":5312,"áŁĥ":5313,"ĠCol":5314,"ĠÅł":5315,"à¤Ĩ":5316,"ĠÚ©Ûķ":5317,"Ø§Øº":5318,"ĠGo":5319,"åķ":5320,"à¤ĺ":5321,"alli":5322,"Ã¼k":5323,"iyo":5324,"ÛĮØ§Úº":5325,"å¾·":5326,"Ġngan":5327,"ystem":5328,"jel":5329,"Ã¤i":5330,"ĠHer":5331,"Ġcir":5332,"utu":5333,"Ġà°¦":5334,"can":5335,"rin":5336,"ÑĥÐ¹":5337,"ĠØ§Ú©":5338,"Ð¸Ð¾Ð½":5339,"Ġee":5340,"ky":5341,"'d":5342,"ÑĤÐ¸Ð½":5343,"Äįi":5344,"ìĿ¸":5345,"Ġsor":5346,"Ġmol":5347,"ÏģÎ¹":5348,"zh":5349,"ÙħÛķ":5350,"à¥ģà¤Ĥ":5351,"Ġlifay":5352,"ĠÑģÐº":5353,"ãĥ»":5354,"Ġ2002":5355,"Ġprov":5356,"ĠàŃ":5357,"atik":5358,"ĠÃĩ":5359,"37":5360,"Ġhot":5361,"à¾¦":5362,"áĥĺáĥł":5363,"Ð°ÑģÑĭ":5364,"à¶ºà¶ļ":5365,"áĥ¥":5366,"à¸±à¹ī":5367,"ĠÑĥÐ³Ð³Ð°ÑĢ":5368,"cl":5369,"yg":5370,"Ġdil":5371,"ÙĨÙĪ":5372,"Ġê°":5373,"Úģ":5374,"Ġcent":5375,"Ã¡v":5376,"Ġà¤¤à¤¥":5377,"zÃ«":5378,"ÑĥÑĥÐ´":5379,"Ġvis":5380,"Ġáĥ£áĥ":5381,"rich":5382,"ĠÕ¶":5383,"Ġà¤¬à¤¨":5384,"Ġà§¨":5385,"49":5386,"imal":5387,"Ġperi":5388,"Ġacc":5389,"ight":5390,"ÑģÐ°Ð½":5391,"Ġprop":5392,"è²":5393,"ĠØ±Ùĩ":5394,"à½Ĥà½ı":5395,"ĠAz":5396,"Ġesta":5397,"ĠÒ¡":5398,"Ġmah":5399,"ÛĮÚº":5400,"iw":5401,"Ġ×Ĺ":5402,"ange":5403,"à½ĺà½Ĩ":5404,"âĢĺ":5405,"à¤°à¤µ":5406,"ĠØªØ§":5407,"Ġ35":5408,"Ä©":5409,"à¥ī":5410,"æķĻ":5411,"Ġà½£":5412,"Ġngwageng":5413,"Ġhag":5414,"Ġmeg":5415,"ÙĨØ§":5416,"à§ª":5417,"ĠÚĺ":5418,"×Ļ×§":5419,"ender":5420,"ept":5421,"Ġkin":5422,"ores":5423,"Ġhod":5424,"Ġdisi":5425,"Úļ":5426,"Ġáĥ¤":5427,"ovan":5428,"Ġàªķàª°":5429,"km":5430,"Ġtrans":5431,"Ã¡g":5432,"Ã¡ng":5433,"Ð¸Ð½Ðµ":5434,"uden":5435,"Þ«":5436,"idu":5437,"ĠÙĪÙĦ":5438,"ogo":5439,"éĥ½":5440,"ÑĬÑĳÑģ":5441,"bre":5442,"leri":5443,"ëł":5444,"Ġlet":5445,"ÙĨÙĬ":5446,"à¬¯":5447,"ilis":5448,"Ø¨ÙĬ":5449,"æĿ±":5450,"lag":5451,"uer":5452,"Ä¾":5453,"Ġkang":5454,"ĠGre":5455,"ĠOn":5456,"å¤©":5457,"cis":5458,"ĠTi":5459,"Ġáİ¾áİ":5460,"Ġtsa":5461,"ĠÃ«":5462,"ÑĭÐ±":5463,"ĠÄĹ":5464,"ps":5465,"chh":5466,"áı±":5467,"ican":5468,"Ġnem":5469,"ÙĪÙĩ":5470,"Ø´Ø±":5471,"Ġgran":5472,"Ð°Ð»Ð°ÑĢ":5473,"ãģĤ":5474,"ĠÚ©Ø§":5475,"Ġ2003":5476,"Ġplu":5477,"Ġsos":5478,"áŁģáŁĩ":5479,"à¥ĩà¥¤":5480,"é«ĺ":5481,"cho":5482,"Ġroz":5483,"ĠÑĥÐ³Ð³Ð°ÑĢÐµ":5484,"Un":5485,"Ġ000":5486,"Ø§ÙĨÙĩ":5487,"ÑħÐ°Ð½ÑĪÑĭÐ²":5488,"Ġmez":5489,"Ð¾ÑģÑģ":5490,"çı":5491,"Ġà¬ľ":5492,"áĥĶáĥĽ":5493,"Ġcas":5494,"agai":5495,"Ġef":5496,"àº²àºģ":5497,"Ġimp":5498,"Ġnyang":5499,"Ġnav":5500,"Ġune":5501,"âģ¿":5502,"àº®":5503,"stitu":5504,"ÄĹn":5505,"itat":5506,"Ø¨Ø¯":5507,"Ġunn":5508,"ĠWa":5509,"ĠáĢģ":5510,"ãĤī":5511,"çĲĨ":5512,"ition":5513,"icu":5514,"Ġà¬ĵ":5515,"ĠÎ³":5516,"47":5517,"hal":5518,"ë§":5519,"ĠÙħØª":5520,"æĸ°":5521,"Ġneb":5522,"ÙĦØ§ÙĨ":5523,"ĠÐ±Ð°ÑĢÐ°Ð¼ÐµÑħÑĮ":5524,"Ø±Ø§":5525,"ÑĸÐ¼":5526,"jin":5527,"ĠdÃ¤t":5528,"Ġleng":5529,"Ġà²¶":5530,"31":5531,"à¸ĸ":5532,"à²¾à²Ĥ":5533,"ĠØ¦ÛĲ":5534,"èĩ³":5535,"Ġwu":5536,"Ġà®İ":5537,"à²Ń":5538,"Ġlok":5539,"áŁĢ":5540,"Ð¾ÑĢÐ´":5541,"çī©":5542,"Ġáį":5543,"×ķ×ĳ":5544,"àµģ.":5545,"Ð½ÑĭÐ¹":5546,"Ġadalah":5547,"ames":5548,"Ġyer":5549,"Ġà¬¤":5550,"Ã¨l":5551,"ØªØ§Ø¨":5552,"åı¯":5553,"ĠÐĲÑĢ":5554,"çŃī":5555,"ÑıÐ»":5556,"Ġprovin":5557,"à¬Ń":5558,"Ã©gÃ²":5559,"elas":5560,"ĠÚ©Ø§ÙĨ":5561,"akar":5562,"Ġqui":5563,"chu":5564,"ÙĬØ¡":5565,"Ġbab":5566,"iche":5567,"ÚĨÛķ":5568,"ÐºÐ°ÑĢ":5569,"Ġ1996":5570,"ìĬ¤":5571,"esse":5572,"ÑĸÑĤ":5573,"ĠÙĨÛĴ":5574,"é»":5575,"con":5576,"iliz":5577,"ĠÑĤÐ°ÑĢ":5578,"áī¸":5579,"mat":5580,"ĠÐ°Ð¶":5581,"Ġhas":5582,"Ġnoch":5583,"aria":5584,"Ġeh":5585,"ĠÙĪÛĮ":5586,"Ð¸Ð»Ð¸":5587,"ÑģÐ¿":5588,"Ã©d":5589,"iment":5590,"ÑİÑĢ":5591,"ĠÑĤÐ¾":5592,"áºŃ":5593,"Ġsitu":5594,"ĠReg":5595,"Ġess":5596,"196":5597,"ÑįÐº":5598,"iej":5599,"Ã¦Ð³":5600,"ĠÃ¬":5601,"omen":5602,"Ġrok":5603,"Ġà®ī":5604,"34":5605,"Ð¸ÑĦ":5606,"laq":5607,"ÑĢÐ°ÑĦ":5608,"rik":5609,"Ä±z":5610,"Õ¸Õ¾":5611,"Ġpus":5612,"ĠKe":5613,"rd":5614,"ĠkÄģ":5615,"Ġhuk":5616,"à¯Ĥ":5617,"Ġà¦¥":5618,"ĠÐ²ÐµÐ»":5619,"Ø§Ø·":5620,"ĠìĦ":5621,"èĲ":5622,"aste":5623,"ëĿ¼":5624,"Ġdah":5625,"Ġty":5626,"Ġkg":5627,"ilt":5628,"ump":5629,"Ġà¶»":5630,"Ġmaj":5631,"ÒĵÐ°Ð½":5632,"nen":5633,"anya":5634,"ãĥ«":5635,"rad":5636,"ÉĻs":5637,"ÛĮÙĨÛĮ":5638,"ublic":5639,"Ġà¥§à¥¯à¥":5640,"lem":5641,"Ġpay":5642,"Ø¯Ø§Ø±":5643,"×Ĳ×ľ":5644,"Ġfac":5645,"Ð´Ð°Ð³":5646,"apat":5647,"ÑĭÐ½ÑĭÒ£":5648,"ĠÎŃ":5649,"ìĺ":5650,"alu":5651,"Ð´ÐµÐ½":5652,"ÙĪÙĨÙĪ":5653,"åĶ":5654,"Ġtha":5655,"ĠWal":5656,"ÑĥÑĢÑĤ":5657,"Ð¸Ð»Ðµ":5658,"ĠÅŀ":5659,"ç¦":5660,"atl":5661,"Ġrom":5662,"utt":5663,"vor":5664,"Ñ£":5665,"ĠÑĤÐµ":5666,"áĥĲáĥ¢":5667,"Ġà°°":5668,"ãĤĬ":5669,"ĠÑįÐ»":5670,"Ġcat":5671,"Ġov":5672,"ĠLu":5673,"ĠÐ¸Ð»":5674,"Ġstud":5675,"Î½Î±":5676,"Ð°Ñŀ":5677,"Ġnord":5678,"Ġsuk":5679,"ĠCa":5680,"ape":5681,"ÓĻÐ»":5682,"Ú¾ÛĮ":5683,"ÌĦ":5684,"à©Īà¥¤":5685,"wn":5686,"Ġkra":5687,"ÛĩÙĦ":5688,"ÑģÑĮÐº":5689,"omas":5690,"ling":5691,"sz":5692,"Ġdun":5693,"Ġbro":5694,"ĠÃī":5695,"irk":5696,"Ġ×ĺ":5697,"ãģĵ":5698,"Ġáĭ¨áĪ":5699,"ĠSaint":5700,"Ġfamilia":5701,"áĢĺ":5702,"ãģķ":5703,"Ò·":5704,"ĠÐĻ":5705,"Ø¯ÙĪ":5706,"Ø²ÛĮ":5707,"ÓĻÐ¹":5708,"Ġach":5709,"Ġnat":5710,"ÑĸÑĩ":5711,"Ġ185":5712,"Ġentre":5713,"¶Ģ":5714,"ĠáŀĶ":5715,"Ġpob":5716,"à§«":5717,"cio":5718,"ĠLand":5719,"ÛĩÙĨ":5720,"ensus":5721,"32":5722,"ĠÑģÑı":5723,"gn":5724,"Ġbit":5725,"oria":5726,"ĠNi":5727,"ĠÐ»ÑĬ":5728,"ÛĪØ±":5729,"ÄĿ":5730,"ãģĭ":5731,"ĠáĭĪ":5732,"Ġnake":5733,"à¾«":5734,"Ġnaj":5735,"Ġesc":5736,"ilipinas":5737,"áıĥ":5738,"Ò»Ð°":5739,"æĽ°":5740,"ìļ":5741,"Ġayns":5742,"Ġdei":5743,"à¤¤à¤®":5744,"Å¯m":5745,"ĠáĬ¥áĬķ":5746,"Le":5747,"áŀ¶âĢĭ":5748,"×ķ×ŀ":5749,"Ġfrom":5750,"éĹ":5751,"ony":5752,"ĠØ¬Ø§":5753,"Ð²Ð»Óĵ":5754,"ç·":5755,"Ð»ÑįÐ½":5756,"ĠÐ±Ð¾":5757,"Ġtang":5758,"ĠJa":5759,"çº":5760,"ĠnÃ¡":5761,"Ġáİ¨áıĴ":5762,"Ġcha":5763,"Å¡a":5764,"ê¸°":5765,"Ò¯Ð¼":5766,"ster":5767,"ĠÙ¾ÛĮ":5768,"Ġáī°":5769,"Ġfranc":5770,"ĠnÃŃ":5771,"ĠSk":5772,"Ð±ÑĢ":5773,"tera":5774,"áĢĴ":5775,"à½²à¼į":5776,"Þ¯":5777,"ÑģÐµ":5778,"Ġpost":5779,"ams":5780,"à½ĳà½ĸà½Ħ":5781,"Ġgj":5782,"ĠÐºÐ¾Ð´":5783,"à»Ĥ":5784,"Ó±":5785,"ÑİÐ½":5786,"Ġàª²":5787,"ĠVen":5788,"Ġvor":5789,"ĠÎ½":5790,"ĠÐĸ":5791,"ĠMed":5792,"Ġà´ĩ":5793,"Ġara":5794,"onga":5795,"Ð¸ÑĩÐµÑģÐº":5796,"Ġnakeuh":5797,"ÐµÐ½Ð°":5798,"Ġà¦°":5799,"ÙħØ±":5800,"Ġà¨Ĩ":5801,"Ġpred":5802,"Ġtae":5803,"å¹³":5804,"ĠgÄ§":5805,"ÑĩÐµ":5806,"Ġiss":5807,"áıįáıĽ":5808,"éĿ¢":5809,"à¯į,":5810,"Ø§ÙĦÛĮ":5811,"ave":5812,"Ġë§":5813,"Ġtri":5814,"Ð°ÑĤÐ¸":5815,"ĠìĹ":5816,"ograf":5817,"amba":5818,"Ġhin":5819,"ÐµÐ½Ðµ":5820,"Ġsed":5821,"stan":5822,"Ġáİ¬":5823,"ãĤĤ":5824,"áº¥":5825,"Ġshi":5826,"ĠBur":5827,"ĠFo":5828,"Ð¾ÑĢÐ¼":5829,"ä½į":5830,"ĠØ¨Ø¹Ø¯":5831,"kas":5832,"ÙģØª":5833,"éĢļ":5834,"ëıĦ":5835,"ĠÃĦ":5836,"46":5837,"tl":5838,"icha":5839,"éķ·":5840,"Ġmut":5841,"sto":5842,"ĠÐ¿ÑĢÐµÐ´":5843,"Ġ80":5844,"åĸº":5845,"Ġà¶ĩ":5846,"ÙĤØ§":5847,"ĠØ³ÙĨ":5848,"ines":5849,"Ð°ÑĤÑĥÑĢ":5850,"ä»ĸ":5851,"isp":5852,"isse":5853,"ĠÐºÓ©":5854,"å°±":5855,"abe":5856,"ĠØ§ÙĦØ¨":5857,"33":5858,"ĠÕ¿":5859,"à·Ĵ.":5860,"hl":5861,"ĠAustr":5862,"Ġà²Ī":5863,"æľĢ":5864,"Ġkomp":5865,"ress":5866,"çĶ±":5867,"áī¸áĭį":5868,"Ġneg":5869,"ĠÛĶ":5870,"à¸£à¸²à¸":5871,"áĥĺáĥĻ":5872,"ÄķÑĢ":5873,"Ġsti":5874,"Ġred":5875,"ÑģÑĤÑĮ":5876,"ÏĦÎ±":5877,"à¥®":5878,"ĠÚķ":5879,"áĥĶáĥĳáĥĺáĥ¡":5880,"Ġà¦ħà¦¨":5881,"ĠÒ»ÓĻÐ¼":5882,"Ã¯":5883,"inal":5884,"è·¯":5885,"Ġà½Ĥ":5886,"kom":5887,"Ġru":5888,"ÑĢÐ°Ð»":5889,"Ġà¬Ĩ":5890,"azz":5891,"ĠÖĩ":5892,"ĠRus":5893,"rey":5894,"jem":5895,"Ġà¤ĵ":5896,"ĠGi":5897,"Ã¼nd":5898,"Ġmao":5899,"ndr":5900,"ĠØ¯ÙĪØ±":5901,"Ġà´ļ":5902,"¡à¼":5903,"Ġdok":5904,"itet":5905,"àª·":5906,"Ġcur":5907,"à½ĸà½ĳ":5908,"ĠØ¨Ø§Ø´":5909,"Ã¢u":5910,"ç¤":5911,"Ð½Ð°Ð»":5912,"Ġaur":5913,"ukan":5914,"åħ¨":5915,"Ġê²":5916,"ìĽ":5917,"à´¹":5918,"Ġà¤Ĩà¤¹":5919,"éĩį":5920,"42":5921,"Ġtem":5922,"ĠOs":5923,"à¾Ĺà½ºà¼ĭ":5924,"ÑĢÐ¸ÑĤÐ¾ÑĢ":5925,"å¦":5926,"áĬ¨":5927,"à¾²à½²à¼ĭ":5928,"Ð¸ÑĤÐµÑĤ":5929,"ĠÃ¦Ð¼Ã¦":5930,"à¾·à¼ĭ":5931,"Ġà¬Ń":5932,"ĠÐĲÐ¼":5933,"net":5934,"Ġtok":5935,"ĠAk":5936,"ÑĽ":5937,"ĠÃ¢":5938,"ĠÐ¸ÑģÑĤ":5939,"Ù¼":5940,"Ġáİª":5941,"Ġà¤Ĩà¤¨":5942,"ë©":5943,"ĠØ§ÙĬ":5944,"ËĪ":5945,"ĠcÃ³":5946,"Ġziren":5947,"Õ¸ÖĢ":5948,"ÎµÎ¯":5949,"Ø®Ùĩ":5950,"ĠÑįÑĤ":5951,"nam":5952,"ÑĭÑģÑĤ":5953,"ĠSur":5954,"Ġtse":5955,"Ġmemb":5956,"Ġà²Ń":5957,"ØºÙĩ":5958,"Ġáı¥áıĦ":5959,"æĺİ":5960,"Å¥":5961,"Ġklas":5962,"urd":5963,"yar":5964,"Ġsuy":5965,"ĠáĥĵáĥĿ":5966,"è¦ģ":5967,"Ġtag":5968,"Ġnot":5969,"áº½":5970,"åīį":5971,"ĠÕ¡Õ":5972,"Ġdol":5973,"Ø£Ø±":5974,"ĠÒ³":5975,"ĠsÃŃ":5976,"ÑĸÐº":5977,"ĠJohn":5978,"ĠÐ¸Ð¹":5979,"ä¼ļ":5980,"ÙĪÙĪ":5981,"iran":5982,"ĠÐ±ÑĭÐ»":5983,"à°·":5984,"à±Ĭ":5985,"åĽĽ":5986,"åĮĸ":5987,"ĠviÃ°":5988,"Ġ=":5989,"Ġvari":5990,"áİ¨":5991,"ĠÕ£":5992,"dyr":5993,"wang":5994,"Ġdev":5995,"ÐµÑģÑĮ":5996,"Ð¡Ðł":5997,"Ġtit":5998,"à¦¼à¥¤":5999,"Ġáı§":6000,"ĠÊ»o":6001,"ÑĭÐ³ÑĬ":6002,"ĠØ§ÙĦÙĤ":6003,"Äĩi":6004,"Ð¸ÑĺÐ°":6005,"mm":6006,"Ġsun":6007,"ÑĭÐ½Ð°Ð½":6008,"áĢ¾áĢŃ":6009,"uran":6010,"Ġunt":6011,"ĠØ¬ÙĨ":6012,"Ġdre":6013,"ĠCan":6014,"Ð±ÑĥÑĢ":6015,"à¤ĩà¤²":6016,"ĠÆ":6017,"Ġning":6018,"Ġlim":6019,"ÄĥÐ½":6020,"åº¦":6021,"ÑĻ":6022,"ÛĮÛĮ":6023,"ĠÐºÐ°ÑĤ":6024,"ĠPas":6025,"app":6026,"áĢ±áĢ«":6027,"Ð¸Ðµ":6028,"Ġpel":6029,"áıı":6030,"Ġidi":6031,"ĠAp":6032,"lex":6033,"Õ¡Õ®":6034,"bal":6035,"ÑĢÑį":6036,"ĠÞĥ":6037,"43":6038,"sy":6039,"åħĥ":6040,"Ġkut":6041,"ĠMor":6042,"à¤¨à¤²":6043,"Ð¾Ð²ÐµÑĤ":6044,"hich":6045,"³Û":6046,"æĵ":6047,"à¦¾à¦Ĥ":6048,"Ġ1991":6049,"Ġlam":6050,"ÑĸÐ·":6051,"×Ļ×Ĳ":6052,"áŀĵáŀĢ":6053,"Õ¤":6054,"ĠØªÛķ":6055,"å®ļ":6056,"à»ĢàºĽ":6057,"eso":6058,"àº¼":6059,"asy":6060,"Ġà¬ıà¬¹":6061,"ham":6062,"ÙĪÙĤ":6063,"æı":6064,"inda":6065,"Ġbor":6066,"Ã©ro":6067,"jal":6068,"à¦°à¦¹":6069,"Ġà°Ĩ":6070,"ÙĪØ±ÛĮ":6071,"her":6072,"rez":6073,"Ġnoh":6074,"Ġpov":6075,"apan":6076,"à¾²à½¼à¼ĭ":6077,"åĲİ":6078,"Õ¸ÖĤÕ©ÕµÕ¸ÖĤÕ¶":6079,"Ð½Ð³":6080,"ĠØ¯ÙĦÙĩ":6081,"Ú©Ùĩ":6082,"åĬł":6083,"iru":6084,"Ġsich":6085,"ĠrÄģ":6086,"Ġwak":6087,"èĥ½":6088,"ÑĭÑı":6089,"ĠBi":6090,"igu":6091,"Ø²Ùī":6092,"ÙĪÙĨÛĮ":6093,"ĠÙĩÙĨ":6094,"ìĻ":6095,"ĠMu":6096,"ex":6097,"elm":6098,"Ã¢l":6099,"endi":6100,"itor":6101,"Ġwerd":6102,"ations":6103,"Ġ1980":6104,"ĠlÃ©":6105,"ĠPal":6106,"Ø¨Ùĩ":6107,"Ã¼t":6108,"Ã¦Ð¼":6109,"Ġnad":6110,"Ġvum":6111,"Ġep":6112,"Ġprogr":6113,"Õ¥Õ¶":6114,"ÏĥÎ·":6115,"ĠÙĥØ§ÙĨ":6116,"Õ¥Õ¿":6117,"ĠÎ±ÏĢÏĮ":6118,"Ð»Ð¾":6119,"ely":6120,"áĪª":6121,"Ġnap":6122,"Ġà´Ĩ":6123,"ĠDan":6124,"à½ħà½ĵ":6125,"Ġ×ª":6126,"uke":6127,"ìľ¼ë¡ľ":6128,"cer":6129,"ÑĢÐ¸Ð½":6130,"Ġsob":6131,"Ġà¦ĵ":6132,"ĠÐ±Ð°ÑģÑģÐµÐ¹Ð½Ñĭ":6133,"41":6134,"ĠÓĢ":6135,"Ġà²²":6136,"iene":6137,"75":6138,"icip":6139,"Ġlug":6140,"Ð±Ð°":6141,"Ġ2016":6142,"Ø§Ø¯ÛĮ":6143,"Ġà¦ıà¦ķ":6144,"æ®":6145,"ĠÐºÐ¾ÑĤ":6146,"Ã¨h":6147,"Ð°Ð³ÑĮ":6148,"ĠtÄģ":6149,"odd":6150,"Ġà¤¸à¤°":6151,"Ø§Ø¦ÛĮ":6152,"éĸĭ":6153,"bur":6154,"è£":6155,"usu":6156,"umu":6157,"ĠáĢĸ":6158,"ãĤ¤":6159,"à¾Ĳà½´à¼ĭ":6160,"onia":6161,"Ġnaf":6162,"ÑģÐºÐ¸Ð¹":6163,"Ð¸Ð»ÑĮ":6164,"à±ģ.":6165,"ĠáıĦ":6166,"hn":6167,"Ġec":6168,"ÑįÑįÐ½":6169,"Ð³Ð¸":6170,"ĠØ¨ÙīØ±":6171,"ÑĸÑı":6172,"ĠXI":6173,"ÏģÎ¿":6174,"ĠÙĬØ§":6175,"ws":6176,"Ø³Ø§ÙĨ":6177,"ÑģÑĤÐ°Ð½":6178,"udd":6179,"ogu":6180,"åĲĪ":6181,"rim":6182,"ates":6183,"åĽł":6184,"Ã¼rk":6185,"rem":6186,"Ð·Ðµ":6187,"ÑĩÑĭ":6188,"ĠÕ©":6189,"Ð¾Ð¼Ð¸":6190,"oms":6191,"ĠJos":6192,"ĠGa":6193,"Ġsuyu":6194,"Ġatt":6195,"åıĬ":6196,"áĥĲáĥłáĥĹ":6197,"ĠÏĦÎ·Î½":6198,"ngiÃ¨n":6199,"à¥©":6200,"Ġáıĵ":6201,"åĪ©":6202,"ä½¿":6203,"ĠÛ±Û¹Û":6204,"à¥«":6205,"ĠmÃ¡s":6206,"Ġoc":6207,"å»º":6208,"lak":6209,"olk":6210,"Ġ300":6211,"Ġlom":6212,"bit":6213,"Ġtahun":6214,".\"":6215,"dÉĻ":6216,"Úı":6217,"Ġtim":6218,"ÙĦØ±":6219,"Ã´n":6220,"áİ¦áı":6221,"ÑįÒ»":6222,"iones":6223,"ĠÎĳ":6224,"ĠÑıÐ½":6225,"ĠÙĥÛĲ":6226,"Ang":6227,"ĠBal":6228,"ĠáĢĳ":6229,"Ġ70":6230,"ãģ¦ãģĦ":6231,"vis":6232,"Ú¤":6233,"aten":6234,"Ã¨re":6235,"ĠØªÙĬ":6236,"áĮ¥":6237,"Ġ×ĳ×Ĳ":6238,"Ò³Ð¾Ð¸":6239,"bol":6240,"à¤¸à¤®":6241,"Ġadminist":6242,"wel":6243,"ç¸":6244,"à§§à§":6245,"uld":6246,"à¤²à¤®":6247,"áĭ³":6248,"à¯ģ.":6249,"à¸Ļà¸Ĺ":6250,"áĥ¬":6251,"ĠtÃ©":6252,"àª¬":6253,"udu":6254,"à§©":6255,"Ġip":6256,"over":6257,"emm":6258,"à³Ĩà²Ĥ":6259,"Ġesp":6260,"Äĥng":6261,"Äĩe":6262,".:":6263,"ĠÙħØ³":6264,"Ġ1998":6265,"çģ":6266,"à¦Ļ":6267,"Ġses":6268,"à°£":6269,"Ã¤nd":6270,"miÅŁ":6271,"44":6272,"hy":6273,"Ġspecies":6274,"Ø¯ÙĬ":6275,"Å¡u":6276,"ulag":6277,"ugh":6278,"ezi":6279,"Ġhae":6280,"èĪĩ":6281,"åŁİ":6282,"wy":6283,"tre":6284,"Ġdop":6285,"à§¬":6286,"Ã³s":6287,"ÙĢ":6288,"è¼":6289,"Ġastero":6290,"Ġxe":6291,"ĠKan":6292,"ĠâĢĿ":6293,"Ì¤-":6294,"jed":6295,"æĥ":6296,"Ġmy":6297,"Å¾i":6298,"ĠÐļÑĬ":6299,"à§¦à§¦":6300,"ool":6301,"Ġpin":6302,"ĠWest":6303,"ĠÂ»":6304,"à¸Ľà¸£à¸°":6305,"ÛķÙĪÛķ":6306,"Ġhann":6307,"Ð°Ð½Ð¸Ñı":6308,"Ġà¦¸à¦®":6309,"ÐŃ":6310,"Ġnun":6311,"ĠhÃ¨":6312,"ĠiÃ§":6313,"Ä±na":6314,"ĠKiba":6315,"ÐµÑĢÐ³":6316,"oon":6317,"Ġà½ĺ":6318,"Ġsw":6319,"Ġgal":6320,"ÑĮÑħ":6321,"ays":6322,"ĠÑĢÐµ":6323,"ÚĸÙĬ":6324,"atar":6325,"ĠÙħØ¬":6326,"×Ļ×ĵ":6327,"Ġary":6328,"Ġdim":6329,"akuna":6330,"Ð¸Ð¹Ð³":6331,"Ø¨ÛĮ":6332,"mon":6333,"ram":6334,"Ġdest":6335,"à·Ĥ":6336,"Å«s":6337,"ingen":6338,"lim":6339,"Ġbek":6340,"ral":6341,"ania":6342,"Ð²Ð¾ÑĢ":6343,"Ú¯Ùĩ":6344,"×¢×ľ":6345,"Ġà¤ħà¤Ń":6346,"esc":6347,"×Ļ×ĳ":6348,"à§°à¦¤":6349,"Ã¬ng":6350,"ĠAfrika":6351,"¡Ù":6352,"à¥¬":6353,"adt":6354,"ØªÙĬ":6355,"Ġjisk":6356,"ney":6357,"ÓĻÑĤ":6358,"ÑģÐºÐ¾Ð¹":6359,"nin":6360,"×ķ×¡":6361,"à¨¿à©°":6362,"ĠAf":6363,"à½ĳà½Ģ":6364,"áŀŁáŀĺ":6365,"à¾¡à½´":6366,"Ġà¦«":6367,"Ġdib":6368,"ĠÐ½Ð°ÑĢ":6369,"aza":6370,"à¥ª":6371,"Ġdans":6372,"amar":6373,"ÃŃm":6374,"ÑıÐ½ÑĮ":6375,"Ġking":6376,"à¤ķà¤²":6377,"×ĳ×¨":6378,"tÃ«":6379,"egen":6380,"ĠÙĨÙĪÚº":6381,"Ġperson":6382,"à¬Ĥ":6383,"ĠNov":6384,"ÑĭÐ½Ñĭ":6385,"ĠØ³Ø§ÙĨ":6386,"unan":6387,"Ġcm":6388,"ĠPir":6389,"Ġàªĸ":6390,"Ġzv":6391,"teri":6392,"ĠÑĪÐº":6393,"à½Ļà½ĺ":6394,"æ²»":6395,"Ġsit":6396,"ĠØ¶":6397,"ĠIntern":6398,"ÑĥÑĤÑĤ":6399,"Ġ1960":6400,"Ø§Ú»":6401,"ĠÑĤÒ¯":6402,"Ú©Ú¾":6403,"Å¡i":6404,"á»įn":6405,"ĠÑĤÐµÑĢÑĢÐ¸ÑĤÐ¾ÑĢ":6406,"ĠPort":6407,"ents":6408,"Ãłi":6409,"Ġà¦ľà¦¨":6410,"stit":6411,"à¥ģà¥¤":6412,"95":6413,"ĠsÃ¨":6414,"Ġbez":6415,"Ġprz":6416,"Ġwaar":6417,"éĩĮ":6418,"èī":6419,"Ġole":6420,"ÑĮÑı":6421,"ĠÚī":6422,"ĠIr":6423,"ï¼Ľ":6424,"ĠÐ¿ÑĢÐ°Ð²":6425,"ÑĪÓ¹":6426,"ciÃ³":6427,"à¶±à¶º":6428,"Ø§Ø±Ø¯":6429,"à´¨à´¤":6430,"ĠYork":6431,"ÑĥÑİ":6432,"Ġhistor":6433,"ynda":6434,"Ø¤ÙĨ":6435,"uje":6436,"åĤ":6437,"à°§":6438,"ĠMart":6439,"Ġmei":6440,"æĲŃ":6441,"ikal":6442,"ÃŃk":6443,"å¸Ŀ":6444,"Ġgener":6445,"ĠÙ»":6446,"ÑĩÐµÐ½":6447,"ëħ":6448,"à¸©":6449,"ĠMag":6450,"ÑĪÐ°":6451,"ĠCor":6452,"ĠØ¨ÛĮØ±":6453,"ëĵ¤":6454,"ges":6455,"ĠÐ±ÐµÐ»":6456,"å°ĩ":6457,"Ä±nd":6458,"ÃŃg":6459,"çī¹":6460,"hin":6461,"ÑĤÑĢ":6462,"áĥĺáĥĿ":6463,"Åıh":6464,"Ġsuper":6465,"ria":6466,"ÌĤ":6467,"Ð¸ÑĨÐ¸":6468,"igen":6469,"ĠÞĲ":6470,"Ġlag":6471,"áĥĺáĥ¢":6472,"Ġ;":6473,"aru":6474,"gl":6475,"ĠÙĤÙīÙĦÙī":6476,"uti":6477,"Ķáıħ":6478,"Ã³m":6479,"sko":6480,"nih":6481,"ĠáŁĶ":6482,"Ġdial":6483,"ĠFor":6484,"íķ´":6485,"Ġ1970":6486,"ÉĻl":6487,"amento":6488,"ĠMac":6489,"Ã¤ng":6490,"igan":6491,"udo":6492,"Ġunder":6493,"Ò¯Ò¯Ð»":6494,"Ġà¦ªà¦°":6495,"àºĽàº°":6496,"áĥĺáĥĽ":6497,"iver":6498,"eler":6499,"ĠØ§ÙĪÙĦ":6500,"ÑĸÐ¹":6501,"ÎµÏĤ":6502,"Ġà§°":6503,"ĠÊ»a":6504,"àº·à»Ī":6505,"ç¾İ":6506,"Ġcá»§":6507,"ĠKal":6508,"ĠHan":6509,"ÌĨ":6510,"Ġpak":6511,"ĠÐłÐµÑģÐ¿ÑĥÐ±Ð»Ð¸Ðº":6512,"à¾Ĳà¾±":6513,"Ð¾Ñŀ":6514,"Ġzi":6515,"à¤®à¤¨":6516,"Ġconc":6517,"aso":6518,"Ġfamili":6519,"à¨§":6520,"tav":6521,"Õ¡Öģ":6522,"Ð°ÐºÑĬ":6523,"áĥ£áĥłáĥĺ":6524,"áĥĲáĥª":6525,"ĠÐ¼Ð°ÑĤ":6526,"ĠZe":6527,"Ġ×ķ×ķ×¢":6528,"ĠKom":6529,"Ġ180":6530,"Ġcá»§a":6531,"):":6532,"ÙīØ³Ùī":6533,"Ġmens":6534,"àªĵ":6535,"asc":6536,"agiti":6537,"opp":6538,"ãĥ©":6539,"Ð°ÑĨÐ¸Ñı":6540,"à¸ŀà¸£à¸°":6541,"ÙĤØª":6542,"Î¿Î»":6543,"Ġgenus":6544,"nj":6545,"Ġáŀĸ":6546,"ĠÙĨÙĪÙħ":6547,"ØµØ±":6548,"ĠIII":6549,"áĭĪ":6550,"Ġkien":6551,"áĪ°":6552,"ĠÐ¸Ñİ":6553,"eria":6554,"Ġmein":6555,"ÑĬÑĢ":6556,"åħ±":6557,"fik":6558,"nim":6559,"ĠRom":6560,"stru":6561,"Ġ1992":6562,"ĠÐ±Ð°ÑģÑģÐµÐ¹Ð½":6563,"ĠÑģÐ¼":6564,"ĠÐ±Ð»Ð°":6565,"ĠÐ¿Ð¾Ñģ":6566,"äºĶ":6567,"ustri":6568,"upe":6569,"%,":6570,"Ġsat":6571,"Ġpass":6572,"Ġven":6573,"ĠgÃ¶":6574,"ĠÙħØ§":6575,"Ò»Ð°Ð½":6576,"Î¾":6577,"amat":6578,"ĠChar":6579,"Åįng":6580,"Ġà»ģàº¥àº°":6581,"jek":6582,"Ġjan":6583,"Ä±lÄ±":6584,"unga":6585,"ïºİ":6586,"ÐµÐ½Ð¸Ðµ":6587,"å£«":6588,"sin":6589,"alista":6590,"Ġprom":6591,"Ġáİłáıĵ":6592,"Ġsj":6593,"ÏİÎ½":6594,"Ġfak":6595,"Ġ1945":6596,"ê³¼":6597,"yna":6598,"ismo":6599,"Ġ(\"":6600,"ĠÚģ":6601,"à½Ĥà½ĳ":6602,"áĪī":6603,"ãģĻ":6604,"rn":6605,"Ġtid":6606,"undi":6607,"Ø§Ø±ÛĮØ®":6608,"ech":6609,"à´ľ":6610,"Ġáĥ¥":6611,"Ð°Ð¼Ð¸":6612,"ket":6613,"æ©":6614,"Ġsas":6615,"ìĹĲìĦľ":6616,"ÈĽi":6617,"ÙĦÛķØ±":6618,"Ġzw":6619,"à²°à²¤":6620,"ÑģÑĤÐ²Ð¾":6621,"unu":6622,"ĠKu":6623,"Ġáĥ®":6624,"áĥĶáĥĿ":6625,"Ð°ÐºÑĤ":6626,"ĠÐ¶Ð°Ð½Ð°":6627,"éĸĵ":6628,"Sa":6629,"ory":6630,"Ġout":6631,"à¤°à¤¯":6632,"à¤¸à¤¨":6633,"ÉĻt":6634,"áĥ£áĥľ":6635,"gol":6636,"rom":6637,"Ó¯":6638,"ello":6639,"itti":6640,"Ã§on":6641,"ister":6642,"ÛĩÙ¾":6643,"ÎµÏĦ":6644,"Ð»ÐµÑĢ":6645,"Ġbot":6646,"Ð°ÑĢÐ¸":6647,"áĥĺáĥ£áĥ":6648,"áıįáıĵ":6649,"pecies":6650,"ĠJac":6651,"undo":6652,"çĻ¼":6653,"Ġnis":6654,"Ġllaq":6655,"amer":6656,"ÙħØ¹":6657,"85":6658,"ĠFrank":6659,"ÑĤÐ¾Ð½":6660,"Ġtin":6661,"ilay":6662,"à¥Ģ.":6663,"ĠÕ«":6664,"ÑĢÐµÐ¼":6665,"Ð¸Ð¼Ð°ÑĤ":6666,"\")":6667,"dÄ±":6668,"ÑĢÐ°Ð·":6669,"ĠsÃ¶":6670,"Ġih":6671,"Ð°Ð»Ð´Ð°":6672,"à¤µà¤²":6673,"Ġuut":6674,"ĠÕ¢":6675,"ĠÐĲÐ·":6676,"Ġqab":6677,"ĠTu":6678,"Ġbulan":6679,"ÐĹ":6680,"Ġ&":6681,"à½ĸà½¤":6682,"ÄĹj":6683,"unk":6684,"ouv":6685,"baa":6686,"ball":6687,"Ġà¬Ĺ":6688,"×ķ×¤":6689,"ÛĮØ¯":6690,"Ġved":6691,"Ð¾ÑĢÐ¸":6692,"áĥŀ":6693,"Ð¾ÑĦ":6694,"Ġkes":6695,"ĠÐ³ÑĬ":6696,"ÐµÐ´ÐµÑĢ":6697,"Ð»Ð°Ñģ":6698,"ahn":6699,"áīĢ":6700,"Ú¯ÛķÙĨ":6701,"ĠÐºÐµÐ»":6702,"ĠÕº":6703,"å¤ª":6704,"ĠDisi":6705,"ĠNord":6706,"àµĬ":6707,"tab":6708,"à¤®à¤ķ":6709,"á»ģ":6710,"Ġdagiti":6711,"Ġwh":6712,"Ð°Ð¹Ð½":6713,"ersch":6714,"Ġforma":6715,"å°ı":6716,"Ġáĥ¬áĥĲáĥľ":6717,"Ġnohanga":6718,"à¦ł":6719,"à§®":6720,"Ġcel":6721,"ĠÐ¿ÑĭÑĢ":6722,"aca":6723,"Ġà³":6724,"Ġgad":6725,"à§Į":6726,"ĠBen":6727,"à¸Ĥà¸Ńà¸ĩ":6728,"Ġprot":6729,"áįį":6730,"è¨Ģ":6731,"Ġchh":6732,"Å¾e":6733,"ä½¢":6734,"Ġï»":6735,"Ġcamp":6736,"Ġáĥ¢":6737,"×Ļ×¡":6738,"ivo":6739,"çĽ¸":6740,"Ã©roid":6741,"ĠÐºÐ¾Ñĺ":6742,"ics":6743,"Ġ×ĵ×¢×¨":6744,"Ġbed":6745,"ĠLond":6746,"Ð¾Ð½Ð³":6747,"áĬĽ":6748,"ĠÃºt":6749,"ĠáĪĪ":6750,"Ġbik":6751,"ilik":6752,"imm":6753,"ĠBro":6754,"Ġene":6755,"Ġama":6756,"ÐºÐ¸Ð½":6757,"Ø´ÙĨ":6758,"à¤·à¤£":6759,"nia":6760,"ģáģ":6761,"ØªÛķ":6762,"×Ļ×Ĵ":6763,"åħī":6764,"Ġà¶ļà¶»":6765,"led":6766,"ÑĢÐ¾Ð½":6767,"Ð»Óĵ":6768,"Ġfat":6769,"ÑįÐ±":6770,"à¤¯à¤¸":6771,"Ãªs":6772,"isto":6773,"ĠØ¢ÙĨ":6774,"onan":6775,"imu":6776,"Ä±p":6777,"ĠRob":6778,"Ġà°ľ":6779,"áīħ":6780,"à²µà²¨":6781,"áĥ¨áĥĺ":6782,"ute":6783,"Ã©ra":6784,"ĠØ¨ÙĦ":6785,"à¥¦à¥¦":6786,"Ġstad":6787,"æľĿ":6788,"99":6789,"à¾Ĺà½º":6790,"alla":6791,"ated":6792,"Ġdeur":6793,"ĠPor":6794,"ÑĪÑĭ":6795,"ĠÐ²ÐµÑĢ":6796,"Õ¡Õ¬":6797,"ĠØªØ§Ø±ÛĮØ®":6798,"Ġà¤§à¤°":6799,"ãģķãĤĮ":6800,"ĠØ¨ÙĬ":6801,"à¤¦à¤°":6802,"å¤ĸ":6803,"Ġnen":6804,"ÙĪÚ©":6805,"ĠastÃ©roid":6806,"ĠEv":6807,"ĠØ§ÙĦØ¬":6808,"Äĥm":6809,"iert":6810,"èªŀ":6811,"ulagway":6812,"Ġdom":6813,"ĠwÄģ":6814,"Ê»i":6815,"Ġà¨ķà¨°":6816,"Ġsul":6817,"ĠsÃ³":6818,"ÑĤÐ°ÑĤ":6819,"ÑĥÑĥÐ½":6820,"ĠÙĨØ§Ùħ":6821,"Ġ1994":6822,"Ġ×Ķ×Ĳ×ĺ":6823,"Ġrus":6824,"Ð²Ð°Ð¹":6825,"ÑıÐ·":6826,"Ġaj":6827,"à³¦":6828,"entes":6829,"Ġarg":6830,"Ã²l":6831,"St":6832,"ae":6833,"Ð»Ñİ":6834,"ision":6835,"Ġgore":6836,"ĠMil":6837,"ĠØ¯ÙĬ":6838,"à¦¨à¦°":6839,"æŃ¤":6840,"à¹Ħà¸Ķ":6841,"wr":6842,"ĠMay":6843,"ivi":6844,"nei":6845,"àº±à»ī":6846,"Î¶":6847,"Ġkok":6848,"Ġcer":6849,"ĠBas":6850,"ĠHol":6851,"Ġub":6852,"Ð½Ð°Ñı":6853,"nis":6854,"Þĸ":6855,"Ġsai":6856,"àº²àº§":6857,"Ġimport":6858,"Ġ90":6859,"ei":6860,"arch":6861,"Ä±Ã±":6862,"Ġà¤®à¤§":6863,"Ġdepart":6864,"ĠÃ¹":6865,"ĠÐ³Ð°Ð·":6866,"Ð¾Ð´Ð°":6867,"ĠÚ¯ÙĦ":6868,"áĢĤ":6869,"Ġbang":6870,"yny":6871,"âĢĿ.":6872,"ĠAmerika":6873,"rek":6874,"ÐµÑģÑĤÐ²":6875,"88":6876,"arg":6877,"ĠÃĸ":6878,"Ø§Ø±Øª":6879,"ĠØ§ÙĦØ³":6880,"Ġìĭ":6881,"ungs":6882,"å®ī":6883,"Ġport":6884,"idos":6885,"áĥĲáĥ¥":6886,"áĥĶáĥĵ":6887,"Ġwaa":6888,"ÙĦÙīÙĥ":6889,"Ġà¦¬à¦°":6890,"ĠsÃº":6891,"Ä±w":6892,"ÛĨØ±":6893,"Ø§Úµ":6894,"elli":6895,"Ġà²ļ":6896,"Ġà²®à²¤":6897,"Ġinte":6898,"ÑĪÐµ":6899,"ÑĭÐ»Ñĭ":6900,"åĬĽ":6901,"ĠdÃ¶":6902,"Ġkop":6903,"à¤°à¤¹":6904,"à½Ĥà½Ħ":6905,"ĠØ¨ÛĲ":6906,"Ġunu":6907,"áİ¾áı":6908,"aght":6909,"áĢŁ":6910,"Ġbha":6911,"Ġëĭ":6912,"wat":6913,"Ġà¤ł":6914,"ĠtÄĵ":6915,"àºĸ":6916,"ithe":6917,"adem":6918,"á»Ľ":6919,"Ó§Ð¼":6920,"ÑļÐµ":6921,"ĠÐ°Ð¿":6922,"olah":6923,"ĠÑģÐ°Ð¼":6924,"ÑģÑĭ":6925,"à§Ń":6926,"ĠÙħØ´":6927,"Ġ×Ĳ×ķ×Ļ×":6928,"Ġ×¤×Ĳ×¨":6929,"com":6930,"gy":6931,"Ġalg":6932,"Ġà¨ĩà¨¸":6933,"Ġdef":6934,"ÑıÐ¹":6935,"ĠÐŀÑĢ":6936,"ĠÐ³Ð¾Ð´Ð¸Ð½Ð°":6937,"Ġ×¢×ľ":6938,"Ġdor":6939,"Ġà¤Ńà¤¨":6940,"ĠÅĽ":6941,"vers":6942,"encia":6943,"à¸ĺ":6944,"iau":6945,"Ð¸Ð»Ð°":6946,"Ġterrit":6947,"joni":6948,"ìĭľ":6949,"Ġà¦ĸ":6950,"Ġgrand":6951,"áĥĺáĥĲáĥľ":6952,"oks":6953,"Ġ36":6954,"ÑĥÐ»Ð°":6955,"Ġwatakuna":6956,"rea":6957,"Ã¥n":6958,"ĠÐłÐ¾ÑģÑģ":6959,"£¼":6960,"Ĳĺ":6961,"ÑĤÓ¥":6962,"à½ĸà½ı":6963,"Ð¶Ðµ":6964,"Æ°á»£":6965,"Ġjach":6966,"ĠKab":6967,"Ġàª¹àª¤":6968,"°áİµ":6969,"Ġsie":6970,"Ġges":6971,"ĠÙħÛĩ":6972,"Ġà°¤":6973,"owy":6974,"Ð¸ÑĤÑĮ":6975,"ç±":6976,"ĠØ°":6977,"áŀ¡":6978,"Ãªng":6979,"à¤ªà¤¤":6980,"owe":6981,"ally":6982,"ĠÅĦ":6983,"Ð°Ð½Ð´Ñĭ":6984,"Ġà¦ıà¦ĩ":6985,"ĠMont":6986,"Ú¯ÛĮ":6987,"ÄŃng":6988,"arte":6989,"àº¶":6990,"ĠÐ±Ñĭ":6991,"bay":6992,"Ð¾ÑĨ":6993,"Ġtsh":6994,"irm":6995,"emes":6996,"Ġanc":6997,"Ã¢ng":6998,"å·¥":6999,"à¨ħ":7000,"ãĥĪ":7001,"ĠØ¤":7002,"Ġpasa":7003,"Ġband":7004,"ĠoÊ»":7005,"Ġey":7006,"ĠØ¨ÙīÙĦ":7007,"ÐµÐ¼Ð°":7008,"àºģàº²àºĻàº":7009,"à½Ĥà½ŀà½ĵ":7010,"Ġdins":7011,"inte":7012,"Ġbid":7013,"Ð´Ð°ÑĢ":7014,"ÐºÐ¾Ð½":7015,"ektr":7016,"Ġ1993":7017,"lj":7018,"ĠvÃ¤":7019,"áıĮ":7020,"ĠMat":7021,"ĠÐ±Ð¸":7022,"Ã³g":7023,"Ã§Ã£o":7024,"76":7025,"erne":7026,"iten":7027,"ĠfÃ¼r":7028,"×Ļ×Ļ×ł":7029,"Ġmw":7030,"ĠmÄĽ":7031,"Ġkant":7032,"Ġcentr":7033,"Ġrap":7034,"ĠAy":7035,"æľŁ":7036,"dom":7037,"à½§":7038,"Ġaug":7039,"Ø¯Ùħ":7040,"akk":7041,"ĠAug":7042,"ÑıÐ²":7043,"à¤¸à¤°":7044,"Ð°ÑĤÑĭ":7045,"çĦ¡":7046,"lab":7047,"Ð½Ð¾Ð¼":7048,"ĠOp":7049,"Ġisang":7050,"ĠPe":7051,"Ð°Ð»ÑĭÐº":7052,"ĠØ¦ÛĮ":7053,"Ġgew":7054,"adÄ±":7055,"Ã½ar":7056,"áº§":7057,"Ġapr":7058,"bb":7059,"iÃ°":7060,"lis":7061,"Ø³Ø§":7062,"áĪ³":7063,"obo":7064,"è¡¨":7065,"ves":7066,"Ŀi":7067,"ĠØ¨Ø§Ø±":7068,"×¢×Ŀ":7069,"Ġvoor":7070,"Æ¡":7071,"ĠCal":7072,"Ġresp":7073,"ĠÐ¹ÑĭÐ»ÒĵÐ°":7074,"Õ¬":7075,"Ð°Ð»Ð°Ð¹":7076,"áĥĺáĥĲ":7077,"Ġkoji":7078,"wal":7079,"Ġmur":7080,"Ġbay":7081,"ĠMad":7082,"Ġanti":7083,"Ġà°ļ":7084,"ĠÕ½":7085,"Ð²ÑĢÐ¾Ð¿":7086,"bat":7087,"ë³":7088,"à´¥":7089,"ĠÙħØ§ÙĨ":7090,"entu":7091,"ĠVir":7092,"ĠÊ»oku":7093,"inne":7094,"atura":7095,"à¨ĩ":7096,"Ġginh":7097,"ĠiÅŁ":7098,"Ġ1997":7099,"Ġà²®à²²":7100,"à³įâĢį":7101,"ĠÑĪÑĤÐ¾":7102,"è¬":7103,"Ġsang":7104,"ebru":7105,"Î·Î½":7106,"ÑĥÐ³Ð°":7107,"dy":7108,"onna":7109,"Ġfur":7110,"ĠSen":7111,"ĠUr":7112,"ĠÄĮ":7113,"Ð°ÐºÑģ":7114,"à½ħà½ĳ":7115,"ĠLib":7116,"Ġarm":7117,"Ø¬Ø§":7118,"Ġmais":7119,"Ð°Ð·Ð°":7120,"55":7121,"à¬ĸ":7122,"edik":7123,"ĠGro":7124,"ÛĮÙĨÚ¯":7125,"Ġxo":7126,"àº»à»ī":7127,"leg":7128,"¸Û":7129,"Ġauf":7130,"nej":7131,"à½Ĳà½ĺà½¦":7132,"áĢ¯áĢ¶áĢ¸":7133,"Õ¢":7134,"Ġsid":7135,"à¸į":7136,"à´¬":7137,"itate":7138,"Ġzum":7139,"Ø²Ùĩ":7140,"áĮł":7141,"Î»Î»":7142,"ëį":7143,"Ġbana":7144,"à´´":7145,"à¬Ĩ":7146,"Ø¯Ø§ÙĨ":7147,"ĠÐ¿Ð°ÑĢ":7148,"Ġnaz":7149,"ried":7150,"Ð¸Ð½ÑĮ":7151,"æº":7152,"ëŀ":7153,"Ġhy":7154,"Ã²n":7155,"96":7156,"ÙĶ":7157,"Ġdai":7158,"ĠÕ¤":7159,"iben":7160,"ÄĥÑĢ":7161,"Ġnahil":7162,"arin":7163,"Ġlog":7164,"à©ľ":7165,"Ġkao":7166,"alakip":7167,"Ûį":7168,"ece":7169,"ĠÐŀÐ±":7170,"lay":7171,"ĠvÃµ":7172,"ĠØ¬Ø§ÙĨ":7173,"ÑĥÐ½Ð°":7174,"98":7175,"ĠStr":7176,"oso":7177,"ĠØ§ÙĪÙĨ":7178,"ischen":7179,"Ġafo":7180,"Åıng":7181,"çĦ¶":7182,"rÃ¡":7183,"inge":7184,"ĠWik":7185,"ĠáĢĨ":7186,"ÑĥÐ½Ð´":7187,"áĢ¼áĢ±áĢ¬":7188,"ï¯©":7189,"Õ£":7190,"Ùł":7191,"onte":7192,"Ġlis":7193,"ĠAir":7194,"áĥĶáĥļáĥĺ":7195,"ĠÙĨØ¸":7196,"rac":7197,"à¤¡à¤²":7198,"enza":7199,"Ġfyr":7200,"ÑĢÑĭ":7201,"Ġtw":7202,"Ġtet":7203,"Ġkons":7204,"Ġà°²":7205,"æĭī":7206,"Ġnahilalakip":7207,"bas":7208,"Ġdj":7209,"Ò¯ÑĤ":7210,"Ġngon":7211,"Ġkuma":7212,"à°¥":7213,"Ð²Ð°Ð»":7214,"Ã©u":7215,"ĠDem":7216,"Ø§Ø¯Ùĩ":7217,"àºªàº°":7218,"à½ĺà½Ľà½ĳ":7219,"ÑĢÐµ":7220,"ĠAw":7221,"ÙĤÙĦ":7222,"Ġà¥§":7223,"Ġà¤ħà¤¤":7224,"ĠÙĦÙĦ":7225,"à´ķà´³":7226,"æĿ¥":7227,"aris":7228,"Ġáĥķ":7229,"ĠØ³Ø¨":7230,"Ð¾Ð²Ð¸":7231,"éģİ":7232,"ìŀĲ":7233,"kol":7234,"ĠáŀŁ":7235,"Ġnui":7236,"Ġbiy":7237,"ãĥª":7238,"æ±Ł":7239,"Ġà´İà´¨":7240,"ëĤĺ":7241,"ĠwÄģhi":7242,"ĠmÃ¼":7243,"ited":7244,"Õ¡Õ£":7245,"Ġitu":7246,"Ġmir":7247,"Ġà¬¯":7248,"èĭ±":7249,"á¸į":7250,"onde":7251,"à¤¤à¤ķ":7252,"ĠTer":7253,"Õ«Öģ":7254,"ØµÙĦ":7255,"ÑįÑħÑĬ":7256,"à¹Ģà¸£":7257,"Ġbie":7258,"itl":7259,"ĠÃį":7260,"ester":7261,"Ġeru":7262,"æŃ£":7263,")ØĮ":7264,"eles":7265,"ØŃØ¯":7266,"àºĻàºĹ":7267,"ĠÐ¹Ð¸Ñģ":7268,"agan":7269,"à¤µà¤¯":7270,"Ġmunicip":7271,"ÑĤÐ¸Ð½ÐµÐ½ÑĤ":7272,"ikin":7273,"Ð¾Ð½Ð°":7274,"áī±":7275,"Ġasteroid":7276,"tek":7277,"ÑħÑĥÐ·":7278,"ĠÐ¼ÓĻ":7279,"Ġà¤¸à¤ķ":7280,"ĠAnt":7281,"ÛİÚ©":7282,"het":7283,"chd":7284,"ÐµÐ½Ð¸Ñı":7285,"Õ¸ÖĢÕ":7286,"Ġfoi":7287,"onne":7288,"Ġkit":7289,"ÙĦÛķ":7290,"ĠhÃ¤":7291,"ĠÙħØ¦ÙĨ":7292,"Äģm":7293,"Ġalbum":7294,"åįĢ":7295,"Ġê³":7296,"pet":7297,"Ġvit":7298,"ÑįÐ¿":7299,"anye":7300,"ĠÐ°Ð³":7301,"Ð»ÑĭÐº":7302,"Ġkem":7303,"atal":7304,"Ġbur":7305,"rain":7306,"aho":7307,"Ã¹n":7308,"Ã¹ng":7309,"ÙĪØ´":7310,"ĠÎ·":7311,"à¦·à¦°à¦¤":7312,"amin":7313,"ĠÚı":7314,"uks":7315,"bochi":7316,"anc":7317,"anna":7318,"áŀº":7319,"onda":7320,"Ġfut":7321,"Ã¢r":7322,"Ġdob":7323,"ĠMos":7324,"Ġà¨Ń":7325,"ĠJe":7326,"Ġ+":7327,"à½¨":7328,"Ġmand":7329,"ĠEx":7330,"Ġìĺ":7331,"Ġ1995":7332,"ĠØ§ØªÛĴ":7333,"ĠÐºÐ»Ð¸Ð¼Ð°ÑĤ":7334,"áĥª":7335,"ĠØ§Ù¾":7336,"Ġ500":7337,"Î¯Î½":7338,"unc":7339,"ÑıÐ´":7340,"áŀļáŀĶáŀŁ":7341,"Ġpul":7342,"elu":7343,"ĠÑģÐ¾Ð½":7344,"rij":7345,"ĠØªØ¹":7346,"èĳ":7347,"egu":7348,"ĠØ´Ø±":7349,"Ġcomun":7350,"Ġsoci":7351,"ĠsÃ²":7352,"ĠØ¨ÛĨ":7353,"Ġunivers":7354,"wai":7355,"Ø§Ø¦ÙĬ":7356,"Ġproc":7357,"ĠNgwag":7358,"ÛĮÙħ":7359,"ĠPi":7360,"vol":7361,"Ġkot":7362,"Ġfund":7363,"Ġestas":7364,"ä¾Ĩ":7365,"Ġngwagengk":7366,"è´":7367,"à§§":7368,"ÙħÙĬ":7369,"ĠDist":7370,"rip":7371,"Ġà¬¶":7372,"ĠÐ¼Ñĥ":7373,"nym":7374,"Ġprincip":7375,"Ġkub":7376,"ows":7377,"Ġ×ķ×ķ×Ĳ":7378,"Ġà½ģ":7379,"uno":7380,"ĠSer":7381,"Ãłl":7382,"Ã¦s":7383,"Ġ1962":7384,"fat":7385,"èĤ":7386,"ÑĤÑĭÑĢ":7387,"Ġbut":7388,"ukt":7389,"á»±":7390,"æŀĹ":7391,"à¦īà¦¨":7392,"enk":7393,"ĠÐºÑĥÑĢ":7394,"abo":7395,"ÑģÐºÐ°Ð¹":7396,"ÓĵÐ»":7397,"Mar":7398,"anz":7399,"Ġteng":7400,"chn":7401,"Ġvil":7402,"ĠÐĲÐ½":7403,"ĠØ¹ÙĦ":7404,"Ġuska":7405,"Ġ$":7406,"ĠpÃ¶s":7407,"Â¬":7408,"Ġnek":7409,"ĠÐ´ÐµÐ¿":7410,"ĠÚ©Ûģ":7411,"Ġà¤ħà¤ª":7412,"astilla":7413,"Ġfrug":7414,"inter":7415,"ÑĤÃ¦":7416,"ĠnÃ©":7417,"à¾Ń":7418,"ĠCl":7419,"Ð¾Ð½Ð¸":7420,"ĠÃ¤binon":7421,"Ġfev":7422,"à³ģ,":7423,"ĠOb":7424,"Ê»u":7425,"âĢĿ,":7426,"Ø±ÛĮÚ©":7427,"ĠpÃ¶sod":7428,"ĠÅ«":7429,"aram":7430,"Ġnal":7431,"agg":7432,"Ð¹Ð»":7433,"ãĤ¯":7434,"2010":7435,"Ġà°īà°¨":7436,"Ġuntuk":7437,"97":7438,"yin":7439,"å¥½":7440,"Ġ×¦×ķ":7441,"ient":7442,"edo":7443,"nes":7444,"à¸ľ":7445,"irin":7446,"ĠAv":7447,"ĠÐ¿Ð¾Ð²":7448,"Ã´t":7449,"Î½ÏĦ":7450,"Ġà¹ģà¸¥à¸°":7451,"Ġlomane":7452,"Ġgur":7453,"ĠÎ£":7454,"åĭķ":7455,"à¾Ļà½²":7456,"ĠbÃ¤ldoti":7457,"Ġlifayelas":7458,"Ġà¤Ŀ":7459,"Ġpur":7460,"ÑĸÑĹ":7461,"ĠØ§ÙĦÙĨ":7462,"lt":7463,"Ãºs":7464,"Ġ×Ĳ×ª":7465,"ondo":7466,"Ð¾ÐºÑĪ":7467,"Ð°Ð»ÑĬÑĥÐ»":7468,"Ġday":7469,"Ġlit":7470,"Ġà¦Ľ":7471,"izz":7472,"×¤×¨":7473,"Ġáŀĺ":7474,"Ð½Ð¸Ð¹":7475,"ÙĪØ§ÙĨ":7476,"àªŃ":7477,"Ġriv":7478,"ĠÎľ":7479,"à»įà»Ī":7480,"Ġàªıàªķ":7481,"lie":7482,"ĠÐ°ÑĪ":7483,"Ð¾Ðµ":7484,"ĠÑĶ":7485,"Ġide":7486,"á»ĥ":7487,"Ġà¦ªà§°":7488,"Ġsubs":7489,"Ġkia":7490,"ĠÙĲ":7491,"Ó§ÑĢ":7492,"ÙĨÚĮ":7493,"asar":7494,"chen":7495,"à¯Ģ":7496,"ĠÑģÐ¾Ð»":7497,"ĠDav":7498,"ĠÑİÐ¼":7499,"Ġginhulagway":7500,"ilia":7501,"Ġwis":7502,"à¤¨à¤®":7503,"Ġzen":7504,"ĠGra":7505,"Ġale":7506,"ils":7507,"Ġray":7508,"Ø³Ûķ":7509,"ÐµÑĢÐ¸Ðº":7510,"opa":7511,"Ġáĭĵ":7512,"ãģ£ãģŁ":7513,"ĠÑıÐ½Ð²Ð°ÑĢ":7514,"ining":7515,"à¦ŀ":7516,"Ã¶rd":7517,"aft":7518,"Ġregion":7519,"çł":7520,"ÏĮÏĦ":7521,"aqa":7522,"part":7523,"ÑĤÑĭÐ½":7524,"à§¯":7525,"ĠÐºÐ°Ðº":7526,"ĠKi":7527,"apo":7528,"ĠÑħÑĮ":7529,"Ã¥r":7530,"ÑĨÐ¸Ñĺ":7531,"Ġbaz":7532,"éĽ»":7533,"çį":7534,"à¥Ń":7535,"ĠUm":7536,"Ð¸ÑĢÐ¸":7537,"Å¯w":7538,"ç³":7539,"Ġtamb":7540,"ĠPat":7541,"ĠÑĤÑĥ":7542,"Ã¼ÅŁ":7543,"àª®àª¨":7544,"ostr":7545,"Ð°Ð´Ð¸":7546,"Ã½Ã¤r":7547,"ãģĹãģŁ":7548,"Ġsik":7549,"iler":7550,"Ä±k":7551,"à²¯à²¨":7552,"nom":7553,"Ġmad":7554,"ÙĨØª":7555,"Ġhim":7556,"ĠÐºÑĭÐ»":7557,"ĠDu":7558,"áĭ¨":7559,"dar":7560,"Ġmab":7561,"ĠDes":7562,"à½£à½ĺ":7563,"ĠáĥłáĥĶ":7564,"Il":7565,"ĠØ§ÛĮÙĦ":7566,"à©Į":7567,"Ġáĥª":7568,"lec":7569,"ĠngÄģ":7570,"à®µà®°":7571,"ĠÐ¾ÐºÑĢÑĥÐ³":7572,"ê²Į":7573,"ç®":7574,"áŀĨ":7575,"Ġham":7576,"ĠDer":7577,"ĠKh":7578,"Ø§ÙĦÙĬ":7579,"áĥĿáĥĵ":7580,"à¤Łà¤ķ":7581,"eae":7582,"Ħì":7583,"akat":7584,"Ġà¨«":7585,"Ø§ÙĨÙĪ":7586,"ingi":7587,"à¾Ķà¼ĭ":7588,"chit":7589,"oru":7590,"æģ":7591,"à¸ł":7592,"Ġoll":7593,"andu":7594,"Î±Ïģ":7595,"ijo":7596,"Ġà¸ŀ":7597,"Ġanu":7598,"Ġà¤ªà¤¨":7599,"áĭĭ":7600,"Ç«":7601,"Ġtom":7602,"à¤¤à¤²":7603,"ĠÑģÐµÐ¼":7604,"Ġuf":7605,"ĠÐ¾Ð·":7606,"ÎºÎµ":7607,"ÕĿ":7608,"Ġvid":7609,"Ġida":7610,"Ġáİ§":7611,"Ġà¤ķà¤¥":7612,"ibi":7613,"ĠÐ·Ð°Ð¼":7614,"äº¤":7615,"Î¹ÎºÎ®":7616,"78":7617,"umm":7618,"ÙĨÙĩÙĨ":7619,"éĩĳ":7620,"ĠÑģÐ¸ÑģÑĤ":7621,"ĠLos":7622,"ube":7623,"lary":7624,"ĠÐºÐ¾Ð½ÑĤÐ¸Ð½ÐµÐ½ÑĤ":7625,"ĠNgwagak":7626,"ÙīØ±Ùī":7627,"ĠÎļ":7628,"ĠÑĢÐ¾Ðº":7629,"col":7630,"Ø¨ÙĦ":7631,"áĬ«":7632,"ĠáĪµ":7633,"ĠÐ±Ð¾Ð»Ð³":7634,"Ġ1950":7635,"Ġcontra":7636,"æ¼Ķ":7637,"ance":7638,"Ġnog":7639,"ander":7640,"ĠÐ¸Ñģ":7641,"à´Ļà´³":7642,"å§ĭ":7643,"ÙĪÛķ":7644,"à°¹":7645,"Ġubochi":7646,"ĠÐ´Ð¾ÑĢ":7647,"à²°à²£":7648,"ĠÑĪÑĥ":7649,"Ġuma":7650,"Õ¥Õ½":7651,"qan":7652,"Ġnar":7653,"Ã©ho":7654,"×ķ×Ļ":7655,"ominina":7656,"Ġáİ¨áıĴáİ¢":7657,"92":7658,"eny":7659,"elik":7660,"Ġcul":7661,"tah":7662,"ĠÙĩØ³ØªÙĩ":7663,"Ġcome":7664,"à¸Ńà¸Ļ":7665,"Ġà§«":7666,"Ġgodine":7667,"Ġà¦ĩà¦²":7668,"à½Ĥà½Ļ":7669,"ĠÙĩØ±":7670,"Ð¸ÑĢÐ°":7671,"Ġdha":7672,"Ð´Ð¼":7673,"ÑĸÐ½Ñĸ":7674,"Ġàºģ":7675,"Ġà·ĥà¶¸":7676,"ĠÃ¾Ç£":7677,"à¤ļà¤¨":7678,"åĦ":7679,"Ġnit":7680,"Ġvia":7681,"Ġdiff":7682,"igg":7683,"ĠGen":7684,"áĥĶáĥ¢":7685,"ÑĤÐ°Ð»":7686,"ĠmÃ©":7687,"à´Ń":7688,"emat":7689,"Ð¾ÑģÑĮ":7690,"%)":7691,"ĠÑįÐ½":7692,"Ġthi":7693,"ÐºÑĢÐ°":7694,"emu":7695,"ÓĻÐº":7696,"åĭĴ":7697,"ĠfÃ¶r":7698,"à½ĺà½Ĥ":7699,"ĠÐ´Ðµ":7700,"åħµ":7701,"nie":7702,"áıŁ":7703,"áŁ¡":7704,"abin":7705,"ĠØªÚ¾":7706,"Ġà¤¤à¤ķ":7707,"pend":7708,"Ġwhich":7709,"usk":7710,"áĥĺáĥª":7711,"ÐµÐ»Ðµ":7712,"Ã´i":7713,"Ġili":7714,"Ġà¤¯à¤¹":7715,"oa":7716,"ser":7717,"etu":7718,"Ġrek":7719,"ĠâĢĭ":7720,"Ê¼Äħ":7721,"áº¡i":7722,"Ġsá¹³":7723,"Ġpad":7724,"Ġmoo":7725,"isu":7726,"Ð¾Ð³ÑĢÐ°ÑĦ":7727,"ÐµÑģÑģ":7728,"jadi":7729,"vir":7730,"Ø¨Ø§Ø±":7731,"eph":7732,"ĠÔ±":7733,"åİŁ":7734,"68":7735,"à¦«":7736,"à¸ĵ":7737,"ĠØ¯ÛĲ":7738,"ĠÑħÑĬ":7739,"Ã²un":7740,"ĠÙĤØ±":7741,"ÛİØª":7742,"Ðķ":7743,"elk":7744,"ÙĪØ§":7745,"icas":7746,"ĠNap":7747,"ĠÎł":7748,"ÙģÙĬ":7749,"Ġà¤ıà¤µ":7750,"Ġsag":7751,"Ġwier":7752,"ize":7753,"ĠÙ¾ÙĪ":7754,"rÃŃ":7755,"alch":7756,"à¬¼":7757,"ÐºÑĭ":7758,"ovo":7759,"ĠÐ·Ð°Ð¿":7760,"ynyÅĪ":7761,"Ġveur":7762,"ĠÃ¶z":7763,"Ġà¤ĩà¤¸":7764,"ĠbÃ¤ldot":7765,"ĠÐºÐµÑĢ":7766,"ĠÑĤÓ©ÑĢ":7767,"ĠÐ¸Ðº":7768,"ä¹Ŀ":7769,"Ø¯ÙīÙĥÙī":7770,"ija":7771,"Ġsind":7772,"Ġlin":7773,"Ġbev":7774,"enter":7775,"ĠUk":7776,"Ġ1989":7777,"Ò¯Ò¯Ð´":7778,"ĠsÄ«":7779,"à¨¥":7780,"Ġiki":7781,"ĠÑģÐµÑĢ":7782,"àŃĤ":7783,"acion":7784,"nit":7785,"Ġmj":7786,"sten":7787,"Ġalle":7788,"ÑįÑĢÑį":7789,"áĢ¾áĢ¬":7790,"à½ĸà½ħà½¦":7791,"anas":7792,"indÉĻ":7793,"à¸Ħà¸£":7794,"à¹ĥà¸«":7795,"khi":7796,"Ð¾Ñİ":7797,"aly":7798,"cher":7799,"ĠÐ¼Ð°Ð»":7800,"áŀĦáŀĢ":7801,"Ġshek":7802,"à»ĦàºĶ":7803,"dr":7804,"ë°":7805,"ÑĤÐ°Ð¹":7806,"Ġlik":7807,"à´ŀ":7808,"etta":7809,"ango":7810,"ĠTor":7811,"×Ļ×Ł":7812,"ÑĨÐµ":7813,"ÙĪØ±Ø¯":7814,"Ġkaominina":7815,"ĠÙħØŃÙħØ¯":7816,"Ġà¶ĩà¶Ń":7817,"emo":7818,"ãģĤãĤĭ":7819,"ÙĩÙħ":7820,"ivu":7821,"à¸Ńà¸¢":7822,"nÄĽ":7823,"unde":7824,"Ġcant":7825,"áĥĲáĥĸ":7826,"ĠÐ¼ÑĥÐ·":7827,"bil":7828,"wÄģ":7829,"æ¢":7830,"iska":7831,"Ġà¨ļ":7832,"ĠÐ²ÑĭÐ»":7833,"Ġ32":7834,"ÑįÑĢÐ³":7835,"henua":7836,"Ġà¥¨à¥¦à¥":7837,"à½ĺà½ł":7838,"ÑĭÑĪÑĤÐµ":7839,"arb":7840,"Ġls":7841,"Ġcit":7842,"Ġhini":7843,"ahr":7844,"Ú©Ø±":7845,"Ã§Ã§":7846,"ĠqÃ«":7847,"à«Ģ,":7848,"ĠÎ½Î±":7849,"ìĻĢ":7850,"olt":7851,"idir":7852,"rev":7853,"Ġcho":7854,"ÑģÐºÐ°Ñı":7855,"à¸Ńà¸ģ":7856,"Ġà¤īà¤¦":7857,"jat":7858,"kn":7859,"ĠØ§Ø¹":7860,"ĠØ§ÛĮØ±":7861,"Ġà¶ī":7862,"anii":7863,"asaun":7864,"Ġbilen":7865,"uel":7866,"áĥĺáĥļáĥĺ":7867,"ãĤ¢":7868,"ĠÅ¼":7869,"Õ¸ÖĤÕ©ÕµÕ¡Õ¶":7870,"èµ·":7871,"ÑħÑĥÐ·Ð°ÑħÑĮ":7872,"geb":7873,"mann":7874,"ØªÙĨ":7875,"Ġrak":7876,"idan":7877,"ĠØ§ÙĦÙĥ":7878,"oca":7879,"Ġbei":7880,"é£":7881,"Īĺ":7882,"ality":7883,"etr":7884,"Ġrob":7885,"áİ¯áİ":7886,"ĠÐ²Ð¸Ð´":7887,"Äĵng":7888,"Ġadd":7889,"ultura":7890,"é¢":7891,"usta":7892,"imin":7893,"apt":7894,"Ġamer":7895,"à¶Ńà¶»":7896,"à¹Ģà¸Ķ":7897,"Ġà¦ıà¦¬":7898,"ĠgÃ¶r":7899,"áĪĨ":7900,"ÑģÑĤÐ¸ÑĤ":7901,"riv":7902,"à»ľ":7903,"áĥĿáĥķ":7904,"Ġ×Ĳ×ľ":7905,"Ġweer":7906,"lands":7907,"Ø´ØªÙĩ":7908,"à¥ĩ,":7909,"à¤¶à¤¨":7910,"ï¼īï¼Į":7911,"ĠÐºÐ¾Ð¼Ð¿":7912,"åİ»":7913,"nog":7914,"win":7915,"Ġ38":7916,"ÐµÐ´Ð¸":7917,"Ġà¤Ĩà¤¦":7918,"nych":7919,"æ¬¡":7920,"èĻŁ":7921,"kr":7922,"ĠÚ©Ø¦":7923,"×ķ×Ŀ":7924,"ãĤĪ":7925,"ÓĻÑģ":7926,"ÛĩÙĤ":7927,"Äįk":7928,"ä¼Ĭ":7929,"ç¶ĵ":7930,"Ġput":7931,"ÑĸÐ»":7932,"ÐµÑĢÐ¼Ð°Ð½":7933,"okan":7934,"ĠVa":7935,"Ġoff":7936,"×Ļ×Ļ×Ł":7937,"''":7938,"67":7939,"hÄģ":7940,"Ö¸":7941,"ÑģÑĭÐ½":7942,"Ġinto":7943,"ulan":7944,"Ġsyn":7945,"ĠJu":7946,"à¤Ĺà¤²":7947,"áĭļ":7948,"Ð¸Ð»Ð»":7949,"Ġont":7950,"Ġlist":7951,"ÑĭÐµ":7952,"Ġwid":7953,"Ġinn":7954,"Ð¸Ð½Ð¸ÑģÑĤ":7955,"ĠVi":7956,"Ó©Ð¼":7957,"ĠëĮĢ":7958,"ĠboÊ»":7959,"Ġfoar":7960,"åĴĹ":7961,"Ġaast":7962,"à¤°à¤Ń":7963,"Ġnach":7964,"áĥĶáĥķ":7965,"Ð¾Ð²Ð°Ð½":7966,"Ġcontr":7967,"Ġàºª":7968,"ĠIndia":7969,"ÐµÐ½Ð´ÓĻ":7970,"Ġà®İà®©":7971,"Ġvy":7972,"ids":7973,"ĠBor":7974,"ÐµÑĢÐ°Ð½":7975,"Ġref":7976,"Ġ×ĳ×ŀ":7977,"Ġkadagiti":7978,"ĠKas":7979,"à¤¸à¤Ń":7980,"sku":7981,"ĠÐļÑĢ":7982,"Ġekonom":7983,"Ġoder":7984,"æ°´":7985,"ĠÐ´Ð·":7986,"Ú©ÙĬ":7987,"Ġà°¬":7988,"à¦¨à§°":7989,"ĠØ¨ÙīÙĦÛķÙĨ":7990,"tli":7991,"yÃª":7992,"asion":7993,"ades":7994,"Ã©es":7995,"ĠÐ¿Ð°ÑĤ":7996,"ĠÑħÐ°ÑĢ":7997,"Ġlong":7998,"Ġbos":7999,"ØªÙħ":8000,"Ġjndr":8001,"ĠLes":8002,"åħĭ":8003,"ÏĥÎµ":8004,"Ġoper":8005,"æĶ¹":8006,"á»Ļt":8007,"Ġoleh":8008,"kil":8009,"æ·":8010,"à²ĸ":8011,"ÑıÐ±ÑĢ":8012,"à¤ªà¤®":8013,"ĠáİłáıĤ":8014,"Ð¡Ð¡Ðł":8015,"issa":8016,"à¬Ľ":8017,"à¬ł":8018,"Ġcchi":8019,"ĠKat":8020,"ĠÚ©Ùħ":8021,"Ġ37":8022,"Õ¸Õ²":8023,"à½ĸà½Ļà½ĵ":8024,"NE":8025,"nje":8026,"Û²":8027,"Ġtou":8028,"ÑģÐ¾Ð½":8029,"ÙĦÙģ":8030,"äº¬":8031,"ÑĢÐ°Ð´":8032,"ĠpÃ¤":8033,"Ġhand":8034,"Ġà¶Ĩ":8035,"iju":8036,"ĠÓ©Ð»":8037,"ĠParis":8038,"ÑĢÐ¸Ðº":8039,"ĠkÃ©":8040,"Ġbok":8041,"ety":8042,"ÑįÑĪ":8043,"ĠSant":8044,"ãģ¾":8045,"Ġà´Ĵ":8046,"Î¹Î¿":8047,"ĠÛĮÙĩ":8048,"ĠÐ±Ð¾Ð»Ð¾Ð½":8049,"ĠÚ¾Ûķ":8050,"zz":8051,"asu":8052,"Ġveg":8053,"Ġren":8054,"angi":8055,"rah":8056,"lac":8057,"ĠÐ³Ð°ÑĢ":8058,"annya":8059,"ĠGerman":8060,"iso":8061,"ĠÐºÐ°Ð½":8062,"à¤Ĺà¤¤":8063,"ipi":8064,"ĠÙ¾Ø§Ø±":8065,"Ġitali":8066,"gb":8067,"nar":8068,"Ð¼Ð°ÑĤ":8069,"ĠMel":8070,"ÑĬÑıÑģ":8071,"Ú©ÙĦ":8072,"ØĽ":8073,"íĸ":8074,"tif":8075,"à¨°à¨¤":8076,"æĽ¸":8077,"cul":8078,"Ġtlh":8079,"à¤¯à¤¯":8080,"ĠÚ©Úĵ":8081,"à½±":8082,"ĠtÅį":8083,"ĠMak":8084,"ÐµÑĢÐ°":8085,"áĥĶáĥĳáĥĲ":8086,"lish":8087,"sel":8088,"é©":8089,"Ġtl":8090,"Ġmam":8091,"ĠSm":8092,"ĠSw":8093,"ebut":8094,"Ġdoor":8095,"ä»»":8096,"à¨¼à¨¾":8097,"rot":8098,"aban":8099,"¤áİµ":8100,"Ð§":8101,"ÙĨÛĴ":8102,"ĠCha":8103,"Ġuu":8104,"ĠØ³Ø±Ùĩ":8105,"hat":8106,"ç²":8107,"Ġnatur":8108,"ĠØ§Ø¨":8109,"à¤¯à¤°":8110,"Ġà¬ļ":8111,"ibot":8112,"Ã½m":8113,"Ð°Ð½Ð³Ð»":8114,"Ð¾ÑģÐº":8115,"Ġkos":8116,"isan":8117,"angg":8118,"×Ļ×ķ":8119,"ĠìĤ¬":8120,"Å¾en":8121,"Ġà¤īà¤¨":8122,"ĠÐ°Ñħ":8123,"ĠÑģÐ°Ð»":8124,"ĠNeder":8125,"à½ĺà½ĳ":8126,"ĠØªØµ":8127,"ever":8128,"Ġtir":8129,"Ġmok":8130,"ĠÑħÑĥ":8131,"Ġterm":8132,"ĠÓ©Ð·":8133,"ÑįÑħÑįÐ¼":8134,"éĺ¿":8135,"Ġpon":8136,"Ġvez":8137,"áŁı":8138,"ĠHu":8139,"Ġuff":8140,"Ġà´ī":8141,"×Ĳ×ŀ":8142,"Ġond":8143,"ĠØ¢ÙĩÙĨ":8144,"aju":8145,"mÄ±ÅŁ":8146,"à¤²à¤¬":8147,"Ã¼s":8148,"Ġleb":8149,"Ġdesc":8150,"ĠÐ±ÑĥÐ¾Ð»":8151,"Ġ×Ĵ×¢×ķ":8152,"Ġbagian":8153,"ies":8154,"nji":8155,"ÙħÛĩ":8156,"ebr":8157,"Ġnian":8158,"rind":8159,"Ġdens":8160,"ĠkÃ¤":8161,"uten":8162,"à¤£à¤¨":8163,"ĠëĤ":8164,"åºľ":8165,"Ġdistrito":8166,"Ġgant":8167,"ÙĬØº":8168,"ĠØ¨ÙĪØ¯":8169,"à¶ºà¶±":8170,"áŀĺáŀĢ":8171,"Ġorig":8172,"Ġà§§à§¯à§":8173,"è¢":8174,"Ġill":8175,"ĠÙ¡Ù":8176,"à¤²à¤¨":8177,"Ġà¶¢":8178,"ĠÄĵ":8179,"alif":8180,"åŁº":8181,"xo":8182,"Ġsira":8183,"ÑģÐµÐ½":8184,"ĠPan":8185,"riek":8186,"ĠØªØŃ":8187,"jis":8188,"æŁ":8189,"Ø±Ùħ":8190,"Ġvr":8191,"Ġgol":8192,"ĠMet":8193,"Ġà´ľ":8194,"ibli":8195,"bor":8196,"raa":8197,"Ġà¤¬à¤¹":8198,"ÐļÑħÑĥÐ·Ð°ÑħÑĮ":8199,"Ġlabing":8200,"Ġsuyupi":8201,"Ġepi":8202,"emen":8203,"ĠÑħÐ°":8204,"×¨×ĳ":8205,"Ġà¬ªà¬°":8206,"ĠtakiwÄģ":8207,"Die":8208,"åĿ":8209,"Ġdak":8210,"Ġshe":8211,"idente":8212,"ãģĨ":8213,"rio":8214,"Äģk":8215,"áİ¾áİ¢":8216,"è»Ĭ":8217,"è½":8218,"Ġhor":8219,"ĠTha":8220,"àŃ¦":8221,"àºĤàºŃàºĩ":8222,"ĠØ¨Ø§Ø²":8223,"Õ¸Õ¶":8224,"Ġkomun":8225,"64":8226,"å¢":8227,"Ð½Ð°ÑĢ":8228,"orge":8229,"à¤°à¤¨":8230,"Ġiku":8231,"ĠÐ´Ð»Ñı":8232,"ÙĤÙĬ":8233,"ÑģÐºÐ¾Ð³Ð¾":8234,"Ã°a":8235,"atz":8236,"ĠÃ¸":8237,"Ġroman":8238,"Ú©ÙĪ":8239,"ĠchÃ¬":8240,"Ã¦Ð´":8241,"Ø§ÙħÙĦ":8242,"ganiz":8243,"Ð½Ð°ÑĤÐ°":8244,"Ġsil":8245,"Ġsci":8246,"ÑģÑįÐ½":8247,"ĠkÃ²":8248,"Ġfel":8249,"rov":8250,"ĠTar":8251,"erste":8252,"ÑĦÑĤ":8253,"89":8254,"dal":8255,"Ġave":8256,"ĠpÅĽ":8257,"Ġbest":8258,"Ġbiz":8259,"Ø³ÙĨ":8260,"Ð°ÑĤÐ¾ÑĢ":8261,"Ã±u":8262,"hol":8263,"à¥§à¥":8264,"Ġpic":8265,"à³ĥ":8266,"ĠMer":8267,"ĠLor":8268,"Ãºng":8269,"åħŃ":8270,"ĠØ®Ø§ÙĨ":8271,"ãģĻãĤĭ":8272,"ÙĤØ§ÙĨ":8273,"áĥĶáĥ¨":8274,"ĠØ§ÙĦØ¯":8275,"ÑĳÐ½":8276,"ĠÐ³ÑĢÑĥÐ¿":8277,"Ġpir":8278,"ÑģÐºÑĸ":8279,"à¤Łà¤¨":8280,"ĠÙ¿ÙĬ":8281,"ëħĦ":8282,"ÃŃgÃŃÃŃ":8283,"áĥĲáĥĴ":8284,"Ã¼d":8285,"ÙĤÛĮ":8286,"Ġish":8287,"Ġabit":8288,"ĠComp":8289,"Na":8290,"à³į,":8291,"190":8292,"ÑįÑĢÑįÐ³":8293,"Ġparl":8294,"á¹Ń":8295,"æĦı":8296,"ĠpÃª":8297,"Ġmos":8298,"Äģr":8299,"ãĥĥ":8300,"åıĪ":8301,"àºŃàºģ":8302,"Î¼Î±":8303,"×Ļ×Ļ×Ŀ":8304,"Ġáİ¢áı³":8305,"á¸¥":8306,"æħ":8307,"abu":8308,"apit":8309,"Ġà¤¶à¤¹à¤°":8310,"isen":8311,"osto":8312,"Ġdipl":8313,"áĪ©":8314,"Ġtemper":8315,"åł´":8316,"med":8317,"Ġnos":8318,"ĠBan":8319,"Ð°Ð»Ð»":8320,"inden":8321,"ĠÑıÐ·":8322,"Ġvaan":8323,"pol":8324,"ĠÙħØ®":8325,"Ø¦ÙĦ":8326,"ĠÑĩÐ°ÑģÑĤ":8327,"Ġà¨¹à¨¨":8328,"Æ°á»£c":8329,"alam":8330,"ĠCi":8331,"ĠÐ¼ÐµÑĤ":8332,"Ø§ÙĦØª":8333,"Ø²Ø§Ø±":8334,"áıįáıĻáıĹ":8335,"Ġ1988":8336,"eau":8337,"å¿ĥ":8338,"aut":8339,"kur":8340,"Ġrest":8341,"Ġà¦¡":8342,"Ġyar":8343,"ĠÊ»e":8344,"à¸Ķà¸¢":8345,"áĥĺáĥłáĥ":8346,"ichte":8347,"Ġà¤¯à¤¸":8348,"Ġà²ªà²°":8349,"Ġêµ":8350,"ĠXX":8351,"à¾Ķà½¼":8352,"cta":8353,"Ġtum":8354,"Ġnim":8355,"Ð°Ð½Ð´Ð°":8356,"ĠÑĤÒ¯ÑĢ":8357,"ĠÐ´Ñĭ":8358,"ÛĮÙĨÙĩ":8359,"Ø§ØªÛĮ":8360,"Ġà¤Ĩà¤°":8361,"ĠÏĥÏħ":8362,"Ġsubspecies":8363,"alÃŃ":8364,"Ġyon":8365,"ĠÑĪÐ¸Ð¹Ð»Ð°":8366,"ĠÃ±iq":8367,"ved":8368,"áĥ¦":8369,"Ø§Ú¯":8370,"Ð´ÐµÑĢ":8371,"Ġcz":8372,"áĪ¥":8373,"otu":8374,"ÙĪØ±Øª":8375,"Ġ150":8376,"à½ĸà½Łà½Ħ":8377,"56":8378,"à¸ĭ":8379,"Ġway":8380,"Ø³Ø±":8381,"Ġpalibot":8382,"alin":8383,"iks":8384,"ĠNu":8385,"ĠÙĨÛģ":8386,"ĠØ´ÙĬ":8387,"Ġnoho":8388,"ziun":8389,"áįĪ":8390,"à¦ľà¦¨":8391,"ĠWaray":8392,"ĠmÃ«":8393,"à¶³":8394,"Ã¡ra":8395,"Ã¢m":8396,"ĠWilli":8397,"eck":8398,"Ġdella":8399,"Ġqa":8400,"Ò³Ð¸":8401,"Ġáİ¢áİ¦":8402,"ĠEuropa":8403,"atus":8404,"orf":8405,"à¨Ń":8406,"ĠÃŀ":8407,"áĥĲáĥĻ":8408,"ĠGreg":8409,"à³Ĩ,":8410,"ä¹ĥ":8411,"ĠÐ°ÑĮÑħ":8412,"ç¯":8413,"Ġrin":8414,"omm":8415,"ĠÐ¿Ð°Ð´":8416,"Ġà¤¸à¤¹":8417,"ÄĽt":8418,"ä½Ĩ":8419,"à½ĺà½ļà½ĵ":8420,"ï¼ļãĢĮ":8421,"nas":8422,"Ġdoc":8423,"Ġkup":8424,"Ġfre":8425,"à²¤à²°":8426,"ack":8427,"Ġ44":8428,"à¾Ĵà¾±à½´à¼ĭ":8429,"Ġiri":8430,"Ġolar":8431,"Ġocc":8432,"omat":8433,"ÙħØ§Ø±":8434,"ĠØ§Ùģ":8435,"ĠÐºÐ¸ÑĢ":8436,"ĠØ¯Ø§Ø±":8437,"Ġà¤ķà¤®":8438,"à½Ĥà½Ł":8439,"Ġseu":8440,"opo":8441,"uko":8442,"à¦ĩà¦²":8443,"ÐºÑĬÐ°":8444,"osp":8445,"ÙīØªÙī":8446,"Ġáĭ«":8447,"pon":8448,"ĠÐ½Ð°Ð·":8449,"à¬ķà¬°":8450,"Ä±rÄ±m":8451,"æĢ§":8452,"ëĮĢ":8453,"Ġtas":8454,"Ġotr":8455,"ulle":8456,"able":8457,"ther":8458,"áĥĶáĥĳáĥĺ":8459,"æ¸¯":8460,"Ġnakalista":8461,"Ð»ÐµÐº":8462,"ison":8463,"ĠEt":8464,"Ġwurde":8465,"iha":8466,"ĠÖ":8467,"Ø§Ø¶":8468,"áĢ±áĢ·":8469,"Ø£ÙĨ":8470,"uhan":8471,"ãģĹãģ¦":8472,"Ġtap":8473,"áŀļáŀĳ":8474,"Ġìľ":8475,"åħ«":8476,"Ġcomm":8477,"å¡":8478,"arak":8479,"ĠÐĶÐ¶":8480,"ĠÑıÐ½Ð²Ð°ÑĢÑĮ":8481,"amas":8482,"ĠBl":8483,"Ġàª¥":8484,"Ġhave":8485,"ìĺĢ":8486,"Ġyr":8487,"à½Ĥà½¡":8488,"ĠÐ¿Ð¾ÑĤ":8489,"odu":8490,"ĠHen":8491,"ÛĮÙĨØ¯Ùĩ":8492,"Î»Î·":8493,"2007":8494,"Am":8495,"Ø§Ú¾":8496,"Ġgeme":8497,"ĠÐ´ÐµÐº":8498,"udad":8499,"ÄĥÑħ":8500,"Ġkatika":8501,"ĠÐ¸ÑİÐ»ÑĮ":8502,"itr":8503,"ÑħÑį":8504,"ĠFin":8505,"çķĮ":8506,"Ġrahaa":8507,"ĠÚħØ®Ùĩ":8508,"ĠcchiÃ¹":8509,"91":8510,"Ġfol":8511,"åı£":8512,"ĠÙĬÙĪ":8513,"ÓĵÑĪ":8514,"å¦Ĥ":8515,"Ma":8516,"ìĤ¬":8517,"ĠdÃ³Ã³":8518,"Ġnorm":8519,"ĠlÃ¶":8520,"atta":8521,"ÑħÑĬ":8522,"heid":8523,"ĠØ´ÙĪ":8524,"×ĺ×¢×¨":8525,"ĠUniversity":8526,"66":8527,"ÑĸÑģÑĤ":8528,"Ã«m":8529,"à²¿,":8530,"Ð¾Ð²Ð¸Ñĩ":8531,"bach":8532,"Ġà¤¤à¤°":8533,"kii":8534,"ojn":8535,"ÙĨØ¯ÙĪ":8536,"á»Ľi":8537,"ĠÃ±iqin":8538,"Ġoh":8539,"ĠØ§ÙĦØ´":8540,"Ó¹Ð¼":8541,"ĠØ§ÛĮÚ©":8542,"jÃŃ":8543,"ĠpÃ¤Ã¤":8544,"ĠÕ¾":8545,"Ġtaun":8546,"ĠÐĿÐ°":8547,"Ġdisc":8548,"ĠÎµÏĢ":8549,"ĠmÃ¤":8550,"ilu":8551,"Ġged":8552,"ĠRoma":8553,"Ø¬ÙĪØ¯":8554,"áĮ£":8555,"Ġakka":8556,"×©×ł":8557,"Å¯n":8558,"Ð°ÑģÑĤÐ¾ÑĢ":8559,"Õ¶Õ¥ÖĢÕ«":8560,"ë¬":8561,"eshan":8562,"ĠBir":8563,"ĠÑģÑĭÐ»":8564,"annan":8565,"Ġ1940":8566,"Is":8567,"cel":8568,"ĠSel":8569,"ÑĩÐ¸Ð½":8570,"ĠÏĦÎ¿Î½":8571,"It":8572,"ĠáŀĤ":8573,"Ġook":8574,"Ð³Ñĥ":8575,"Ãły":8576,"Ġabbaa":8577,"ÄŁÄ±":8578,"itsch":8579,"otl":8580,"rif":8581,"Ġuit":8582,"Ġáİ¡":8583,"ÑİÑĤ":8584,"ĠÐ°ÑģÑĤ":8585,"ĠÃ¶n":8586,"Ġati":8587,"Ġtá»":8588,"Ġgir":8589,"ĠBak":8590,"ĠØ³ÙĨØ¯":8591,"ĠØ¹ÙĨ":8592,"åĳ½":8593,"é¤":8594,"Ġpeng":8595,"Ġkada":8596,"ÙĦÙĥ":8597,"ĠcÃ¢":8598,"jev":8599,"ĠÄĲ":8600,"à¸²à¸§":8601,"à²¯à²²":8602,"Ø§ÙħÛĮ":8603,"pes":8604,"ense":8605,"Ġpublic":8606,"Ġdepi":8607,"ului":8608,"uter":8609,"áŀļáŀĢ":8610,"Ġ1975":8611,"ë¶Ģ":8612,"Ġliv":8613,"Ġhel":8614,"ĠRos":8615,"Ġà´°":8616,"ĠÙĨØ§ÙĦ":8617,"Ð¾Ð³Ð°":8618,"ambo":8619,"ÑħÐ¾Ð»":8620,"ĠÐ¿Ð°":8621,"Ġà¤¸à¤¬":8622,"ĠÐ¾ÑĪ":8623,"ibe":8624,"ĠÄĳÆ°á»£c":8625,"ÑĢÐ°Ð²":8626,"alen":8627,"Ġviv":8628,"ĠPop":8629,"ĠÅģ":8630,"Ð½Ð¸Ñħ":8631,"Ġ1986":8632,"æ¥Ń":8633,"à¦ı":8634,"Ġmara":8635,"Ġoba":8636,"Ã¤k":8637,"ington":8638,"Ġels":8639,"Ġits":8640,"Ð¸Ð¼Ð¸":8641,"Ġtras":8642,"àº°àºĻ":8643,"à¦¸à¦®":8644,"ÑĭÑĪÑĤÑĭ":8645,"Ġfevr":8646,"ĠÑĤÐ¾ÑĢ":8647,"Äģt":8648,"à½ģà½Ħ":8649,"à²Ĺà²³à²¨":8650,"inis":8651,"à¤¤à¤¨":8652,"ĠØ¨Ø¯":8653,"Ø¨Ø§ÙĨ":8654,"ÑģÑĤÐ²Ð°":8655,"ĠØ³ÙĦ":8656,"Ġsac":8657,"ĠJan":8658,"Ġprobl":8659,"ĠMaria":8660,"ĠÐ³Ð¾Ð´Ð°":8661,"100":8662,"58":8663,"ÐºÐ°Ð·":8664,"áŁł":8665,"Ġà°ĩ":8666,"áŀļáŀĦ":8667,"Ġjeung":8668,"à¸£à¸¡":8669,"åĪ¶":8670,"ĠÏĩ":8671,"à´¡":8672,"Ġyan":8673,"ower":8674,"Ê»e":8675,"áģı":8676,"ĠáĪ²":8677,"×Ĵ×¢":8678,"Ġplus":8679,"à¾¡à½ºà¼ĭ":8680,"Ġ×¢×¨":8681,"mak":8682,"à¤ĵ":8683,"à¼¡à¼":8684,"Ð²Ðµ":8685,"ĠÐ±ÑĥÑĤÑĤ":8686,"Ġuga":8687,"ĠÞį":8688,"Ã¦ÑģÑĤ":8689,"ÏīÏĤ":8690,"ĠÐ´Ð¶ÑĭÐ»":8691,"74":8692,"Ġsiy":8693,"Ġkv":8694,"Ġlah":8695,"à¤¿à¥¤":8696,"ĠÐ¼ÐµÐ´":8697,"lash":8698,"ĠáĥĲáĥłáĥ":8699,"Ġproduc":8700,"ĠÓĢÐ°":8701,"ĠdÃ¤":8702,"ĠtÃ¤":8703,"Ġhay":8704,"ĠÃľ":8705,"ĠSam":8706,"ĠBul":8707,"Ã¨m":8708,"isten":8709,"ebe":8710,"Ã§ion":8711,"Ġsucc":8712,"nder":8713,"ÙĨØ¯ÛĮ":8714,"Ġà¦ıà¦¹":8715,"åĮº":8716,"eku":8717,"ĠÐ½Ð°Ñģ":8718,"ÅŁa":8719,"maa":8720,"×ĵ×¢×¨":8721,"erin":8722,"row":8723,"ĠKiben":8724,"ĠÄ¯":8725,"Ø¬ÙĬ":8726,"Ġile":8727,"Ġfevrye":8728,"èı":8729,"Ġstol":8730,"Ø²ÙĬ":8731,"ĠØ¦Ø§ÙĦ":8732,"à±ģ,":8733,"éĢ²":8734,"Ä¼u":8735,"å²":8736,"à¬ģ":8737,"ĠSar":8738,"ĠCer":8739,"ĠÐ±ÑĥÐ´":8740,"ĠKur":8741,"Ġà¤ķà¤²":8742,"ÅĤow":8743,"Ð¸Ð·Ð¼":8744,"æķ¸":8745,"lÃ©":8746,"Ġ<":8747,"Ġnw":8748,"Ġrem":8749,"Ġzoi":8750,"Ġsebagai":8751,"kastilla":8752,"san":8753,"Ġáĥļ":8754,"ĠØ³ÙĬ":8755,"Ġcond":8756,"×ĺ×Ł":8757,"åı²":8758,"éĻ¢":8759,"ÚĬ":8760,"Ġdaga":8761,"Ġold":8762,"ĠSol":8763,"agon":8764,"abb":8765,"ĠÙĦÙĪ":8766,"Ġfram":8767,"Ġ1982":8768,"alit":8769,"Ġlid":8770,"uso":8771,"ĠRoman":8772,"ĠÂ·":8773,"Ing":8774,"yah":8775,"inum":8776,"ĠtÃ¡":8777,"ĠhÃ¶":8778,"icos":8779,"ĠEk":8780,"upakan":8781,"à»ĢàºĹ":8782,"esies":8783,"çı¾":8784,"62":8785,"TA":8786,"ĠØ§Ø¦":8787,"Ð°ÑĤÐ°ÑĢ":8788,"ĠÐ½ÐµÐ³":8789,"ĠÎ¤":8790,"ĠVol":8791,"àª°àª¤":8792,"Ġà¤ĩà¤¨":8793,"áŁħâĢĭ":8794,"Åºe":8795,"åĵ¡":8796,"ì¡":8797,"ĠÐºÐ½Ð¸":8798,"ĠÑĤÓ¹":8799,"2001":8800,"ĠIndones":8801,"Ġdhi":8802,"ĠnÄĥm":8803,"adar":8804,"ĠMah":8805,"Ġà¬ī":8806,"Ó§ÑĤ":8807,"å·´":8808,"ĠAcÃ¨h":8809,"Di":8810,"ĠsÃ¬":8811,"Ġhev":8812,"Ġvegn":8813,"Ġà¨ĸ":8814,"ayn":8815,"ĠFer":8816,"ĠØªÙħ":8817,"larda":8818,"Ġpert":8819,"54":8820,"íĥ":8821,"ÑģÐ¾":8822,"umo":8823,"ĠÑģÐ°Ð½":8824,"ĠØ¬ÛĮ":8825,"Ġà¥«":8826,"åı¸":8827,"Ġabo":8828,"Ġmarc":8829,"ĠÐ¹Ð¾Ð²ÑħÐ°":8830,"Ä±sÄ±":8831,"ÑĢÐµÐ´":8832,"à¥įà¥¤":8833,"unta":8834,"Ġima":8835,"ĠTs":8836,"ĠÐ³Ð¾Ð»":8837,"Ġdru":8838,"Ð°ÑĢÑĥ":8839,"ÑıÐ»ÑĮ":8840,"lein":8841,"ĠØ§ÙĦØ±":8842,"ĠÐĳÐµÐ»":8843,"Ġ1930":8844,"ĠPaul":8845,"Ġlingua":8846,"ĠØ«":8847,"ĠSta":8848,"ĠØ³Ùħ":8849,"ĠØ³ÙĨÚĮ":8850,"ĠÐ¾Ð½Ð´":8851,"ynn":8852,"åħĪ":8853,"Ð½Ð°Ñĩ":8854,"jÄħ":8855,"sl":8856,"İáī½":8857,"à·Ģà¶Ń":8858,"uvo":8859,"Ġpatedik":8860,"Ġsistem":8861,"éŁ³":8862,"Ð¼ÐµÑĤ":8863,"Ġà¦ĺ":8864,"ikato":8865,"ĠBos":8866,"ĠØ¦ÙĪ":8867,"ĠØ²Ùħ":8868,"ÙħÛĮØ´":8869,"Ġincl":8870,"ative":8871,"ĠØ§Ø¯":8872,"ÙīÙĨÙī":8873,"Ð°Ð¹Ð´":8874,"à¼įà¼į":8875,"Ġà¤²à¤Ĺ":8876,"Ġadministrat":8877,"ÛķÙĥ":8878,"ĠEg":8879,"ĠÐ¾Ð¿":8880,"×ķ×¦":8881,"undu":8882,"à¬ĩà¬¥":8883,"ãĥ³ãĥ":8884,"SA":8885,"iu":8886,"ë¦":8887,"eru":8888,"abil":8889,"Ã¶t":8890,"åĲĳ":8891,"ĠÑĸÐ½":8892,"é¦ĸ":8893,"Ġeo":8894,"skim":8895,"ÙĪÙĦÙĪ":8896,"à¹Ģà¸ģ":8897,"kon":8898,"èĬ":8899,"Ġfig":8900,"áĪ®":8901,"ĠJes":8902,"ÑģÐºÐµ":8903,"Ġako":8904,"din":8905,"çĿ":8906,"Ġáŀĳ":8907,"ÑĭÑī":8908,"ĠSav":8909,"akh":8910,"ĠÙħØ¯":8911,"ĠÐ½ÑįÐ³":8912,"Ġesse":8913,"ï»ª":8914,"erte":8915,"Ġala":8916,"Ġkre":8917,"alas":8918,"eten":8919,"Ġciv":8920,"ĠSeg":8921,"Ø¨Ø§Ø¯":8922,"ĠÎķ":8923,"ĠÑįÐ·":8924,"Ġdivers":8925,"etan":8926,"ady":8927,"ĠGl":8928,"Ġà¬²":8929,"ĠÐ²Ð°Ð»":8930,"à²°à²ķ":8931,"ĠØ³ÛķØ±":8932,"Ø¬ÛĮ":8933,"72":8934,"lari":8935,"èİ":8936,"Ġned":8937,"ĠÐ·Ð°Ð²":8938,"ĠÑĢÐ°Ñģ":8939,"å°Ķ":8940,"æīĭ":8941,"å»£":8942,"Ġartik":8943,"Ġáĭ¨áĪļ":8944,"áº¥t":8945,"erde":8946,"Ġpes":8947,"Ð´Ñĸ":8948,"Ġcin":8949,"Ã©ta":8950,"ĠCast":8951,"Ð¿Ð°":8952,"ĠFilipinas":8953,"ÐµÐ»Ð¸":8954,"ĠÃ¾e":8955,"à±Ģ.":8956,"Û°Û±Û":8957,"anne":8958,"enne":8959,"Ġmik":8960,"Ġbw":8961,"Ġras":8962,"rog":8963,"ribu":8964,"ĠØ§ÙĦØ¥":8965,"à©ģà©±":8966,"NA":8967,"SO":8968,"Ġliter":8969,"Ġhom":8970,"Ð°ÑĤÐµÐ»ÑĮ":8971,"Ġà´¬":8972,"×Ļ×Ļ×ĺ":8973,"ĠáĥłáĥĿáĥĽ":8974,"å½±":8975,"Ġáı¥áıĦáıįáıĹ":8976,"94":8977,"æĴ":8978,"amh":8979,"ĠSon":8980,"Ġwere":8981,"äº¦":8982,"å®Ĺ":8983,"Äĩa":8984,"ĠÃ±u":8985,"nosti":8986,"zia":8987,"ìĥ":8988,"Ġnia":8989,"Ð½Ð¾Ðµ":8990,"Ġegy":8991,"',":8992,"71":8993,"kun":8994,"yat":8995,"Ġmá»Ļt":8996,"Ġdeb":8997,"istr":8998,"ĠÙĤÙīÙĦ":8999,"Ġmuz":9000,"à¸«à¸Ļ":9001,"Ġatawa":9002,"nika":9003,"ĠApr":9004,"ÑħÑįÐ¼":9005,"Å¡ÃŃ":9006,"ĠÑĥÐ¶":9007,"Ġ1979":9008,"Ġemp":9009,"Ã¼h":9010,"Ġà¤¸à¤Ń":9011,"ãĤ·":9012,"ÛİÙĨ":9013,"Ġ1987":9014,"å¥³":9015,"Åĵ":9016,"Ġtran":9017,"à½ĵà½ĺ":9018,"ĠÑħÐ¾":9019,"áŀ¸âĢĭ":9020,"ĠÐ¾Ð±Ð»Ð°":9021,"à»ĥàº«":9022,"93":9023,"yc":9024,"ĠÙ¹":9025,"isip":9026,"ĠÐ¿Ð¾ÑģÑĤ":9027,"Ø´Ø§ÙĨ":9028,"ĠÎ²":9029,"ĠÐ¸ÑĤ":9030,"ÙĤÙĩ":9031,"Ġprime":9032,"äºİ":9033,"ĠÑıÑĢ":9034,"à¸¢à¸Ļ":9035,"ĠÐ°ÑĢÑħ":9036,"çķ¶":9037,"anje":9038,"Ġaqu":9039,"Ġmg":9040,"alle":9041,"ĠlÃ¶d":9042,"Ġvl":9043,"ĠPres":9044,"abr":9045,"Ġsez":9046,"Ġalso":9047,"Ð¸Ð¼Ð°":9048,"áŀ»áŁĨ":9049,"Ð´ÑĭÒ£":9050,"ëĵľ":9051,"ì¹":9052,"ĠWil":9053,"ÑĳÐ»":9054,"åĪĿ":9055,"Ġáİ¾áİ¥":9056,"Õ¡Õ¼":9057,"á»¯":9058,"Ġ48":9059,"Ġëª":9060,"×ĺ×¢":9061,"ÑĨÐ¸Ð¾Ð½":9062,"was":9063,"Õº":9064,"à¥§":9065,"Ġmh":9066,"alq":9067,"âĢ¦":9068,"Ð²ÐµÐ´":9069,"ĠØªÙĪÚº":9070,"Ġà¤ħà¤ªà¤¨":9071,"åı¤":9072,"Ø§Ø³ÛĮ":9073,"Ġnyan":9074,"âĢľ,":9075,"Ġáģģáģ":9076,"yri":9077,"è±":9078,"Ð»ÐµÐ¼":9079,"ĠÐ±Ð¾Ð²ÑħÐ°":9080,"Ġëı":9081,"åıĹ":9082,"Ó¹Ð½":9083,"yag":9084,"à§·":9085,"Ð¼Ñĥ":9086,"áŁĪ":9087,"Ġ1920":9088,"Ġdav":9089,"izo":9090,"ĠPiruw":9091,"ĠÐºÐ¾Ð½ÑĤÐ¸Ð½ÐµÐ½ÑĤÐ°Ð½":9092,"alchaa":9093,"ble":9094,"Û±Û":9095,"arti":9096,"elij":9097,"Ġequ":9098,"osc":9099,"abor":9100,"Ð°ÑĤÑĢ":9101,"Ãłr":9102,"Ġ1985":9103,"ĠÐŀÐ»":9104,"ĠUSA":9105,"å³":9106,"ÑģÐ¸":9107,"ÑģÑį":9108,"Ġpog":9109,"Ġheb":9110,"Ð¼ÐµÐ½":9111,"ĠSud":9112,"ÑıÐº":9113,"Ġua":9114,"å¼ı":9115,"ĠÐ¼ÐµÐ½ÐµÐ½":9116,"Or":9117,"Ġnyo":9118,"orld":9119,"à¥Ģà¥¤":9120,"ĠÐ¼Ð¾Ð¶":9121,"Ġà®Ĵ":9122,"à´ķàµ¾":9123,"ĠÛģÛĮÚº":9124,"ĠÐĵÑĮ":9125,"âĢľ.":9126,"%),":9127,"yer":9128,"zd":9129,"Å©":9130,"ĠdÃ»":9131,"Ġkud":9132,"Ãłu":9133,"Ð¾Ð¼Ñĥ":9134,"Ð¸ÑıÑĤ":9135,"àºģàº²àºĻ":9136,"å¸¸":9137,"çĽ´":9138,"ĠìķĦ":9139,"Ġbij":9140,"Ġyit":9141,"ĠDon":9142,"ÑģÑĤÐ°Ð²":9143,"Ø§ÙĦÙħ":9144,"aceae":9145,"ĠØ¢Ø±":9146,"ologi":9147,"Õ¥ÖĢÕ¨":9148,"à¾«à½¼":9149,"ç³»":9150,"mit":9151,"Ãī":9152,"Ð¾Ð¾":9153,"aron":9154,"ĠÐ´Óĵ":9155,"uki":9156,"Ġsav":9157,"Ó©ÑĤ":9158,"ĠÑħÐ°Ð»":9159,"à²¤à²¦":9160,"ĠØ¢ÙĦ":9161,"à¸ķà¸£":9162,"ĠSup":9163,"usti":9164,"ÑĬÐ»":9165,"Ġstate":9166,"Ġelement":9167,"ĠInter":9168,"Ġdrug":9169,"è¢«":9170,"ĠÐºÓ©ÑĢ":9171,"Ġsei":9172,"ÅŁi":9173,"ÐµÑĤÐ°":9174,"yaa":9175,"à·Ģà¶±":9176,"Ġà·ĥà·Ħ":9177,"ìķĦ":9178,"é¦¬":9179,"amen":9180,"à¤¯à¤²":9181,"àŃĥ":9182,"ÎµÎ½":9183,"àºŃàºĻ":9184,"à¾Ĳà½¼":9185,"å½ĵ":9186,"Ġaa":9187,"alk":9188,"ĠPet":9189,"Ú©Ø§Ø±":9190,"Ø³ØªÙĪÙĨ":9191,"ÛķÚ©Ø§ÙĨÛĮ":9192,"Ġrepres":9193,"vÃŃ":9194,"ĠdÃ®":9195,"eds":9196,"Ã¡Ã¡":9197,"à½´à¼į":9198,"ÐµÐ½Ð¾":9199,"ĠÐ¾Ð¹":9200,"Õ¡Õº":9201,"Ġà¤¦à¤°":9202,"à¾³à½¼à¼ĭ":9203,"Ġà·Ģà¶±":9204,"å¼Ĺ":9205,"Ġdirec":9206,"has":9207,"æ¡":9208,"à¤Ŀ":9209,"Ġsystem":9210,"ĠÐ¿Ð¾Ñĩ":9211,"Äģl":9212,"áŀĵáŀĶ":9213,"ãĥ¬":9214,"Ð¸ÑĤÐµÑĢ":9215,"à¹ģà¸¥à¸°":9216,"qq":9217,"Ġtod":9218,"amil":9219,"Ġfond":9220,"Ã©h":9221,"ict":9222,"ĠÐ´ÑĢÑĥÐ³":9223,"Ġà¸ģ":9224,"nat":9225,"ĠØ§ØªØ§":9226,"Ú©ÙĨ":9227,"à¹Ģà¸Ĺ":9228,"Ġmilim":9229,"ÎŃÏĤ":9230,"xim":9231,"ĠBay":9232,"ĠDet":9233,"ĠØ¯Ø§ÙĨ":9234,"ĠÐ½Ð°Ð¿":9235,"ĠÙĨÛķ":9236,"ĠÙĩÙĬ":9237,"ĠÛ²Û°Û±Û":9238,"ĠÐ®ÑħÐ°Ð½ÑĪÑĭÐ²":9239,"Fran":9240,"loc":9241,"ĠcÃ¡c":9242,"uras":9243,"ĠÐºÓĢ":9244,"ĠDat":9245,"ĠÑĤÓ©":9246,"ĠRuss":9247,"Ò¯Ð½Ð´":9248,"ÙĥÛĪ":9249,"Ġmark":9250,"fan":9251,"áıļ":9252,"rach":9253,"egg":9254,"à¤¸à¤¯":9255,"Õ¡Õ¦":9256,"Ø¹Ùĩ":9257,"ijan":9258,"Ø·ÙĦ":9259,"koet":9260,".).":9261,"Ġpach":9262,"Ġkim":9263,"Ġkod":9264,"Ġcode":9265,"ĠoÃ±":9266,"Ġgor":9267,"ĠØ¯ÙĨ":9268,"×ķ×§":9269,"Ġà¤ªà¤¶":9270,"ÙĪØ±ÙĬ":9271,"ÑĦÐµÑĢ":9272,"anno":9273,"ç«Ļ":9274,"åĨĽ":9275,"ĠmpÃ©":9276,"arc":9277,"Ġmant":9278,"ĠTen":9279,"ensis":9280,"ardo":9281,"ĠÒ»ÑĭÑĥ":9282,"77":9283,"Ġtonu":9284,"Ġoa":9285,"ums":9286,"ĠÑĤÐºÑĬÐ°":9287,"hey":9288,"áŀĻáŀĢ":9289,"ÛĪÙ¾":9290,"ÄŁan":9291,"ĠÃ¼Ã§":9292,"ĠlÄ«":9293,"Ġrez":9294,"ĠSay":9295,"Ø³Ø¨":9296,"à²°à²¦":9297,"ĠØ´Ùĩ":9298,"Ġpour":9299,"å°į":9300,"Ġ1981":9301,"Ġà¤Ľà¤²":9302,"à¾¤à¾±à½²à¼ĭ":9303,"àº¹à»Ī":9304,"wet":9305,"å¨":9306,"Ġgov":9307,"Ã¦Ð»":9308,"æĹ¥æľ¬":9309,"Î¸Î·":9310,"Ġtelev":9311,"åģļ":9312,"à¸£à¸²à¸Ĭ":9313,"ãģ¦ãģĦãĤĭ":9314,"ĠnÃ¤":9315,"iger":9316,"ĠGal":9317,"Ã«ng":9318,"à¦¨à¦¤":9319,"Ġà¤¦à¤ķ":9320,"schd":9321,"63":9322,"69":9323,"ĹĦ":9324,"Ġaka":9325,"omet":9326,"à¶®":9327,"roc":9328,"ĠÚ¯Ø±":9329,"Ð³ÑĬÐ°":9330,"yes":9331,"áĥĸ":9332,"à¬ī":9333,"Ð¼Ð¸":9334,"Ð²Ð¸":9335,"ĠjÃ®":9336,"à²¿.":9337,"Ġsto":9338,"ÙĪÙĨØ¯":9339,"ĠØ¹Ø§Ùħ":9340,"à¤īà¤¨":9341,"61":9342,"ÑĪÐ¸Ð¹Ð»Ð°":9343,"ĠÐ±ÑĢ":9344,"Ð¾Ð½Ð½Ð°":9345,"ĠÑĥÑĪ":9346,"Ġ2017":9347,"áĢ¾áĢ¯":9348,"Ġorganiz":9349,"ĠbÃ¤ldotÃ¼":9350,"ĠÐ°ÑĮÑħÐºÐ°":9351,"Ġsinn":9352,"Ġgas":9353,"à¤¨à¤¯":9354,"ĠGh":9355,"ĠÐ½Ð°Ð¹":9356,"Ġjeh":9357,"Ġë³":9358,"ÑįÐ½ÑĮ":9359,"Ġà¤ļà¤²":9360,"Õ¡ÕµÕ«Õ¶":9361,"ĠÕ¸ÖĤ":9362,"Ġpil":9363,"Ġkus":9364,"Ġdefin":9365,"Õ¡Õ°":9366,"ĠÐļÐ°ÑĢ":9367,"Ġ1978":9368,"Ġ1941":9369,"áĢľáĢĬ":9370,"ĠÐķÐ²ÑĢÐ¾Ð¿":9371,"valora":9372,"Ð»Ð°Ð³":9373,"à°³":9374,"ĠvÃ½":9375,"ury":9376,"Ø³ÙĪ":9377,"ĠDip":9378,"ĠLou":9379,"okrat":9380,"áĭ²":9381,"ä»Ĭ":9382,"Ġ1973":9383,"ĠÕ¥Õ¶":9384,"Ġnisqa":9385,"Ġ×ķ×ķ×Ĳ×¡":9386,"Ta":9387,"Ûµ":9388,"à½¢à½ĸ":9389,"ahu":9390,"à¦°à¦¸":9391,"Ú¯Ø§Ùĩ":9392,"Ġà¤ħà¤®":9393,"Ã¬a":9394,"Ð´Ñį":9395,"ÑĸÐ»Ñĸ":9396,"ĠÐ¼Ð°Ð¹":9397,"Ġsept":9398,"áĥĶáĥĴ":9399,"Ġ1984":9400,"áĥĲáĥ¨áĥĺ":9401,"×ķ×ł×Ĵ":9402,"Ġmezvalora":9403,"ç¤¾":9404,"à¤¿,":9405,"edje":9406,"ĠyÄ±l":9407,"Ã¡p":9408,"ÑĸÐ»ÑĮ":9409,"×ķ×©":9410,"áĥĿáĥĴ":9411,"Ġ64":9412,"acht":9413,"ĠØ£ÙĨ":9414,"ox":9415,"Ġtres":9416,"alÄ±":9417,"Ġgob":9418,"ĠKir":9419,"à½łà½ļ":9420,"å¤«":9421,"Ġ1977":9422,"ÑĭÐ³Ð°ÑĢ":9423,"Ġevante":9424,"Ġinform":9425,"onta":9426,"ÐºÐµÑĢ":9427,"ĠNob":9428,"ÑĬÑı":9429,"ĠÐ½Ð¾Ð¼":9430,"Ú©Øª":9431,"aley":9432,"Ġ1974":9433,"Ġ1976":9434,"à¸¹à¹ī":9435,"æ©Ł":9436,"Ò«":9437,"éŃ":9438,"Ġoku":9439,"hair":9440,"áŀļáŀŁ":9441,"ÙİÙĳ":9442,"àº§àºĩ":9443,"Û°Û°":9444,"ĠSanta":9445,"ied":9446,"ĠÑĭÐ»":9447,"Ġstan":9448,"ijn":9449,"à²¯à²µ":9450,"áĢ»áĢŃáĢ¯áĢ¸":9451,"ĠÐĺÐ½":9452,"à¤Ľà¤¨":9453,"Ġ1944":9454,"æ²³":9455,"bert":9456,"esan":9457,"idat":9458,"ĠÑĤÐ°Ð»":9459,"ĠFa":9460,"ÑĭÐ½Ð´":9461,"Ġà¥©":9462,"Ġbai":9463,"ampa":9464,"æĪĸ":9465,"ĸº":9466,"Ġdw":9467,"Ġsent":9468,"Ġaff":9469,"Ġmaka":9470,"ĠnÃº":9471,"ĠpiÃ¹":9472,"ĠÑĥÑĩÐ°ÑģÑĤ":9473,"sur":9474,"à¤½":9475,"ĠÐĨ":9476,"enda":9477,"Ġnda":9478,"ĠgÃ¢":9479,"áı²":9480,"Ġáĥ©":9481,"Ãªt":9482,"Ġelektr":9483,"Ġà¤ľà¤¨à¤¸":9484,"æ¸ħ":9485,"Ð»Ó§Ð½":9486,"Ġnev":9487,"ĠÑģÑĬ":9488,"Ġzem":9489,"Ġzyn":9490,"ÛĮÙĨØ¯Ø§":9491,"ĠÛĮÚ©":9492,"ÛķÚ©Ø§ÙĨ":9493,"áŁį":9494,"á»©":9495,"ungan":9496,"ĠniÃ¨ng":9497,"ĠArth":9498,"Ø«Ø±":9499,"ÄŃk":9500,"Ġáİ¾áİ¿":9501,"83":9502,"cional":9503,"Ġáŀ":9504,"ÑĤÐ¸Ðº":9505,"Ġada":9506,"Ġmov":9507,"Ġkah":9508,"ĠØ§Ø®":9509,"ĠÐ·Ð°Ðº":9510,"ynd":9511,"Ġ×ľ×Ķ":9512,"Ġkilometro":9513,"Ġdum":9514,"Ġtul":9515,"Ġraj":9516,"à¤µà¤ķ":9517,"Ð¸ÑĤÐ¸":9518,"Ê¼Ã©":9519,"êµŃ":9520,"à½ĸà½Ģà½ł":9521,"rÃ©":9522,"worth":9523,"Ġteg":9524,"áĥļáĥĺáĥ¡":9525,"ĠáĮį":9526,"ĠØ¥ÙĦÙī":9527,"log":9528,"Ġkep":9529,"à¨«":9530,"Ġà²¯":9531,"Ãªu":9532,"Ãªda":9533,"Ġstar":9534,"ĠØ®ÙĪØ¯":9535,"Ġ1971":9536,"Ġsistema":9537,"Ġ(*":9538,"iyÃª":9539,"ĠUl":9540,"Ð´Ð°Ð°":9541,"Ġ1972":9542,"Ġmateri":9543,"Ð°Ð½ÑĭÒ£":9544,"Ġ1904":9545,"Ġmilimetro":9546,".-":9547,"wed":9548,"Ø§Ûģ":9549,"eran":9550,"ĠpÃ³":9551,"Ġpli":9552,"áıĬ":9553,"ikas":9554,"ĠÚļ":9555,"Ð¿Ðµ":9556,"à½łà½Ĩ":9557,"Ġà¬¥":9558,"ÙĥÛķ":9559,"Ġadolah":9560,">>":9561,"aÅĤ":9562,"ford":9563,"Åĭ":9564,"Ġghe":9565,"Ġ1918":9566,"unge":9567,"à°¾à°Ĥ":9568,"ĠÐŁÐµÑĢ":9569,"à¹Ģà¸¡":9570,"Ġ×ľ×Ĳ":9571,"ty":9572,"Ġtol":9573,"Ġget":9574,"urin":9575,"Ġry":9576,"àµĪ":9577,"áĭĬ":9578,"Ð¾Ð¼Ð°":9579,"keun":9580,"ĠØ§ÙĨØª":9581,"Ġmerupakan":9582,"ĠáĬĲáĭį":9583,"ĠInternational":9584,"lÃ®":9585,"nh":9586,"zb":9587,"Ġbad":9588,"egov":9589,"ĠRad":9590,"stand":9591,"eze":9592,"emper":9593,"Ð²ÐµÑĢÑģ":9594,"53":9595,"enc":9596,"ĠBre":9597,"ĠØ³Ø§Ø²":9598,"ĠFranc":9599,"ĠÐ¤ÑĢÐ°Ð½":9600,"æł¡":9601,"§àŃ":9602,"ĠÕ¡Õ¶":9603,"Ġmom":9604,"ishi":9605,"Ġdek":9606,"ĠMod":9607,"ĠØ¨ÛķØ±":9608,"ĠWo":9609,"ĠOt":9610,"áĥĺáĥ¡áĥ¢":9611,"à¤ĩà¤¨":9612,"Ø§ÙĤØ¹":9613,"ĠÃ¤binons":9614,"Si":9615,"ĠÓ¹":9616,"ĠkÄ«":9617,"áĥĲáĥļáĥĺ":9618,"Ø§ÙĦÙĩ":9619,"larÄ±n":9620,"áĮĭ":9621,"à¾¡à½¼à¼ĭ":9622,"2011":9623,"çĲĥ":9624,"nÃ¡":9625,"èį":9626,"àº£":9627,"ĠhÃ¤n":9628,"Ġear":9629,"ropa":9630,"ĠÑĤÑı":9631,"ĠÚ©Ø´":9632,"ÑĨÑı":9633,"Ã¦t":9634,"ĠOk":9635,"skog":9636,"ĠsiÅıh":9637,"áĥ£áĥłáĥ":9638,"ĠÑģÑĤÑĢ":9639,"ÑĪÑĤÓ¹":9640,"73":9641,"Ġsens":9642,"Ð´Ñĥ":9643,"entre":9644,"Ġà§©":9645,"Ä±ndan":9646,"jad":9647,"zel":9648,"ÑįÑī":9649,"áıĺ":9650,"ĠSept":9651,"osti":9652,"Ġwob":9653,"Ø¯ÛĮØ±":9654,"ĠIV":9655,"Ġà¤ķà¤°à¤¤":9656,"ĠÐ¾Ð³":9657,"à½ĸà½¦à½ĺ":9658,"akau":9659,"ç§ĳ":9660,"ĠdÃ¤n":9661,"áİ·":9662,"Ġenc":9663,"Äģng":9664,"Ġ33":9665,"Ġthis":9666,"Ð¸ÑģÑģ":9667,"Ġ1967":9668,"Ġà¦Ĩà¦¸":9669,"à¸¶à¹Ī":9670,"ĠXIX":9671,"Kr":9672,"åĥ":9673,"Ġsir":9674,"Ġnep":9675,"Ġbrit":9676,"à°Ń":9677,"tid":9678,"ĠDis":9679,"qui":9680,"à¬°à¬¤":9681,"ĠÙĩÚª":9682,"agauz":9683,"ĠÐ¨ÐµÑĢÐ°Ð½":9684,"áĥĵáĥĲ":9685,"çĪ¾":9686,"áĥĶáĥ¤áĥĺáĥ¨":9687,"Ú³":9688,"Ġsunt":9689,"Ġjadi":9690,"Ð°ÑĤÑĭÐ½":9691,"×Ļ×ŀ":9692,"à¤Ĺà¤³":9693,"Ġpero":9694,"ihu":9695,"×©×¨":9696,"áŁīáŀ¶":9697,"enu":9698,"Ð½Ð¸ÑĤÐµ":9699,"Ġcara":9700,"ĠÑĤÐµÐ¼":9701,"istas":9702,"ÛĪÙĨ":9703,"Ġingk":9704,"çĻ¾":9705,"wyd":9706,"Ġverd":9707,"ĠLong":9708,"lio":9709,"Ãłm":9710,"ĠÐĲÐ²":9711,"Ġreo":9712,"orian":9713,"2006":9714,"BS":9715,"lÉĻr":9716,"íĺ":9717,"ÑĤÑį":9718,"Ġleki":9719,"ĠÑħÒ¯Ð½":9720,"Ġà¤ħà¤²":9721,"Ġprob":9722,"lyk":9723,"Ġprez":9724,"à¾¤à¾±à½¼":9725,"æĩ":9726,"Ð½Ð°Ð½":9727,"ilan":9728,"Ġà¸Ħ":9729,"Ð¾Ð½Ð³Ð¾Ð»":9730,"áıª":9731,"áı°":9732,"emente":9733,"ags":9734,"iman":9735,"ĠPÄģ":9736,"Ð±Ðµ":9737,"ÐµÑĢÐº":9738,"à¤¶à¤ķ":9739,"ĠÙĤØ§Ø±":9740,"ÑĭÐ³Ñĭ":9741,"ĠÑİÑħÐ°Ð½ÑĪÑĭÐ²":9742,"Ġhadton":9743,"ĠIndonesia":9744,"Ùº":9745,"arl":9746,"ĠØ§ØŃ":9747,"Ġyoo":9748,"ĠRel":9749,"Ġà¶ĭ":9750,"ĠÙĤØ§ÙĨ":9751,"ambi":9752,"æ¯Ķ":9753,"ĠÐµÐ»Ð³Ð°":9754,"jt":9755,"Å±":9756,"arde":9757,"iland":9758,"Ġost":9759,"Ġwah":9760,"ĠÐºÒ¯":9761,"à¦¾à¦ģ":9762,"cija":9763,"ipun":9764,"ãĢĤãĢį":9765,"Ġ34":9766,"Ð½ÑĭÐµ":9767,"Ġadam":9768,"shtÃ«":9769,"ĠRobert":9770,"jÃ³":9771,"mÉĻ":9772,"ëŁ":9773,"ÑĤÑįÐ¹":9774,"Ġlia":9775,"ĠÙħÙĬ":9776,"otta":9777,"ĠVe":9778,"Ð°Ð´Ð·":9779,"ichi":9780,"Õ¥Öģ":9781,"ĠàºĦ":9782,"ĠÐ¾ÑĢÐ³Ð°Ð½":9783,"Oku":9784,"wata":9785,"ĠpÄĵ":9786,"tive":9787,"ĠDev":9788,"ĠÐ½Ð¾Ð²":9789,"ä¸ĥ":9790,"à¤¹à¤²":9791,"ĠProvin":9792,"82":9793,"fen":9794,"erst":9795,"ÑĤÐµÐ½":9796,"angka":9797,"ĠÑģÑĥÑĢ":9798,"utan":9799,"antan":9800,"Äįen":9801,"ÑĭÑĢÐ³":9802,"Ê¼ÃŃ":9803,"ĠÒĽÒ±":9804,"Ġllaqta":9805,"dah":9806,"Ľàº°":9807,"Ġdro":9808,"ĠPu":9809,"heim":9810,"ĠÐ´Ð¾Ðº":9811,"ĠÐ°Ð·Ñĭ":9812,"ë©°":9813,"ĠØ§ÛĮØ±Ø§ÙĨ":9814,".),":9815,"Li":9816,"aan":9817,"fas":9818,"nost":9819,"ĠaÃ±":9820,"Ð´ÑĭÐ½":9821,"Ġhon":9822,"Ġeune":9823,"Ð²ÐµÑĤ":9824,"Ġyaz":9825,"à¦¿à¥¤":9826,"Î¹ÏĤ":9827,"Ġ400":9828,"ĠÐĲÑĦ":9829,"ÙĪÙĦØ§Øª":9830,"ĠZa":9831,"ĠÚĨÙĪ":9832,"Ġà²¬à²°":9833,"ÑĨÐ¸Ð¸":9834,"52":9835,"yÃ®":9836,"Ð½Ð¾Ð³":9837,"Ġjuga":9838,"Ġáĥĸ":9839,"Ġàªī":9840,"Ġá¹":9841,"ĠJer":9842,"æŃ»":9843,"Ġà®ĩà®°":9844,"çŁ¥":9845,"As":9846,"hÃ¡":9847,"zk":9848,"zin":9849,"Ġnab":9850,"Ġhun":9851,"Ġic":9852,"ĠDel":9853,"ÃŃo":9854,"áī¶":9855,"skih":9856,"×ĳ×Ł":9857,"500":9858,"Ġpok":9859,"ÙĨØ§Ùħ":9860,"ĠTÃ¼rk":9861,"ĠÙħÙĩ":9862,"ĠÙħØ§Ø±":9863,"Ð¾Ð´Ð·":9864,"Ġkuti":9865,"Ġserv":9866,"Ġnisqaqa":9867,"mes":9868,"Ġatu":9869,"àºľ":9870,"Ġbom":9871,"ads":9872,"Ġris":9873,"Äģi":9874,"ĠÑħÐ°Ð¼":9875,"×Ĳ×¡":9876,"ĠChr":9877,"Ġtrong":9878,"ÙĨÚĪ":9879,"Ġà«":9880,"Ġtill":9881,"else":9882,"Ġfit":9883,"ĠØ§Ùĩ":9884,"Ð¾ÑĢÐ¾Ð´":9885,"à¾Ĵà¾²à½´":9886,"ÙĨØ¯Ø§":9887,"áĥ£áĥ¨":9888,"ÑĭÑĪÑĭ":9889,"ë§Į":9890,"ÛĮÙĨÚ¯ÛĮÙĦÛĮ":9891,"zes":9892,"Ð»Ð°ÑĪ":9893,"ĠfÃ©":9894,"ĠMen":9895,"ĠMol":9896,"ĠKong":9897,"Ã«l":9898,"ĠÎ¸":9899,"ope":9900,"Ø²Ø±":9901,"áĥĿáĥ¨":9902,"Õ¥Õ²":9903,"Ġ1939":9904,"áıįáıĶáıħ":9905,"æł¼":9906,"ÙĬØºÛĩØ±":9907,"mag":9908,"Ð¾Ñı":9909,"Ġmont":9910,"Ġhak":9911,"à½Ĥà½ĵà½Ħ":9912,"ĠÐ´ÑĮ":9913,"ĠØªÙĤ":9914,"ÏĦÎ·":9915,"ĠØ¬ÙĨÚ¯":9916,"áĥĿáĥ¤":9917,"Ġ1969":9918,"Ø¯ÙīØºØ§ÙĨ":9919,"Ġsvoj":9920,"Ã¡dÃ³Ã³":9921,"Ġáŀ¢":9922,"Ġsov":9923,"ĠjÃ¼":9924,"teg":9925,"æĹ¶":9926,"×Ĺ×¨":9927,"Õ«Õ½":9928,"assa":9929,"Ð¼Ð°Ð½Ð³":9930,"ĠBol":9931,"×Ļ×¤":9932,"ibu":9933,"Å«n":9934,"ĠØ§ÙĪÛģ":9935,"ĠÛĮÙĪ":9936,"Ġà¤Ľà¤¨":9937,"à¤¼à¥Ģ":9938,"ĠAsia":9939,"dabin":9940,"isme":9941,"Ġrum":9942,"ĠMi":9943,"Ġà¤ªà¤¦":9944,"ĠÐ¡Ð¾Ð²ÐµÑĤ":9945,"à©Ģà¥¤":9946,"rindra":9947,"uar":9948,"Ġáŀĩ":9949,"etse":9950,"ĠSv":9951,"ĠChi":9952,"Ð¾Ð½Ñĭ":9953,"Ġngi":9954,"ĠJean":9955,"à½Ĥà½¦à½£":9956,"enden":9957,"alaw":9958,"ĠØ¹ÙĦÙĬ":9959,"ĠØ®ÙĦ":9960,"Ġmac":9961,"Ġoz":9962,"Ð³Ñĸ":9963,"Ġric":9964,"áİ¨áıĴ":9965,"Ġà¦§":9966,"reb":9967,"odh":9968,"ĠÐ²ÑĸÐ´":9969,"Ġà¤ªà¤¤":9970,"ĠOd":9971,"Ð°Ð¼Ñĸ":9972,"area":9973,"ÑįÒ»ÑįÐ½":9974,"],":9975,"èº":9976,"Ġinde":9977,"tia":9978,"ĠÑģÐ°Ð¹":9979,"Ø¦ÛĴ":9980,"Ġëĵ":9981,"ÙĨØ¯Ø±":9982,"ĠÐĵÑĢ":9983,"à·ļ.":9984,"Ø´ØªÛĮ":9985,"è¦ĭ":9986,"à¤ķà¤°à¤£":9987,"ìłģ":9988,"51":9989,"vy":9990,"ÑĭÐ²Ð°":9991,"Ġhusi":9992,"ray":9993,"ÃŃl":9994,"ĠÚ©ÙĦ":9995,"ĠØ§ÙĦÙĦÙī":9996,"Ġ×Ĳ×¨":9997,"Ġ1948":9998,"far":9999,"qt":10000,"Ġjul":10001,"ĠÐ±ÑĥÐ³":10002,"Ġzap":10003,"ĠÙħÛĮÙĦ":10004,"Ġdels":10005,"ĠáĪĽ":10006,"Ġ1983":10007,"Ãłnh":10008,"ÑĥÐ»ÑĮÑĤÑĥÑĢ":10009,"57":10010,"cie":10011,"ota":10012,"rag":10013,"vÃ¤":10014,"èĹ":10015,"Ġiw":10016,"áĪģ":10017,"ÙĥÙĨ":10018,"à¶»à¶¸":10019,"ĠArt":10020,"Ġ1965":10021,"Ġvoe":10022,"skej":10023,"æŃ¦":10024,"Ġpapul":10025,"Ð»Ð°Ð¼Ð°Ð½":10026,"èĲ¬":10027,"ç·ļ":10028,"lÉĻ":10029,"ader":10030,"akon":10031,"ĠÑĤÐ°Ð±":10032,"áĥ£áĥĹ":10033,"à¨¤à¨°":10034,"ÑĥÑģÐ¸Ñı":10035,"Ġ1963":10036,"yÅĦ":10037,"Ġbli":10038,"Ġeine":10039,"adda":10040,"ĠÐºÐ°Ð¼":10041,"ÛĮÙĨØ¯ÙĨ":10042,"ĠØ±Ø³":10043,"ĠChrist":10044,"à²¸à²²":10045,"åĲĦ":10046,"Ġgrande":10047,"soci":10048,"ĠFrance":10049,"áĥĶáĥ¤áĥĺ":10050,"Ti":10051,"Ð´Ð¸Ðº":10052,"ĠÑĤÐ°Ð¼":10053,"ĠÑĢÐ¾Ð·":10054,"åŃĹ":10055,"Ġatau":10056,"Ġnya":10057,"ÐºÑħÐ¾Ð»":10058,"ĠAst":10059,"à¤¤à¤µ":10060,"Ã¨in":10061,"à¾Ĵà½¼":10062,"Ð°Ð±Ð¾ÑĤ":10063,"Ġ1966":10064,"æĪ°":10065,"Ġsigni":10066,"Ġsou":10067,"Ġminn":10068,"Ġkaz":10069,"Ġhir":10070,"ĠÐ¿Ð¾Ð·":10071,"ĠØ§ÙĦÙģ":10072,"ipe":10073,"Î¿Ïģ":10074,"Ù¾ÙĦ":10075,"Ġregi":10076,"Ð¼Ð°Ð½Ð³Ð°Ð»Ð°Ð½":10077,"ÐºÑħÐ¾Ð»Ð»Ð°Ð¼Ð°Ð½":10078,"hd":10079,"iÅ¾":10080,"jÄģ":10081,"ware":10082,"Ġbisa":10083,"ĠÐ¿Ð°Ð»":10084,"ĠÑĥÐ½Ð¸":10085,"Ġnoi":10086,"Ġcommun":10087,"elles":10088,"çļĩ":10089,"87":10090,"ÙīØ²":10091,"ãģı":10092,"ipedia":10093,"Î±Î»":10094,"áŀĶáŀĵ":10095,"iniÃ±":10096,"chiÃ¡":10097,"à¾Ĳà¾±à½¼":10098,"à¾³à½²":10099,"Ġindrindra":10100,"Say":10101,"Ġmell":10102,"ĠSil":10103,"ĠNam":10104,"Ġdae":10105,"Ã²m":10106,"Ġsua":10107,"Ä«n":10108,"áº¿n":10109,"ĠÃ«shtÃ«":10110,"èĺ":10111,"Ġíķĺ":10112,"ĠdÃ¶r":10113,"Ġtrop":10114,"Ġndi":10115,"Ġnome":10116,"agatan":10117,"ĠØ¨Ø®":10118,"ĠEsp":10119,"ĠÐ¸Ð»Ð¸":10120,"ĠÚ¯Ø¤":10121,"ĠÑıÐºÑĸ":10122,"Î¹ÎºÏĮ":10123,"Ġà¬ħà¬¨":10124,"uq":10125,"ë²":10126,"atin":10127,"Ġoan":10128,"Ġdies":10129,"×Ļ×ķ×ª":10130,"ĠÚ©ÛĮÙĦ":10131,"lach":10132,"upp":10133,"alian":10134,"ĠØ¢Ùħ":10135,"Ġxwe":10136,"Ù¹Ø±":10137,"áĬĲáīµ":10138,"Î¯Î±ÏĤ":10139,"bir":10140,"idas":10141,"Ø§ÙĨÙĬ":10142,"ops":10143,"Ä«t":10144,"Åįl":10145,"Ġ1956":10146,"à½ĸà½¤à½ĳ":10147,"Ġhen":10148,"Ð²Ð°ÑĤ":10149,"Ġens":10150,"á»ĵ":10151,"ĠÐ¡ÑĤ":10152,"iller":10153,"ĠÚĨÛĮ":10154,"à¸ģà¸£":10155,"ĠÏĦÏīÎ½":10156,"Ġà¨īà¨¸":10157,"Amer":10158,"mek":10159,"zim":10160,"Ġort":10161,"áĥ¤":10162,"Ġbre":10163,"ĠÐºÐ¸Ð»":10164,"ÑħÐ¾Ð´":10165,"ĠKol":10166,"Ġáĥ¯":10167,"ÑĩÑĥ":10168,"ĠHann":10169,"ĠHind":10170,"Ã¶Ã¶":10171,"ĠYn":10172,"è¿ĩ":10173,"Ð°Ð°":10174,"Ġtina":10175,"Ġlar":10176,"ĠSom":10177,"Ġwen":10178,"Ġjako":10179,"ides":10180,"ĠÐ¿Ð¾Ðº":10181,"ĠRi":10182,"ãĤ¿":10183,"åı°":10184,"asao":10185,"ĠÒ¯Ð»":10186,"Ġà¤īà¤ªà¤²à¤¬":10187,"Ġton":10188,"ĠÙ¼":10189,"ĠbÃ«":10190,"asÄ±nda":10191,"cije":10192,"áĭĿ":10193,"kehÄģ":10194,"à¹Ģà¸Ĥ":10195,"ĠàºĹ":10196,"oft":10197,"áİªáıĹ":10198,"ĠÐ´Ð¸ÑįÐ½":10199,"ĠPÄģkehÄģ":10200,"EA":10201,"indi":10202,"Ġpit":10203,"ĠÙĪÙĨÙĩ":10204,"upu":10205,"tere":10206,"ÛĩØ´":10207,"ÙĪØ±ÙĪ":10208,"åıį":10209,"istian":10210,"à¾©à¼ĭ":10211,"Ġplanet":10212,"))":10213,"fica":10214,"Ġsiya":10215,"Ġbila":10216,"adz":10217,"tions":10218,"×Ļ×ļ":10219,"Ã¼z":10220,"ĠÐ¸Ð½Ð´":10221,"Ð¶Ñĭ":10222,"ĠWind":10223,"Ġ1968":10224,"à¾¡à½¼":10225,"Ġawon":10226,"çŁ³":10227,"ĠÑģÐ¸ÑģÑĤÐµÐ¼":10228,"nak":10229,"ĠÉĻ":10230,"ÑĢÐ³":10231,"à¤°à¤²":10232,"ĠSin":10233,"ĠÑĤÐ°Ð½":10234,"Ġprima":10235,"à§°à§°":10236,"áıħáıĵ":10237,"Ð¾Ð»Ð¾Ð³Ð¸Ñı":10238,"ĠÐľÐ°ÑĢÐ¸Ð¹":10239,"Ġdv":10240,"ĠlÄĽ":10241,"Ġolan":10242,"Ã¤Ã¤n":10243,"ĠDep":10244,"Ê»a":10245,"Ġà¤¤à¤¸":10246,"ÏħÏĦ":10247,"ĠáīĢ":10248,"Ġà²ªà²¨":10249,"×ĵ×Ļ":10250,"Ġ1961":10251,"ife":10252,"å·²":10253,"Ġdurante":10254,"tal":10255,"ëª":10256,"ĠdÃ¨":10257,"ĠdÃ¢":10258,"ĠÐºÑĥÑĪ":10259,"ĠBh":10260,"ĠPers":10261,"ĠImp":10262,"ĠØ§ÙĦØµ":10263,"Ø¹Øª":10264,"Ġkeessa":10265,"ĠÐ¢ÑĥÑĢ":10266,"ÐµÐ²Ð°":10267,"2008":10268,"Ġà¤°à¤¹à¤²":10269,"ç±³":10270,"gin":10271,"tet":10272,"Ġà½ķ":10273,"Ġpet":10274,"ĠÙ¾ÙĬ":10275,"Ġìĸ":10276,"Äįe":10277,"Î¼Î±ÏĦ":10278,"Ġà¤ıà¤ķà¤°":10279,"estiv":10280,"Ġded":10281,"Ġfot":10282,"ĠfÃ¸r":10283,"ĠSov":10284,"Î¹Î½":10285,"àº²àºª":10286,"Ġáİłáİ":10287,"à´°à´¤":10288,"Ð²Ð»Ð°Ðº":10289,"àª¶àª¨":10290,"æİ¥":10291,"ois":10292,"arar":10293,"ĠmÃ²":10294,"oris":10295,"icz":10296,"lea":10297,"Ġsep":10298,"ĠØ®ÙĪØ±":10299,"esso":10300,"à¤ĸà¤£":10301,"æµģ":10302,"ë¥´":10303,"fur":10304,"Ú«":10305,"ĠnÄĽ":10306,"ÐºÑĢ":10307,"ilar":10308,"ĠÐºÑĢÐ°":10309,"ĠRu":10310,"stra":10311,"ÐµÑĢÑĤ":10312,"estu":10313,"áĭĺ":10314,"çĽ®":10315,"Ġblev":10316,"Ġnafso":10317,"Sh":10318,"Ġfue":10319,"oke":10320,"×Ļ×Ľ":10321,"Ø§Ø±ÙĪ":10322,"Ġseo":10323,"Ð¾Ð»Ð±":10324,"haa":10325,"Äįa":10326,"áŀĢáŀĺ":10327,"Ġkuwa":10328,"Ó§Ð½Ñĭ":10329,"Ġils":10330,"ÙĪÙħÛĮ":10331,"áĢºáģĬ":10332,"ĠÏĢÎ¿Ïħ":10333,"kov":10334,"Ġáŀı":10335,"Ġmob":10336,"Ġbaba":10337,"ĠÐ¿ÑĥÑĢ":10338,"Ð±Ð¸Ð»Ðµ":10339,"ĠÐ³Ð¾":10340,"eber":10341,"Ġconf":10342,"å°¼":10343,"ĠArg":10344,"Ġáİ¤áıįáıĹ":10345,"Ġà²ħà²°":10346,"ĠØ§ÛĮÛģ":10347,"Ġzeuden":10348,"ĠÆĻ":10349,"dÄ±r":10350,"Ġkond":10351,"orum":10352,"ildi":10353,"Ġvart":10354,"Ã¢nd":10355,"Ġstand":10356,"ÙĦÙīÙĤÙī":10357,"ãģĭãĤī":10358,"FA":10359,"Ġnes":10360,"ĠlÃ¤s":10361,"Ġbio":10362,"à³Į":10363,"Ġchu":10364,"ĠÙĨÙģØ±":10365,"Ġapp":10366,"Ġàªªàª°":10367,"ilayah":10368,"à°«":10369,"ĠanÅį":10370,"Ġleat":10371,"Ġito":10372,"ĠArm":10373,"Ø´ØªØ±":10374,"ĠáīłáĬ":10375,"jak":10376,"Ù¬":10377,"Ġkara":10378,"Ġeurop":10379,"ĠSir":10380,"ĠPri":10381,"áīĥ":10382,"Ġmain":10383,"Ð¸ÑĤÐµÐ»ÑĮ":10384,"ĠÐ¿ÑĢÐ¾ÑĤ":10385,"Ġà¤Ĩà¤§":10386,"iente":10387,"ĠÑģÑĤÐ°Ð½":10388,"2009":10389,"ĠÚ¾ÛķØ±":10390,"ĠÐ±ÑĥÐ¹":10391,"ĠÕ©Õ¾":10392,"ì§":10393,"Ġped":10394,"Ġhol":10395,"Ġhett":10396,"ĠØ¨Øª":10397,"ĠGod":10398,"Ġett":10399,"ĠStat":10400,"Ġvai":10401,"à½ĳà½Ĥà½ł":10402,"éĩı":10403,"Ġlawan":10404,"inger":10405,"ĠÐ½ÑįÑħÑĬ":10406,"ãĤģ":10407,"à§°à¦£":10408,"ijas":10409,"Ġà¸ª":10410,"Ġmilit":10411,"àº´à»Ī":10412,"ĠAugust":10413,"rael":10414,"Ø¹Ø©":10415,"ungen":10416,"Ġpartic":10417,"ÎµÎ»":10418,"dial":10419,"åĪĹ":10420,"ĠJohann":10421,"Ġengari":10422,"line":10423,"Ã©c":10424,"ÙĤØ¯":10425,"iyon":10426,"áŀļáŀĬ":10427,"Ġáĭĺ":10428,"ĠÒ®":10429,"ĠÑıÐ·ÑĭÐº":10430,"'.":10431,"gÄ§":10432,"Ġsia":10433,"azione":10434,"Ġeks":10435,"2014":10436,"à¸¹à¹Ī":10437,"Ġdomin":10438,"olf":10439,"Ġà¦Ł":10440,"Ġjen":10441,"Ġalb":10442,"ĠÄ¡":10443,"à¤§à¤¨":10444,"Ġopp":10445,"à¹Ģà¸¥":10446,"ìĹ¬":10447,"ĠÚªØ±ÙĬ":10448,"Ġà¬¸à¬®":10449,"Ġáİ¦áıĻ":10450,"åĨħ":10451,"æ¹":10452,"ĠÏĨ":10453,"Ġsic":10454,"Ġmany":10455,"Ġieu":10456,"ÙīÙħ":10457,"ĠKing":10458,"ĠÑĤÐ¸ÑĢ":10459,"áĭ®":10460,"à´¯à´¤":10461,"ĠÐ°ÑĦ":10462,"àºĶàºĹ":10463,"ÙĪÙħØª":10464,"à®±à®¤":10465,"ĠÏĥÏĦÎ·Î½":10466,"ç¥ŀ":10467,"à¾Ńà¼ĭ":10468,"hur":10469,"kok":10470,"scz":10471,"ĠShe":10472,"Ġwird":10473,"ĠjÃ¨":10474,"ĠTel":10475,"ĠÐ±Ð°Ñģ":10476,"Ð°ÑĤÑĤ":10477,"ĠngÃ¬n":10478,"Ġkai":10479,"æĹı":10480,"ÑįÑħÑįÑĢ":10481,"ĠÐ±Ð°Ð¹Ð½Ð°":10482,"Ġáİ¢áİ¬":10483,"Ġhuet":10484,"ĠtÄģone":10485,"gt":10486,"rak":10487,"ÕŃ":10488,"Ġhog":10489,"Ġfj":10490,"Ð³ÑĥÑĥÐ»":10491,"Ġà¤ħà¤ķ":10492,"owo":10493,"annu":10494,"Ð°ÑħÑĬ":10495,"Ġà¤Ĺà¤¯":10496,"acha":10497,"Ġtangata":10498,"Ġsap":10499,"unya":10500,"ĠÚĩ":10501,"ĠCensus":10502,"Ġpros":10503,"Ġqual":10504,"à¬°à¬°":10505,"ĠÑĢÐµÐ´":10506,"ĠÑĪÐ°":10507,"Ãµn":10508,"ÓĢÑĥ":10509,"ÙĨØ¯Ùĩ":10510,"Ġá»Į":10511,"çµ±":10512,"ĠÛ²Û°":10513,"à¥Īà¤Ĥà¥¤":10514,"hel":10515,"kal":10516,"ÑĢÐ¾Ñģ":10517,"Ġsha":10518,"Ġaig":10519,"ÙĨÛĮÙĨ":10520,"uny":10521,"ĠMur":10522,"iay":10523,"oce":10524,"Ġà§ª":10525,"è¨Ń":10526,"84":10527,"Ù¿":10528,"ÙĬÙĪÙĨ":10529,"omh":10530,"Ð°Ð½Ð°Ð¹":10531,"eket":10532,"Ġzav":10533,"Ø´Ú©":10534,"ĠÐ¼Ð¾Ð´":10535,"ĠÒĵ":10536,"Ġ1946":10537,"ĠÏĢÏģ":10538,"Ð¸ÑĤÐµÑĢÐ°ÑĤÑĥÑĢ":10539,"86":10540,"Ġmana":10541,"Ð¼Ðµ":10542,"à¤¿à¤ĥ":10543,"ĠPart":10544,"ĠWorld":10545,"ibh":10546,"ãĤ«":10547,"Ġone":10548,"Ġ×Ĳ×ł":10549,"Ġindiv":10550,"å¯¹":10551,"Ġspeci":10552,"ĠLatin":10553,"bes":10554,"ville":10555,"à¤¿.":10556,"ĠÐºÑĥÐ»":10557,"Ð±Ð¾ÑĢ":10558,"à¤¸à¤¤":10559,"ĠØ´Ø§Ùĩ":10560,"à¾Łà½ºà¼į":10561,"Ġ1964":10562,"à»Ģàº¡":10563,"è©±":10564,"vr":10565,"Ã¿":10566,"ç¿":10567,"Ð°Ñĥ":10568,"eman":10569,"Ø§Ø«":10570,"ÓĻÐ½Ðµ":10571,"ĠÐ·Ð°Ñģ":10572,"Ġwaard":10573,"Ġcompl":10574,"ĠÚ¯ÛĮØ§":10575,"ograph":10576,"ìŀ¥":10577,"æ¿":10578,"Ġfal":10579,"Ġwel":10580,"Ġjanu":10581,"ÛķÙ¾":10582,"ĠCr":10583,"ĠÙĪØ§ÙĤØ¹":10584,"stu":10585,"ĠÞĸ":10586,"à¤¦à¤¨":10587,"ĠÑĥÐ½":10588,"ĠÑĥÐ¾Ð½Ð½Ð°":10589,"áĬĸ":10590,"lano":10591,"ÑĥÑĮÑĢ":10592,"Ġdiplom":10593,"ches":10594,"akÃ©":10595,"emer":10596,"Ð±Ð¸ÑĤ":10597,"áŀļáŀĺ":10598,"ĠÑĢÐµÐ³":10599,"Ò»Ð¸":10600,"Ġora":10601,"ĠáĪĿ":10602,"2005":10603,"áĥ®áĥķ":10604,"ç¹":10605,"Ġsq":10606,"Ġkhi":10607,"ÙĦØ³":10608,"Ġdifer":10609,"raf":10610,"ahl":10611,"à²°à²µ":10612,"Ð¶Ð°":10613,"avo":10614,"ouw":10615,"Ġ42":10616,"å®ĺ":10617,"Ø§Ø¦ÙĬÙĨ":10618,"ĠáĥĲáĥĽ":10619,"ĠØ¦ÛķÙħ":10620,"ĠìŀĪ":10621,".[":10622,"hor":10623,"¤ĳ":10624,"Ġsont":10625,"ÐºÓĢÑį":10626,"ĠØ¨Ú¾":10627,"Ġàªļ":10628,"ĠØ¯ÛķØ±":10629,"ĠÙĪØ§":10630,"ÛĲØ±":10631,"×ľ×Ĳ":10632,"ĠÃ¶t":10633,"è§£":10634,"Ġprogram":10635,"dt":10636,"§à³":10637,"Ä°":10638,"Ġgaz":10639,"ĠWh":10640,"ipa":10641,"à´¿.":10642,"ĠÐ¿ÑĢÐµÐ·":10643,"Ġáī¥":10644,"Ġ×ķ×Ķ":10645,"Ò¯Ò¯Ð½":10646,"àŃŁà¬°":10647,"à±ĩà°Ĥ":10648,"ĠìĿ¼":10649,"Ġsobre":10650,"alist":10651,"itÅ«":10652,"ÑħÐ¸":10653,"iai":10654,"ãĤ£":10655,"áŀļáŀĩ":10656,"ÑĥÑĢÑĥÐ´":10657,"ĠØ´Ø¯":10658,"ĠÃ¨n":10659,"à¤¼à¤¾":10660,"áĥĶáĥľáĥ¢":10661,"çľģ":10662,"04":10663,"fol":10664,"Õ©":10665,"Ġly":10666,"ĠhÃ¡":10667,"Ġzona":10668,"Ġchá¹³":10669,"ÙĥØ§ÙĨ":10670,"ĠÐ£ÐºÑĢÐ°":10671,"ç¨±":10672,"īáģ":10673,"inz":10674,"Ġreb":10675,"ĠNational":10676,"ĠJul":10677,"ìĿ¼":10678,"à¶»à¶º":10679,"isht":10680,"ĠÕ°Õ¡Õ´":10681,"dem":10682,"jÃ¡":10683,"mos":10684,"Òĳ":10685,"Ġáŀł":10686,"ĠSim":10687,"ÑħÑįÑĢ":10688,"ĠÐ±ÑĭÐ´":10689,"ĠFe":10690,"áĥĺáĥĸ":10691,"Ġetx":10692,"Ġàº«":10693,"ĠÒ¯Ð·":10694,"ĠÕ¸ÖĢ":10695,"tÃ³":10696,"åŀ":10697,"ares":10698,"ÑĥÑĥÑĢ":10699,"Ġ(Â«":10700,"ĠAlex":10701,"tie":10702,"ĠÐºÄķÑĢ":10703,"Ø§ÙĨØ§":10704,"ĠIb":10705,"ãģĿ":10706,"Ð¾ÑĢÐ¸Ñı":10707,"liche":10708,"ĠÑħÑįÐ»":10709,"ÚĨÛĮ":10710,"ĠfrÃ¡":10711,"SC":10712,"Ġsama":10713,"Ġnk":10714,"Ġlie":10715,"istic":10716,"abar":10717,"ibus":10718,"enga":10719,"ĠØ¦ÛĪ":10720,"Ġàº¡":10721,"Ġà¨ĩà¨¹":10722,"dad":10723,"ĠmÃ³":10724,"Ġgud":10725,"Ġedi":10726,"áıķ":10727,"Ġngok":10728,"Ġ1942":10729,"ĠØ·Ø±Ùģ":10730,"åĳ¢":10731,"entral":10732,"Ġà¦īà¦ª":10733,"Ð½ÐµÐ½":10734,"angu":10735,"Ä±y":10736,"ĠÙħØµØ±":10737,"Ð¸Ð½Ð´Ðµ":10738,"ugal":10739,"ĠÙĨØ´":10740,"Ð°Ð¼Ð±":10741,"ĠÙ¾Ûİ":10742,"ĠÒļ":10743,"å¾ŀ":10744,"æķħ":10745,"çķĢ":10746,"ĠáĥľáĥĲáĥĽ":10747,"kam":10748,"ëĲĺ":10749,"ÑĤÐ¾Ð¼":10750,"àº¢":10751,"ason":10752,"ĠrÃª":10753,"Ġwer":10754,"ĠÐºÐ¸Ð·":10755,"ĠÐ±Ð°Ð»":10756,"oper":10757,"ãĤ³":10758,"jav":10759,"åħ§":10760,"Ġà¸Ĺ":10761,"à»ĢàºĤ":10762,"moi":10763,"79":10764,"Ð¯":10765,"ĠlÃ¡":10766,"Ġbone":10767,"eln":10768,"à¬µ":10769,"Ġgara":10770,"ÐµÐ½Ð³":10771,"apu":10772,"Ã¶p":10773,"Ġì§Ģ":10774,"Ġtaona":10775,"Ã§e":10776,"ÏģÎ¯":10777,"Ġnei":10778,"Ġ×Ķ×ª":10779,"Ġàºŀ":10780,"Î¬Î½":10781,"ĠÓ¨":10782,"ĠÑĢÐµÐµÑģÑĤ":10783,"ĠWilliam":10784,"ËĲ":10785,"ÑĴ":10786,"æ»":10787,"éħ":10788,"Ġters":10789,"ÑģÐµÐ¼":10790,"Ġpub":10791,"à¥įâĢį":10792,"amatan":10793,"áİł":10794,"Ġanno":10795,"ible":10796,"Ġmeter":10797,"Ġkomo":10798,"ĠÐ£ÑĢ":10799,"lÄ±q":10800,"ĠIslam":10801,"ĠgÃ¢e":10802,"ÑĤÐ¾Ð¹":10803,"Ġpah":10804,"ĠÐ´Ð²":10805,"ĠÐ´ÓĻ":10806,"skich":10807,"Ġkei":10808,"ensch":10809,"Ġqar":10810,"02":10811,"bon":10812,"mal":10813,"uwe":10814,"esis":10815,"Ġbara":10816,"ĠSec":10817,"Ġiy":10818,"ĠMari":10819,"imit":10820,"ÐµÐ½ÐµÑĢ":10821,"Ġans":10822,"rian":10823,"Ġsoo":10824,"áĬķáĭµ":10825,"Ġ1947":10826,"Ġà²ħà²¨":10827,"àº§àº²àº¡":10828,"ÑģÑĤÐ¸ÑĤÑĥÑĤ":10829,"59":10830,"èĦ":10831,"inci":10832,"Ġsr":10833,"Ġsco":10834,"ÐµÒ£":10835,"atr":10836,"elet":10837,"Ġeff":10838,"ĠÑĤÐµÑħ":10839,"iong":10840,"à²°à²®":10841,"Ã¢s":10842,"ĠÐļÐ¾Ð¼Ð¸":10843,"Ġà¤¨à¤Ĺà¤°":10844,"áĥ£áĥ¡":10845,"ĠÎºÎ±ÏĦ":10846,"à¨Łà¨°":10847,"iÄį":10848,"arum":10849,"à½Ĥà½¤":10850,"Ġjir":10851,"×Ļ×Ļ":10852,"Ã¶k":10853,"antaro":10854,"Ð°ÑģÑĭÐ½Ð´Ð°":10855,"ÐµÐ»Ð°":10856,"ĠÙĩØºÙĩ":10857,"ĠÐĲÐ±":10858,"iniÅĪ":10859,"Ġà¤Ńà¤¯":10860,"ÙĪÙħÙĩ":10861,"Ġ1949":10862,"à¸Ħà¸§":10863,"éĽĨ":10864,"ãģĵãģ¨":10865,"ĠDistrito":10866,"hom":10867,"ÑĢÐ»":10868,"Ġsien":10869,"áŀĭ":10870,"ĠtÃª":10871,"ĠwÃ³t":10872,"Ġyak":10873,"Ġzip":10874,"aph":10875,"Äĥk":10876,"à»ĥàºĻàº":10877,"Ġconsider":10878,"çĪ²":10879,"Ġwaxaa":10880,"ĠØ¦ÛĩÙĬØºÛĩØ±":10881,"Ġcare":10882,"Ġcunt":10883,"Ġjuo":10884,"ĠPilipinas":10885,"ãģį":10886,"ĠÄī":10887,"ĠØ¹Ùħ":10888,"Ġrefer":10889,"Åık":10890,"pad":10891,"tra":10892,"Ġdua":10893,"Ġsaka":10894,"Ġclas":10895,"ĠMc":10896,"Ð°ÑĢÐ°Ð½":10897,"Ġjag":10898,"ĠÐºÐ°Ð´":10899,"ĠHy":10900,"à¤µà¤ª":10901,"endu":10902,"à¸£à¸ĩ":10903,"Ð½ÑĭÑı":10904,"ÐµÐ·ÑĮ":10905,"ĠÛĮÛģ":10906,"Ù¹ÛĮ":10907,"Ġtabata":10908,"Ny":10909,"mis":10910,"à¦ĺ":10911,"Ġhid":10912,"Ã©p":10913,"ĠCity":10914,"ĠDur":10915,"riz":10916,"ä¸¦":10917,"Ġstu":10918,"ÞĤÞĳ":10919,"Ð°ÑĪÐº":10920,"Ġxam":10921,"ĠÐĲÐ»ÐµÐºÑģ":10922,"CC":10923,"isia":10924,"eland":10925,"Ġvien":10926,"ĠÃĢ":10927,"tein":10928,"ĠÎŁ":10929,"Ġcomme":10930,"åĽŀ":10931,"ÎŃÏģ":10932,"ĠÓĻ":10933,"ĠtÃ©ng":10934,"Ġbun":10935,"àª¾,":10936,"áĥĶáĥ¥":10937,"à¾Łà½ºà¼ĭ":10938,"ä½ĵ":10939,"Ġ1938":10940,"æĶ¾":10941,"Ġáİ¾áİ¥áİ¢":10942,"ĠÕ©Õ¾Õ¡Õ¯Õ¡Õ¶":10943,"num":10944,"ĠÉ£":10945,"Ð´ÐµÐ¼":10946,"ÛķÚ¾":10947,"ĠÐ½Ð°Ð¼":10948,"Å¡Äĩ":10949,"ugg":10950,"Ù¾Ùĩ":10951,"åıĳ":10952,"Ġà¸¡":10953,"å¾©":10954,"à¦Ĺà¦¤":10955,"Ġà¹Ĥ":10956,"à¸«à¸¥":10957,"ĠÐĲÐ¼ÐµÑĢÐ¸Ðº":10958,"ĠKabup":10959,"ĠDavid":10960,"SS":10961,"arp":10962,"Ġtara":10963,"Ġky":10964,"Ð´Ð°Ð»":10965,"ures":10966,"emba":10967,"ĠBud":10968,"ĠÐ±Ð°Ð³":10969,"Ã¶Ð½":10970,"Ġà´Ń":10971,"ubu":10972,"Ã½a":10973,"à°Ĥ,":10974,"×ĺ×¨":10975,"ĠInse":10976,"ĠÑıÐ»":10977,"ĠAnim":10978,"Ġexp":10979,"áĥĽáĥĲ":10980,"é¦Ļ":10981,"js":10982,"nou":10983,"Û´":10984,"ĠÏĮ":10985,"Ġmic":10986,"Ġkn":10987,"Ġhist":10988,"áŁĬ":10989,"Ġjin":10990,"Ġdif":10991,"áĪŀ":10992,"ĠRh":10993,"ĠÐ´ÑĢ":10994,"haan":10995,"à¤ªà¤¦":10996,"ĠÙĨÙħ":10997,"Ġesas":10998,"Ã®s":10999,"Ġtaup":11000,"à¦ķà¦²":11001,"à¹Ģà¸ŀ":11002,"enns":11003,"ĠUnited":11004,"ĠÐ°ÑĢÑĤ":11005,"Ġ//":11006,"ĠGeorge":11007,"Ġprovincia":11008,"81":11009,"lÃ¡":11010,"lant":11011,"Ð½Ñį":11012,"Ġsot":11013,"Ġbon":11014,"chte":11015,"ĠChe":11016,"ingu":11017,"ĠRich":11018,"Ò¯Ðº":11019,"Ð¾Ð²Ð¾":11020,"ĠØ§ÙĦØ®":11021,"ĠØ±Ø§ÛĮ":11022,"ĠÐ¿ÑĢÐ¸":11023,"fel":11024,"ì£¼":11025,"Ġáŀħ":11026,"ĠÕ¡Õµ":11027,"Ġdid":11028,"Ġaba":11029,"Ġtch":11030,"Ġtij":11031,"Ġmani":11032,"Ġbog":11033,"ÙīÙĤ":11034,"ĠÙĪØ³":11035,"Ġreh":11036,"Ġxa":11037,"Ġà²Ĩà²°":11038,"Ġprofes":11039,"Ġtidak":11040,"%.":11041,"TC":11042,"Ġmba":11043,"Ġ1000":11044,"Ġvas":11045,"Ġgam":11046,"ĠNic":11047,"ĠVan":11048,"iyat":11049,"Ġnew":11050,"Ġqil":11051,"à¸Ńà¸£":11052,"ĠAll":11053,"à°ķà°°":11054,"Ġsenesi":11055,"Ġinflu":11056,"wá»įn":11057,"Ñľ":11058,"Ġdina":11059,"Ġvend":11060,"à½¦à½Ħà½¦":11061,"ĠiÅ¡":11062,"ÃŃc":11063,"ĠÐ¿Ð¾ÑĢ":11064,"à½ĺà½¢":11065,"Ã«ch":11066,"à¸²à¸Ħ":11067,"à®ķà®ª":11068,"ĠÚ¯ÙĪ":11069,"Ġà¤Ľà¤Ĺ":11070,"Ġ1954":11071,"Ġ1957":11072,"ology":11073,"icial":11074,"ĠÐ°Ð´Ð°Ð¼":11075,"Ġáİ¢áı":11076,"à¸Īà¸²à¸ģ":11077,"Ġsarong":11078,"eneral":11079,"áĢ±áĢ«áĢº":11080,"cin":11081,"lor":11082,"à¥ħ":11083,"iser":11084,"Ġbaley":11085,"raw":11086,"áĥĲáĥĳ":11087,"Ò¯Ð´":11088,"Ġlei":11089,"ĠØ¦Ø§Ø³":11090,"ÅĤy":11091,"Ä«Å¡u":11092,"àº²àºĬ":11093,"oota":11094,"ĠÑĦÐ¸Ð»":11095,"Ġgrad":11096,"ĠÃ¡Ã¡dÃ³Ã³":11097,"×ĵ×¨":11098,"éģĭ":11099,"Ġkaro":11100,"áıħáİ¯":11101,"ĠÏĥÎµ":11102,"Ð²ÐµÑĢÑģÐ¸ÑĤÐµÑĤ":11103,"Ġtaupori":11104,"Se":11105,"Th":11106,"des":11107,"tat":11108,"yb":11109,"Õ¹":11110,"Ð»Ð¸Ðº":11111,"Ġkuri":11112,"Ġbasa":11113,"ĠArab":11114,"stell":11115,"ĠÐ²ÑĢÐµÐ¼":11116,"Ġkeu":11117,"Ó§Ð¹":11118,"Ġkommun":11119,"Ø±Ø¯Ùĩ":11120,"Ġ1943":11121,"ronom":11122,"ĠÃ¥r":11123,"qi":11124,"íĻ":11125,"Ġtari":11126,"ĠnÃ³":11127,"Ġnje":11128,"ĠnÃ®":11129,"ĠAh":11130,"ĠAus":11131,"ĠÐºÐ°":11132,"ĠCamp":11133,"ĠGar":11134,"Ġngu":11135,"Ġà¤Ĩà¤ª":11136,"ĠØ¹Ø¨Ø¯":11137,"àª¯àª¤":11138,"ĠfamÃ¼l":11139,"Ġáĭ¨áī°":11140,"Ġulan":11141,"åĵģ":11142,"Î¯Î½Î±Î¹":11143,"Ġ*":11144,"Ġà½¡":11145,"ĠmÃ¨":11146,"Ġlui":11147,"ÙĬØ§Øª":11148,"ÑĪÐº":11149,"ĠÚ©ÙĨ":11150,"à»Ŀ":11151,"Ð¾Ð»Ð´":11152,"ĠØ³Ø§Ú©":11153,"ä¸ľ":11154,"Õ¡Õ²":11155,"ĠYa":11156,"Ġestado":11157,"à¸§à¸¢":11158,"ĠLondon":11159,"ĠpÃ¶sods":11160,"Ġà´Ĵà´°":11161,"Ġdad":11162,"Ġtime":11163,"Ġpend":11164,"alÄ±q":11165,"Ġvald":11166,"Ġgem":11167,"Ġsein":11168,"iyang":11169,"Ġpoz":11170,"åįĥ":11171,"ĠÐĵÐµÑĢÐ¼Ð°Ð½":11172,"Ġ×ŀ×Ļ×ĺ":11173,"Ġindustri":11174,"Ġluyag":11175,"ĠÃ¤binÃ¤d":11176,"ĠrÄģnei":11177,"weng":11178,"Û¶":11179,"ë¯":11180,"unum":11181,"olit":11182,"rok":11183,"Ð¶Ó¹":11184,"Ø§ÙĦØ§Ø±":11185,"áŀļáŀĸ":11186,"Ġhai":11187,"áĢ»áĢ±áĢ¬":11188,"áĢ»áĢ¾":11189,"ĠgeÃ§":11190,"ĠÅ¡to":11191,"ÃŁe":11192,"ĠÐŃÐ»":11193,"ĠBerlin":11194,"emesed":11195,"Ġfrugeti":11196,"ĠÃ¾Ç£m":11197,"ĠlÃ¢u":11198,"usan":11199,"ague":11200,"ĠKl":11201,"Ġà¤®à¤£":11202,"Ð°Ð²Ð°Ð¹":11203,"ĠÙĥÛĨ":11204,"àºµà»ī":11205,"ìĹĪëĭ¤":11206,"ĠØ§ÙĨÚ¯":11207,"Ġposs":11208,"ĠÐ³Ð¾Ð´Ñĥ":11209,"áıģáıĹ":11210,"ĠÚ¤Ø¦":11211,"Ð³Ð¸Ð¹Ð½":11212,"Ġstudi":11213,"ĠÐĿÐ¸Ðº":11214,"Ġ1958":11215,"Ġcapit":11216,"ìĽĲ":11217,"vv":11218,"åĹ":11219,"éľ":11220,"arna":11221,"Ġcil":11222,"Ð³ÓĻÐ½":11223,"ulis":11224,"ĠPak":11225,"Ġnaam":11226,"Ġenn":11227,"Ġà´¦":11228,"Ã²i":11229,"à¦¤à¦°":11230,"Ó§Ñģ":11231,"áģĭ":11232,"Ġáİ¤áİŃ":11233,"iciÃ³n":11234,"guÃ³k":11235,"à¾©à½¼":11236,"Ġcapital":11237,"àºŀàº°":11238,"Ba":11239,"rus":11240,"éĮ":11241,"Ð½ÐµÐ¼":11242,"Ġsana":11243,"arra":11244,"Ġktor":11245,"Ġbus":11246,"ÛĮÛķ":11247,"itos":11248,"Ġfost":11249,"ĠrÃ¨":11250,"ĠSto":11251,"ages":11252,"ĠØ¯ÙĪÙĨ":11253,"ĠRev":11254,"Ġtaua":11255,"ĠØ´Ø¯Ùĩ":11256,"Ġactu":11257,"%à¥¤":11258,"aÊ¼":11259,"sd":11260,"Ġgamp":11261,"ØªÙĪÙĨ":11262,"ental":11263,"Ð±Ð¸":11264,"Ò¯Ñģ":11265,"ĠÐ¼Ð°ÑĪ":11266,"Ġà¶Ķ":11267,"Ġà´Ī":11268,"ÑĭÑĪÑĤ":11269,"éĸĢ":11270,"å½¢":11271,"ç¨®":11272,"Ð»Ð°Ð½Ñĭ":11273,"Ġkann":11274,"Ġbanda":11275,"aster":11276,"à¦¾à¥¤":11277,"ĠCam":11278,"ĠÑģÓ©":11279,"Ġà¶·":11280,"ĠÙĦÛĮ":11281,"à®Łà®¤":11282,"Ġ×ŀ×Ĳ":11283,"Ġ1959":11284,"Õ«Õ¯":11285,"à½ĺà½Ĳà½ł":11286,"ç¨ĭ":11287,"è«¸":11288,"tÃ©":11289,"aleg":11290,"ĠbÃŃ":11291,"ĠÑģÐ¸ÑĢ":11292,"ĠFil":11293,"ĠÐ¼Ð°Ð½":11294,"ĠØ³Ù¾":11295,"ĠÑħÒ¯ÑĢ":11296,"ezh":11297,"Ð°ÑħÐ°":11298,"ÐµÐ²Ð¸Ñĩ":11299,"Ġíĺ":11300,"Ġebile":11301,"ĠÏĥÏĦÎ¿":11302,"ĠInsecta":11303,"âĹĦ":11304,"à¥¯":11305,"Ġtat":11306,"Ġmama":11307,"usen":11308,"reis":11309,"ayi":11310,"à¤®à¤§":11311,"ĠÐ½Ð°Ð²":11312,"Ġà¤Ĩà¤£":11313,"wee":11314,"ÛİÚ©ÛĮ":11315,"Ġâĸº":11316,"Ð½Ð¾ÑģÑĤÐ¸":11317,"ÑįÐ¶Ñį":11318,"Ġáİ¬áıĻáıĹ":11319,"cep":11320,"vil":11321,"Þķ":11322,"Ġvie":11323,"Ġàª¡":11324,"Ø¨Ûķ":11325,"oten":11326,"ĠRec":11327,"ĠÐ¼Ð¾ÑĢ":11328,"skom":11329,"toy":11330,"Ġë¶Ģ":11331,"áŀĦáŀĳ":11332,"áŀ¢áŀĦ":11333,"05":11334,"Ġlor":11335,"Ð²Ð¾Ð´":11336,"ÙīÚŃ":11337,"ayÃª":11338,"ĠNeg":11339,"cias":11340,"Ø§Ø¤":11341,"ĠOkt":11342,"chea":11343,"Ø§Ø¯ÙĬ":11344,"Äķng":11345,"Î¿ÏħÏĤ":11346,"like":11347,"Ġpags":11348,"ĠÑĪÐºÐ¾Ð»":11349,"èº«":11350,"].":11351,"Û·":11352,"ÞĴ":11353,"éĦ":11354,"orte":11355,"Ø§ÙĨÚ¯":11356,"oval":11357,"saa":11358,"hii":11359,"Ù¾Ø±":11360,"ÑĥÐ½Ñĥ":11361,"ĠÑĩÐ°Ñģ":11362,"ĠsiÄĻ":11363,"ards":11364,"àª¯àª¨":11365,"Ġmodern":11366,"rÃ¥":11367,"Ġdata":11368,"Ġtru":11369,"untu":11370,"entuk":11371,"upokan":11372,"Ġìĥ":11373,"ungu":11374,"ä»¤":11375,"áĢ¼áĢŃáĢ¯áĢ·":11376,"ĠAnton":11377,"Ġà¸Ī":11378,"ĠQÄ±rÄ±m":11379,"Ġ×¤×¨":11380,"à©ģà©°":11381,"ĠSoci":11382,"bet":11383,"Ġsolo":11384,"Ġkamp":11385,"Ġhum":11386,"Ġyew":11387,"ĠCu":11388,"jaan":11389,"Ġ×Ķ×©":11390,"Ġmarupokan":11391,"unty":11392,"ä¿Ŀ":11393,"ĠCharles":11394,"cat":11395,"Ð½Ð¾Ñģ":11396,"Ġfeder":11397,"Ġrol":11398,"ĠÐºÐ¾":11399,"ĠÐºÑĭÐ²":11400,"opi":11401,"åħ©":11402,"Ġqo":11403,"áĥ£áĥĵ":11404,"ÛĮØ±ÛĮ":11405,"ĠÒ¯Ð¹Ð»":11406,"Ġà¦ıà¦°":11407,"Ġkontr":11408,"èĩº":11409,"Ã¼mÃ¼":11410,"ÙĢÙĢ":11411,"Es":11412,"iÑģ":11413,"nal":11414,"ĠtÃ³":11415,"Ġpale":11416,"Ġkerd":11417,"ĠlÄģ":11418,"orta":11419,"Ġgada":11420,"omes":11421,"ĠBern":11422,"ĠLud":11423,"ĠÐ¿Ð¾Ð¿":11424,"ĠÕĦ":11425,"áĬĳ":11426,"ĠáĥĽáĥĿáĥ":11427,"ologie":11428,"à¸ªà¸¡":11429,"Ġmilli":11430,"ĠÑĤÑĥÑĢÐ°ÑĢ":11431,"itel":11432,"amenti":11433,"Ġeus":11434,"ĠRam":11435,"ĠÐ¼ÐµÑĤÑĢ":11436,"×ķ×Ĵ":11437,"Ġ39":11438,"Ã¹i":11439,"embra":11440,"Ġáıļ":11441,"Ġà¦ĩà¦īà¦¨":11442,"otswana":11443,"Ġordo":11444,"Õ¡Õ½Õ¿":11445,"ĠWalay":11446,"ĠJawa":11447,"ĠJoseph":11448,"yj":11449,"Ġà½Ĩ":11450,"Ġíķľ":11451,"Ġkuk":11452,"Ġvic":11453,"ĠBat":11454,"à½ĸà½ĳà½Ĥ":11455,"Ð°Ð»Ð¾":11456,"Ġà´¶":11457,"Ġì¡":11458,"ĠÑĩÑĭÐ»":11459,"ihan":11460,"ĠÓ©Ó©ÑĢ":11461,"ĠiÃ§in":11462,"Lo":11463,"×£":11464,"Ġprav":11465,"Ġmasa":11466,"alek":11467,"isha":11468,"ÙĦØ¹":11469,"ÐºÓĻ":11470,"Ġvoj":11471,"ĠgÃ¼":11472,"à¤°à¤ª":11473,"ingga":11474,"Ø¨Ø§":11475,"Ġuta":11476,"Ġáº":11477,"ØºÛĩ":11478,"essatti":11479,"å°ĳ":11480,"Ġidiay":11481,"Ð¸ÑĺÐµ":11482,"ç¾©":11483,"ĠáĬ¥áĬķáĭ°":11484,"Da":11485,"bh":11486,"ĠsÃ«":11487,"ĠaÅ¾":11488,"Ġnez":11489,"ÐºÑĮ":11490,"ĠSum":11491,"ibil":11492,"ãĥī":11493,"Ã´d":11494,"Ġtaea":11495,"ĠÐĺÐ²Ð°Ð½":11496,"2004":11497,"è¿ĳ":11498,"ĠItalia":11499,"à¾Ĺà½¼":11500,"ĠÎ³Î¹Î±":11501,"vod":11502,"çĩ":11503,"ĠdÃ´":11504,"Ġkans":11505,"ĠKun":11506,"Ð°Ð´Ð¸Ð½":11507,"ãĥķ":11508,"Ø³ØªÛĮ":11509,"ĠÐľÐ¾ÑģÐº":11510,"Î·Î¼":11511,"Ġà¨²à¨Ī":11512,"æĮģ":11513,"rar":11514,"Ġmme":11515,"Ġmuri":11516,"ĠAra":11517,"Ġyok":11518,"ĠÐºÐ°Ñģ":11519,"ĠØ¨ÛĮÙĨ":11520,"Ã¨int":11521,"Ġari":11522,"Ġelec":11523,"Ġeller":11524,"ĠState":11525,"dur":11526,"oe":11527,"rid":11528,"Ġsn":11529,"Ġsett":11530,"à¾ķ":11531,"Ġgeh":11532,"usse":11533,"ĠMuh":11534,"Ġzur":11535,"ĠÐ½Ð¸Ð¼":11536,"ĠØªÙĨ":11537,"ĠÕĢ":11538,"Ð°Ð´ÐµÐ¼":11539,"ÛĩÙħ":11540,"ĠChina":11541,"ÐµÐ³ÑĮ":11542,"ologia":11543,"Ġtotoo":11544,"Ġ×¨×ĳ":11545,"bel":11546,"rum":11547,"¢à¼":11548,"Ġsamp":11549,"Ġmuk":11550,"ĠbÃ¡":11551,"Ġgev":11552,"ĠfÃ¸":11553,"áı¥":11554,"ĠColl":11555,"ĠÚ©ÛĨ":11556,"ĠFeder":11557,"ÙĤØ©":11558,"antal":11559,"ĠWhenua":11560,"ĠÕ·":11561,"Ġisa":11562,"Ġà·ģ":11563,"ĠÐ¹Ã¦":11564,"ĠáĥĴáĥĲáĥĽ":11565,"à´Ļàµ¾":11566,"ĠEnglish":11567,"ÑĢÐ¸ÑģÑĤ":11568,"Ġbras":11569,"Ġrod":11570,"ĠÚĪ":11571,"ĠCap":11572,"ĠÐ¿Ñģ":11573,"ĠÐ¸ÑĢ":11574,"Ġonder":11575,"à´°à´®":11576,"ĠÒ·":11577,"Ø§ÙĪÛķ":11578,"Ġbilang":11579,"ĠØ¦ÙīØ´":11580,"ĠkÄģore":11581,"ÓĻÐ»ÓĻÑĢ":11582,"Afr":11583,"Ġkak":11584,"astr":11585,"ĠÐºÑĥÐ»ÑĮÑĤÑĥÑĢ":11586,"Ġzien":11587,"ĠIz":11588,"à½£à½Ĥ":11589,"áŀĦáŀĵ":11590,"×ĺ×Ĳ":11591,"ĠáĢ¡áĢĻ":11592,"Ġupp":11593,"ìĭł":11594,"è«ĸ":11595,"BA":11596,"ms":11597,"ÑĢÑĥ":11598,"à²«":11599,"Ġbud":11600,"Ġif":11601,"àµĥ":11602,"Ġàª§":11603,"Ġzb":11604,"ĠØ¯ÙĪÙĦ":11605,"Ġany":11606,"ĠÕŃ":11607,"å§Ķ":11608,"Ġmgbe":11609,"jos":11610,"à«Ī":11611,"riÃ°":11612,"stant":11613,"ersk":11614,"skap":11615,"ipo":11616,"avi":11617,"ĠÐ·Ð°ÑĢ":11618,"Ġkoja":11619,"ĠÐ»ÐµÐ¼":11620,"áĮī":11621,"ĠFrans":11622,"ÑįÐ´ÑįÐ³":11623,"Ġlangu":11624,"æ¼¢":11625,"áıįáıĽáİ©":11626,"Ġnohoia":11627,"locality":11628,"BC":11629,"anka":11630,"Ġtinan":11631,"ÑįÑģÑĮ":11632,"Ġwon":11633,"à¤¹à¤£":11634,"áĭİáī½":11635,"ãĥŃ":11636,"rane":11637,"Ù¾Ø§Ø±Ùĩ":11638,"ijos":11639,"ikai":11640,"à¹Ģà¸ª":11641,"uvv":11642,"åĬŁ":11643,"Ġbilan":11644,"ĠToitÅ«":11645,"Ð»ÑĬÑĥÐ»":11646,"PA":11647,"Úħ":11648,"Ġnz":11649,"adde":11650,"agen":11651,"ÑĸÑĨ":11652,"à¤¹à¤¨":11653,"áģĢ":11654,"Ġwoon":11655,"Ġ×Ĵ×¨":11656,"Ġà¬ıà¬ķ":11657,"cs":11658,"wÃ©":11659,"wie":11660,"Ð½Ð°Ðº":11661,"Ġpent":11662,"ÙĦÛķØª":11663,"ĠSlov":11664,"Ġie":11665,"áĥĲáĥ£áĥ":11666,"uge":11667,"×ł×Ķ":11668,"àª®àª®":11669,"aji":11670,"ÐµÑģÐ¿ÑĥÐ±Ð»Ð¸ÐºÐ°":11671,"tas":11672,"Ġkri":11673,"chs":11674,"etz":11675,"ilen":11676,"Ġgin":11677,"à¤®à¤£":11678,"ĠFre":11679,"Ø®Ø±":11680,"å¹¶":11681,"à·Ģà¶½":11682,"ÐµÐ³ÐµÐ½":11683,"à¤°à¤¤à¤¯":11684,"ÐµÑĨÑĨÐ°":11685,"Æ°á»Ľ":11686,"ĠÚ¤ÙĪÙĦØ§Øª":11687,"ç¢":11688,"Ġain":11689,"Ġhie":11690,"Ġhaz":11691,"Ġjam":11692,"ĠÑģÐ°ÑĢ":11693,"ĠÐ³Ð°Ð»":11694,"ĠÐ¶ÐµÑĢ":11695,"Ġà¦Ĩà¦Ľ":11696,"ä¿¡":11697,"áĥĲáĥłáĥĺ":11698,"à¶«à¶º":11699,"æıĲ":11700,"Íĺ":11701,"Ġong":11702,"Ġmaga":11703,"itta":11704,"itra":11705,"Ġcast":11706,"ĠØ§Ø±":11707,"ĠMich":11708,"ãģĬ":11709,"ĠÐ¼Ð¸Ð½":11710,"×¢×¡":11711,"à²²à²µ":11712,"Ġà¤ħà¤µà¤¸":11713,"ÙĥÛķÙĨ":11714,"undan":11715,"ĠpoÄį":11716,"Î»Î¿":11717,"Ġáİłáı°áİµ":11718,"æĮĩ":11719,")à¥¤":11720,"Ġbosh":11721,"à¬ŀ":11722,"Ð·Ñį":11723,"ĠÐ¿Ð¾Ð¼":11724,"ĠÑĤÐ¾Ð»":11725,"ciu":11726,"ĠJames":11727,"Ġ43":11728,"ĠÐ½Ð°Ñĺ":11729,"Õ¸ÖĤÕµ":11730,"à¸§à¸Ļ":11731,"ÙĨÙĩØ§":11732,"Ġà¬®à¬§":11733,"Õ²":11734,"ĠnÃª":11735,"ÐºÓĢ":11736,"Ã©va":11737,"ager":11738,"ĠÐºÐ¸Ð½":11739,"ĠÐ³I":11740,"Ãµl":11741,"Ã»i":11742,"ĠáĪ°":11743,"Ð°ÑĢÑĭÐ½ÑĭÒ£":11744,"aliforn":11745,"mÃ¤":11746,"ĠÏħ":11747,"Ġpis":11748,"Ġmek":11749,"Ġniv":11750,"Ġkata":11751,"ĠÃİ":11752,"Ġ1919":11753,"ĠÙĤØ¨":11754,"ĠÐ»Ð¸ÑĤÐµÑĢÐ°ÑĤÑĥÑĢ":11755,"Ġ75":11756,"Ġ120":11757,"Ġà¶ħà¶Ńà¶»":11758,"à»ĥàºĻ":11759,"ax":11760,"nÄ±Ã±":11761,"umba":11762,"ĠPic":11763,"ÑħÑĥ":11764,"ĠLab":11765,"ĠÐ½Ð°Ð´":11766,"ĠÎ®":11767,"Ġconstru":11768,"Ġqal":11769,"Ġà¤Ńà¤ıà¤ķ":11770,"ÑĭÑĢÐ°":11771,"anyÅĪ":11772,"éģĶ":11773,"Ġà¤¸à¤®à¤¯":11774,"ĠÐ¤ÐµÐ´ÐµÑĢ":11775,"Ø§ØµÙĦ":11776,"é¾":11777,"anj":11778,"anja":11779,"ĠaÅĤ":11780,"àªĪ":11781,"Ġà²¡":11782,"ĠMit":11783,"ĠØªÚ©":11784,"Ġ55":11785,"à¸Ńà¸¡":11786,"ĠÚĨÙĩ":11787,"Ø·Ø±":11788,"èĢģ":11789,"Ġà¤ĸà¤¨":11790,"Ġà²¨à²¡":11791,"2012":11792,"ĠÄ«r":11793,"ustria":11794,"mus":11795,"anÃª":11796,"Ð½Äĥ":11797,"elde":11798,"Ġwill":11799,"iap":11800,"Ġ1900":11801,"ody":11802,"Ġuch":11803,"ĠÐ¼Ð¾Ð»":11804,"ĠÕį":11805,"Ġà¤¤à¤¤":11806,"achd":11807,"ÏĮÏĤ":11808,"ĠÃ½er":11809,"ÑļÐ°":11810,"å³¶":11811,"¶Ī":11812,"into":11813,"ĠmÃª":11814,"Ġhono":11815,"Ġrag":11816,"ĠLin":11817,"ektor":11818,"ĠÑĤÐ¸":11819,"ãĤ¸":11820,"Ø¦Ùĩ":11821,"Î¹Ïĥ":11822,"Ó§Ð¼Ð°":11823,"Ġadda":11824,"Ã»t":11825,"ffe":11826,"Ġmetros":11827,"Ġà²¸à²®":11828,"Ġàª®àª¹":11829,"anza":11830,"Ġpie":11831,"Ġkultur":11832,"à½¢à½ĸà½¦":11833,"ĠÙħÛĮÙĨ":11834,"ĠÐ¿Ð°Ð¹":11835,"Ã¦Ñģ":11836,"à¤ªà¤ķ":11837,"maq":11838,"Ġ×Ķ×Ĺ":11839,"ĠYea":11840,"ĠÐ¶ÑĥÑĢ":11841,"ÐµÑģÐ°":11842,"ÄŁa":11843,"Ġáı¥áıĦáıįáıĽáİ©":11844,"èı¯":11845,"GC":11846,"Ġï":11847,"Ġkong":11848,"Ð°Ð½Ð½Ñı":11849,"agt":11850,"Ġyap":11851,"à¤¤à¤¯":11852,"ĠBla":11853,"ĠDom":11854,"Ġà¤Ĩà¤«":11855,"orts":11856,"Ġmenen":11857,"ĠPark":11858,"Ġbolup":11859,"å¯¦":11860,"Ġheman":11861,"çģ£":11862,"eer":11863,"é§":11864,"ires":11865,"Ġyou":11866,"Ð°ÑĢÑħ":11867,"ĠNorth":11868,"Ġkaw":11869,"áºĵ":11870,"ÏĥÎµÎ¹":11871,"áĢ°áĢ¸":11872,"iswa":11873,"ÐºÐµÐ½":11874,"Ġhier":11875,"áİ®":11876,"Ġihe":11877,"ÑģÐºÑĥ":11878,"Ġ46":11879,"Ġqur":11880,"arth":11881,"anyak":11882,"Ø§Ø¨ÙĦ":11883,"ÄħÊ¼":11884,"Ġáİ¤áİ¾":11885,"à»Ģàºŀ":11886,"Ġ1952":11887,"áİ¯áı³":11888,"ĠSouth":11889,"Ġà®ĩà®¨":11890,"Ð´Ð¼ÑĥÑĢÑĤ":11891,"ysk":11892,"Ġple":11893,"ĠBand":11894,"ĠÐ½ÐµÐ¼":11895,"ĠÐ¼ÑĥÐ½":11896,"jec":11897,"ĠÏĦÎ±":11898,"scht":11899,"Ġngaahi":11900,"ituz":11901,"Ġ1953":11902,"ÎŃÎ½":11903,"àµ¼à´¤":11904,"è¨Ī":11905,"ìĦ±":11906,"ĠÕ´Õ¥Õ":11907,"wl":11908,"áŀĪ":11909,"ĠnÅ«":11910,"ĠBah":11911,"ãģĳ":11912,"Ð±Ð°Ð¹":11913,"ĠÐ´ÑįÑįÑĢ":11914,"Ġprem":11915,"áĥ£áĥĽ":11916,"Ġà¦ħà¦¤":11917,"å±ķ":11918,"ĠØ¦ÛķÙĪ":11919,"à½ĳà½ĺà½Ĥ":11920,"à¬¼à¬¿":11921,"à¼½":11922,"Ð½Ð°Ð³Ð°":11923,"à¨ı":11924,"ÛķØ³":11925,"ĠÐºÑĭ":11926,"Ð°Ð»Ðµ":11927,"Ġzam":11928,"Ãºbl":11929,"à´ķà´¯":11930,"ĠmeÃ°":11931,"onder":11932,"ĠáĪĭ":11933,"ĠÊ»Oku":11934,"Ġ×ľ×ŀ":11935,"áĥĶáĥłáĥĺ":11936,"ìłķ":11937,"ĠÑĢÐ¾ÐºÑĥ":11938,"ĠnyaÃ©ta":11939,"Ġnafsooba":11940,"ĠÛ²Û°Û°Û":11941,"2000":11942,"ĠÅį":11943,"ĠdÃ³":11944,"atak":11945,"olas":11946,"Ð²Ð¾":11947,"Ã¡ch":11948,"Ã¡la":11949,"ĠLas":11950,"à¤®à¤¤":11951,"ĠÐ¾Ò¥":11952,"ÛĩØ±Ùī":11953,"äºŀ":11954,"ieri":11955,"Ġ1955":11956,"Ġ1937":11957,"ÉĻrÉĻ":11958,"å¼Ģ":11959,"Õ¡ÖĢÕ¤":11960,"ĠÐŀÐ±ÑĮ":11961,"à¦°à¦¸à¦Ń":11962,"ĠdÃ«":11963,"eral":11964,"Ġpom":11965,"Ġlak":11966,"tii":11967,"rau":11968,"Ð·Ñĭ":11969,"ries":11970,"Ġstor":11971,"ÙĥØª":11972,"áĥĶáĥĳáĥ£áĥļáĥĺ":11973,"ĠÑİÑħ":11974,"Ġà¹ĥ":11975,"ç¾ħ":11976,"Ġáİ¾áıįáİ©áİ¾áİ¢":11977,"Ġcirc":11978,"aq":11979,"bro":11980,"Ġkala":11981,"à¥į,":11982,"Ġvill":11983,"à¤¨à¤¸":11984,"ĠBang":11985,"áĪ±":11986,"oden":11987,"àµįâĢĮ":11988,"ĠÎĴ":11989,"jej":11990,"ÑĥÑĢÐ°":11991,"Ãµs":11992,"å±ħ":11993,"ĠÎµÎ¯Î½Î±Î¹":11994,"áĥ¯":11995,"Ġbec":11996,"ÐºÐ¾Ð¼":11997,"àŃ±":11998,"ÑĩÑĭÐ»":11999,"ĠØ³ÙĪØ±":12000,"à±įâĢĮ":12001,"ÑģÐºÐ¾":12002,"ords":12003,"Ð³ÑĬÐ°Ð½Ð´Ñĭ":12004,"ĠìŀĲ":12005,"rict":12006,"áĥłáĥĹ":12007,"Ġrit":12008,"Ã©i":12009,"Ġjar":12010,"ãĥŀ":12011,"rann":12012,"Ð¸Ð»ÐµÑĢ":12013,"schaft":12014,"Ò³Ð¾":12015,"muÅŁ":12016,"Ġ1929":12017,"ftir":12018,"Ġhabitantaro":12019,"ç½®":12020,"Ġlifayels":12021,"pre":12022,"anse":12023,"Ġsah":12024,"Ġmind":12025,"ĠÚĢ":12026,"ĠMun":12027,"tico":12028,"à½Ĥà½ĵ":12029,"tac":12030,"liz":12031,"ĠÐ¸ÑĪ":12032,"ĠÙĦÙĬ":12033,"ÐµÐºÐ°":12034,"áĢ½áĢ²":12035,"aghyn":12036,"ĠFrancis":12037,"Ġyear":12038,"ç©º":12039,"fon":12040,"åĻ":12041,"Ð½Ð°ÑĤ":12042,"ĠmÃ¥":12043,"Ġcoll":12044,"Ġcultur":12045,"áİ¥":12046,"Ġii":12047,"ĠØ§Øµ":12048,"tain":12049,"ĠHal":12050,"ĠÚ©Ø§ÙĦ":12051,"ibo":12052,"ebi":12053,"ÛĨÛĮ":12054,"Ã¡nÃŃ":12055,"à¸§à¸ĩ":12056,"Ð³ÑĬÐ°Ð½":12057,"íķĺìĺĢ":12058,"àªľàª°":12059,"ĽĦ":12060,"Ð¼Ð°Ð´":12061,"à¶·":12062,"imba":12063,"ĠÑģÑĮ":12064,"Ġ1917":12065,"eken":12066,"iyet":12067,"Ãºr":12068,"Ġorbit":12069,"ureu":12070,"Ġàªªàª¶":12071,"ĠÛ±Û³Û":12072,"ĠáĬĲáīł":12073,"áºŃp":12074,"del":12075,"Ġniya":12076,"Ġlle":12077,"à§İ":12078,"Ġika":12079,"Ġjum":12080,"ĠBet":12081,"apon":12082,"ĠÐ·Ð°Ñħ":12083,"à¦²à¦ķ":12084,"Ð¸ÑĢÐ¾Ð²":12085,"áŀĦáŀŁ":12086,"Ò£Ð³":12087,"åĲĽ":12088,"à¶¸à¶§":12089,"à®©à®°":12090,"ropoda":12091,"ĠÐ°Ð´Ð¼":12092,"Äĳu":12093,"ÅŁtir":12094,"Ġà§¨à§¦à§¦":12095,"ĠÕ«ÖĢ":12096,"ual":12097,"ĠdÃª":12098,"erie":12099,"Ġblo":12100,"ask":12101,"itud":12102,"ols":12103,"ĠMes":12104,"ĠBotswana":12105,"ÙĤØ·":12106,"eteÄ©":12107,"Ġ1936":12108,"àº·à»ī":12109,"ĠOrom":12110,"Ġorganis":12111,"lang":12112,"Ġaga":12113,"Ġwest":12114,"Ä±lar":12115,"ĠTom":12116,"à¥ĭ.":12117,"ĠÑĥÐ²":12118,"ĠÑĥÐ·":12119,"Ġneu":12120,"Ġë¬":12121,"åıĸ":12122,"Ġàªķàª°àªµ":12123,"ĠdÄ±":12124,"ĠsÃ¼":12125,"Ġtun":12126,"chter":12127,"oren":12128,"orde":12129,"ĠÙħØ±Ø¯":12130,"Ú©ÛĲ":12131,"obe":12132,"ĠÄŃ":12133,"åį³":12134,"ÅĨu":12135,"Ð»Ð°ÑĤÐ¸Ð½":12136,"áİ¦áıĺ":12137,"Ġsala":12138,"Ġeasti":12139,"Ġfem":12140,"Ġjak":12141,"ĠÐ´Ð¾Ð»":12142,"Õ¡Õ¤":12143,"ĠØªØ§Ø±":12144,"ĠJanu":12145,"ĠÄ§":12146,"ebu":12147,"à¸²à¸Ĺ":12148,"Ð¸ÑıÐ±":12149,"Ġtoer":12150,"Ġthoma":12151,"ä¸Ńåľĭ":12152,"ï¼īãĢĤ":12153,"Ġintern":12154,"Ġsegu":12155,"ï¯©ï»":12156,"06":12157,"Ġlip":12158,"áı¨":12159,"idz":12160,"ÃŃv":12161,"Ø´Ø§Ø±":12162,"ĠÐ¼Ð¾Ð½":12163,"araq":12164,"×¢×Ĵ":12165,"engi":12166,"Ġì°":12167,"ÅĤe":12168,"ĠØ±ÛĮ":12169,"Ġà¤Ńà¤µà¤¤":12170,"Ġà¤Ĺà¤¢":12171,"Ġestis":12172,"ÑįÐ´Ñį":12173,"Ð°Ð»ÑĭÒĽ":12174,"åĶĶ":12175,"ÛĮÙĨÚ¯ÛĮÙĦÛĮØ³":12176,"ain":12177,"eros":12178,"ĠvÃ¦":12179,"Ð³Ò¯Ð¹":12180,"edy":12181,"ĠPen":12182,"à½Ħà½ĵ":12183,"ĠNav":12184,"ÑģÑĤÑĭ":12185,"ĠOm":12186,"ĠìĪĺ":12187,"ĠÑĩI":12188,"ĠÑĩÐµÑĢ":12189,"Ð°Ð±ÑĢ":12190,"Ġdesign":12191,"paÃ±":12192,"ĠØ§Ø³ÙĦØ§Ùħ":12193,"Ġwaxay":12194,"ĠØ¨ÙĪÙĦØºØ§ÙĨ":12195,"03":12196,"yal":12197,"åļ":12198,"Ġdadi":12199,"inst":12200,"ÑĢÐµÑĤ":12201,"ĠsÃ¥":12202,"Ġoet":12203,"ĠHul":12204,"iyar":12205,"ĠØ¦Ø§Ø±":12206,"Ġà¤¹à¤°":12207,"ĠÑįÑħ":12208,"à·Ģà¶º":12209,"à¸ģà¸©":12210,"áŀľáŀı":12211,"Ġáİ¾áıįáı":12212,"à²Ĺà²³à²²":12213,"ĠÅ¾e":12214,"åīĩ":12215,"ç§°":12216,"ç¸½":12217,"ĠAnimalia":12218,"Ind":12219,"Ð¦":12220,"Ġà¤Ĳ":12221,"Ġsá»ĳ":12222,"ÐµÑĦ":12223,"Ð»Ð¸Ð½":12224,"Ġmug":12225,"ilos":12226,"à¨ī":12227,"ĠDar":12228,"ayy":12229,"ĠÎĵ":12230,"Ġarte":12231,"ĠÑĥÑĤ":12232,"ĠÙĨÙģ":12233,"ÏĦÎ±Î½":12234,"ÖĢÕ¡Õ¶":12235,"Ġamp":12236,"ĠÐ¡Ð¡Ð¡Ðł":12237,"ĠÐ¿ÑĢÐ¾Ð´":12238,"à²¯à²ķ":12239,"çĶ°":12240,"ĠgadÄģ":12241,"kel":12242,"ĠÐ²Ð¾Ð·":12243,"Ġà´Ĺ":12244,"Ð¾Ð¼Ð°Ð½":12245,"à¤¬à¤¨":12246,"àº¹à»ī":12247,"ĠRepubl":12248,"ĠÑħÑĥÑĮÑĢ":12249,"ĠØ®ÙĪØ´":12250,"Ġsukat":12251,"Ġê²ĥ":12252,"Ġkingdom":12253,"Ġmwaka":12254,"ĠgampÃ´ng":12255,"ls":12256,"Ġsiv":12257,"Ġnur":12258,"Ġnok":12259,"à¸Ł":12260,"Ġwilayah":12261,"emas":12262,"Ġdij":12263,"roe":12264,"ĠRober":12265,"ÑĭÐ½ÑĭÐ½":12266,"ĠÐ¶ÓĻÐ½Ðµ":12267,"ĠÑįÑģ":12268,"ĠfrÃ¥":12269,"àº»à»Ī":12270,"ÑįÐ³Ð´":12271,"Ġ×ĵ×¢×Ŀ":12272,"Ġfilum":12273,"É£en":12274,"ĠItal":12275,"ĠáĬ¥áĬĵ":12276,"ç»ı":12277,"Ġlingu":12278,"Ġfirst":12279,"Ġê°Ģ":12280,"Ð¾ÑĢÐ´Ð¾Ð²":12281,"Ġeconom":12282,"à¸Ħà¸§à¸²à¸¡":12283,"get":12284,"erna":12285,"ÑĥÐ´Ð°":12286,"×ķ×ĺ":12287,"à¬°à¬ķ":12288,"Ġtheir":12289,"à¤·à¤¯":12290,"ÑĥÐ½Ð´Ð°":12291,"ission":12292,"ØªØ±ÛĮÙĨ":12293,"Ġsalah":12294,"MA":12295,"sÃ¥":12296,"zan":12297,"Ġran":12298,"ĠSing":12299,"Ð°ÑĢÐ°Ð±":12300,"à³įà²Ĥ":12301,"Ġdic":12302,"Ã³p":12303,"ĠÑĤÐ¾Ð³":12304,"ogen":12305,"Ġleis":12306,"ãĤŃ":12307,"ÐµÐ´Ð¸Ð½":12308,"áŀŁáŀĵ":12309,"ĠÙģØ§Ø±":12310,"ierre":12311,"ĠÃ½yl":12312,"Ġ1921":12313,"Ġà²ľà²¨":12314,"Ġngwagengkgolo":12315,"weg":12316,"zione":12317,"âµ":12318,"inos":12319,"ĠlÃ¤":12320,"aty":12321,"Ġhans":12322,"agal":12323,"ĠÐ¿Ð°Ñĩ":12324,"ÉĻh":12325,"ĠÙ¾Ûģ":12326,"ebÃ©":12327,"Ð¸ÑĤÐµÐ»":12328,"ÙĨØ¯ÙĬ":12329,"ÐµÐ·Ð´":12330,"Ø§Ø³Ùī":12331,"Ġwerden":12332,"æ§":12333,"æį":12334,"ì²":12335,"Ġíķ":12336,"áĢĩ":12337,"ĠaÃ§":12338,"Ġtv":12339,"ÑĭÑĨ":12340,"Ġbase":12341,"olong":12342,"ĠÙħØµ":12343,"Ð¿Ð¾Ð»":12344,"ĠÑįÐº":12345,"Ġáĭ°":12346,"ĠØŃÚ©":12347,"Ð¸Ð³Ð¸":12348,"Ġlocal":12349,"XX":12350,"Ð½ÐµÑģ":12351,"ĠPeter":12352,"áĪļ":12353,"entina":12354,"otball":12355,"ĠÐ²Ð¾Ð¹":12356,"ĠØ³ÙĨÚ¯":12357,"ÅŁÄ±":12358,"Ġere":12359,"ÏģÏĩ":12360,"Ø§Ø²ÛĮ":12361,"Ġmerk":12362,"Æ°á»Ŀi":12363,"ĠUkra":12364,"zw":12365,"çĸ":12366,"Ġlane":12367,"Ġbuk":12368,"ĠBras":12369,"ĠÐ±ÑĭÐ»Ð°":12370,"ĠØ¨Ú¾ÛĮ":12371,"ÑĸÐ½Ð´":12372,"Ġlain":12373,"ĠØ³Ø§Úµ":12374,"ĠáĢĴ":12375,"ĠÙ¾ÙĪØ±":12376,"azion":12377,"ĠØ´ÛĮ":12378,"à¾Ĳà½´":12379,"æĪĺ":12380,"Ġskup":12381,"ĠÐķÐ»":12382,"Ġà¶ħà¶±":12383,"åĨį":12384,"ĠAmerican":12385,"áıģáİ¸":12386,"æ´»":12387,"èī²":12388,"ĠpÃ¤iv":12389,"à»ĢàºĹàºĶ":12390,"ĠÐĪ":12391,"Ġnuk":12392,"adn":12393,"Ġym":12394,"Ã¡z":12395,"ĠCre":12396,"Ġà°¶":12397,"ĠÙĦØ§":12398,"Ø®Øµ":12399,"ĠØ±Ûģ":12400,"Ġavou":12401,"Ġcui":12402,"ÛĪØ´":12403,"Ġà²ħà²µ":12404,"Î³Îº":12405,"ãģ§ãģĤãĤĭ":12406,"Ġmaysa":12407,"ë©´":12408,"ds":12409,"ear":12410,"wak":12411,"err":12412,"Ġsimb":12413,"Ġava":12414,"atas":12415,"asp":12416,"ÙĪØ§ÙĦ":12417,"à¤°à¤¶":12418,"à¤¤à¤¤":12419,"Ġjwa":12420,"ĠÐ±Ð¾Ð¹":12421,"ĠIg":12422,"Ã¨u":12423,"âĢĭâĢĭ":12424,"à¸²à¸ª":12425,"Ġ47":12426,"Ġperm":12427,"ĠÙĥÙī":12428,"ÑĥÐ³ÑĬ":12429,"ederb":12430,"Ġkasar":12431,"Ø°Ùĩ":12432,"Ġpapulasyon":12433,"cÄģ":12434,"Ö¼":12435,"à¥¯à¥":12436,"Ġdd":12437,"Ġgab":12438,"ĠØ§Ø¬":12439,"edes":12440,"ĠÐºÑĥÐ½":12441,"ĠØ¨ÙĬÙĨ":12442,"optera":12443,"áĥĺáĥķ":12444,"ĠÐ¾Ð²":12445,"avon":12446,"Ġteam":12447,"Ġbef":12448,"æĪĳ":12449,"Ġingkang":12450,"vent":12451,"Ġdass":12452,"Ġname":12453,"à´ĸ":12454,"ettu":12455,"Ġcost":12456,"Ġfas":12457,"aky":12458,"Ġjez":12459,"igr":12460,"Ãªl":12461,"ĠØªÛķØ±":12462,"obi":12463,"nys":12464,"ÄķÑĪ":12465,"ship":12466,"Î»Î±":12467,"manuel":12468,"áĢ½áĢ¬áĢ¸":12469,"ĠÑĥÐ»Ð°Ñģ":12470,"à¦ĸà¦¨":12471,"Ġautor":12472,"ĠØ³ÙĨØ©":12473,"ĠÐ±Ð°ÑģÑģÐµÐ¹Ð½Äķ":12474,"ĠArthropoda":12475,"ting":12476,"Ġmpe":12477,"orb":12478,"ĠAut":12479,"à±ĥ":12480,"Ġà´²":12481,"Ġnombre":12482,"×ķ×Ĳ×¨":12483,"ĠØ¨ÙĪÙĦÛĩÙ¾":12484,"áº¿t":12485,"wah":12486,"ÑĢÐ¾Ð²":12487,"ÑĤÑĥ":12488,"Ġnicht":12489,"Ġlek":12490,"Ġhá»į":12491,"ikol":12492,"à½Ĥà½¢":12493,"ĠÐ±Ð¾ÑĢ":12494,"ĠÑĤÐ°Ð¹":12495,"ĠÐ½Ð°Ð»":12496,"ĠÐ½ÐµÐº":12497,"ĠØ§ÙĦÙĦ":12498,"ĠØ¬ÙĨÙĩÙĨ":12499,"ÞĤÞİ":12500,"ĠÐ¿ÑĢÐ¾Ð³":12501,"áĥķáĥĶáĥļ":12502,"éĢł":12503,"Ġà²īà²ª":12504,"ÑĸÐ½ÑĸÒ£":12505,"west":12506,"Ø§ÛĮÙĨÚ¯ÛĮÙĦÛĮØ³":12507,"Ġnec":12508,"àª«":12509,"Ð´ÐµÐ»":12510,"ngÃ®":12511,"Ø§ÙĨÙī":12512,"ĠÐ´Ð¾Ð½":12513,"Ð¸Ð½Ð¸Ð½":12514,"law":12515,"à¦¨à¦¨":12516,"eba":12517,"ÙĪÙĦÙĬ":12518,"piu":12519,"æĿĳ":12520,"éĥ¡":12521,"qs":12522,"©Ù":12523,"Â´":12524,"Ġà½ŀ":12525,"ikl":12526,"Ġannu":12527,"Õ¡Õ¢":12528,"Õ¡ÕŃ":12529,"ĠVo":12530,"ĠÑĥÑģ":12531,"ÑģÐºÐ°Ð³Ð°":12532,"Ú¾Ø§":12533,"å®¢":12534,"ĠÅ½":12535,"áĥĲáĥľáĥĺ":12536,"áĥĶáĥĳáĥ¡":12537,"èĳĹ":12538,"lic":12539,"¹Ħ":12540,"Ø±ØŃ":12541,"ily":12542,"Ġvide":12543,"Ġwho":12544,"stad":12545,"hax":12546,"ĠÙĤØ§ÙĦ":12547,"Ġà¤¬à¤¸":12548,"schen":12549,"Ġà¤īà¤¨à¤ķ":12550,"orea":12551,"ÏĮÎ½":12552,"omaal":12553,"áİ¯áıįáıĹ":12554,"Ġfinal":12555,"Î¹ÎºÎ¬":12556,"à½ĳà½Ģà½¢":12557,"09":12558,"]âĢĭ":12559,"ĠmÄģ":12560,"ĠkÃµ":12561,"Ġkiye":12562,"Ġvá»Ľi":12563,"Ġfet":12564,"ĠiÃ°":12565,"à¤¯à¤ª":12566,"ĠUni":12567,"Ð¸Ð¹Ñĭ":12568,"ÏģÎ¬":12569,"allo":12570,"Ġuru":12571,"Ø§ÛĮÙĨÚ¯ÛĮÙĦÛĮØ³Ø¬Ùĩ":12572,"Ġting":12573,"ĠMir":12574,"tima":12575,"Ð±Ð°ÑĢ":12576,"ĠÐ¾Ð½Ñĭ":12577,"ÑįÑĢÐ¸":12578,"áŀĻáŀĵ":12579,"ĠáĥĽáĥĲ":12580,"ĠLeon":12581,"à½ĺà½ģà½ĵ":12582,"ïºİï»":12583,"ederbÃ¶rd":12584,"æ£":12585,"çĳ":12586,"ĠvÃ¡":12587,"ĠSerb":12588,"ĠáĢĺ":12589,"áĬ¥":12590,"áĥĲáĥľáĥ¡":12591,"Ð°Ð¶Ð°":12592,"amentu":12593,"ĠÏĢÎµÏģ":12594,"×¢×ł×¢×Ł":12595,"é«Ķ":12596,"bula":12597,"ļĮ":12598,"ÙĦØ±ÛĮ":12599,"Ġgans":12600,"ĠSpe":12601,"agat":12602,"ĠKor":12603,"ĠØ¯Ùħ":12604,"à·Ģà¶ļ":12605,"àº°àº«":12606,"ĠÑĦÐ¾ÑĢÐ¼":12607,"voj":12608,"Ġseri":12609,"ĠSikato":12610,"ikt":12611,"à«ĥ":12612,"ugi":12613,"Ġella":12614,"Ã±o":12615,"Ġserb":12616,"Ð»ÑĭÑģÑĮ":12617,"ĠÐ¿ÑĢÐ¾Ð¸Ð·":12618,"Õ´Õ¡Õ¶":12619,"Ġ×ķ×ķ×¢×ľ":12620,"dat":12621,"jam":12622,"Õ·":12623,"Ġà½Ĳ":12624,"Ġvot":12625,"ÐµÑĢÐ½":12626,"ief":12627,"Ã¶Ð¼":12628,"Ġà¥ª":12629,"Â»ØĮ":12630,"áĢ¼áĢ¯":12631,"áĬķáĮį":12632,"Ġà¤ıà¤¹":12633,"áĢ½áĢ±":12634,"à½īà½ĺà½¦":12635,"Ġwalad":12636,"Ġnafsoobaalchaa":12637,"Ab":12638,"à¸Ĳ":12639,"urit":12640,"ĠwÃª":12641,"andro":12642,"ĠÑħÐ°Ð¹":12643,"ĠÙĦØ±ÙĬ":12644,"Ġkoh":12645,"àºĶàºį":12646,"ĠComm":12647,"à½ĺà½ģà½¦":12648,"èŃ°":12649,"car":12650,"onti":12651,"atori":12652,"ĠÃĴ":12653,"ĠMic":12654,"Ð·Ð´":12655,"à½ĵà½Ĥ":12656,"ĠHi":12657,"Ã§i":12658,"à¸²à¸ŀ":12659,"ĠÐļÐ¾Ð½":12660,"à´°à´£":12661,"Ġà»ĥ":12662,"à¾£à¼ĭ":12663,"ÓĵÐ»ÑĤ":12664,"Ġá¹£":12665,"ĠÐºÄķÑĢÐµÑĤ":12666,"Ġmie":12667,"Ġmaz":12668,"alta":12669,"ÐºÐ°Ð¹":12670,"omu":12671,"uste":12672,"ĠBra":12673,"ĠTra":12674,"à½Ħà½Ĥ":12675,"ĠResp":12676,"opil":12677,"Õ¡Õ·":12678,"Ãłt":12679,"ĠÑĥÐ¼":12680,"rani":12681,"ĠØ¹ÙĦÛĮ":12682,"áį¡":12683,"à½ļà½ĳ":12684,"à½Łà½ĳ":12685,"ĠMex":12686,"à½ĳà½Ķà½£":12687,"Ġà®īà®³":12688,"det":12689,"kit":12690,"Ð»Ð°Ð½Ð´":12691,"Ġtla":12692,"amit":12693,"omer":12694,"ĠAss":12695,"tai":12696,"ĠØ§ÙĦÙĪ":12697,"áī¡":12698,"evo":12699,"Ð°Ð·Ñĭ":12700,"ĠÙĤÛķ":12701,"uair":12702,"landi":12703,"çļĨ":12704,"ĠÓ©Ð¹":12705,"Ø§ÙĪÛĮ":12706,"Ġahn":12707,"wood":12708,"Ġpopulation":12709,"ÓĻÑģÓĻÐ¹":12710,"Ġslu":12711,"Ġaki":12712,"Ġpoh":12713,"áŁ¢":12714,"ĠØ¨Ø¹":12715,"utang":12716,"ĠÙĪØ§Ø±":12717,"ĠÑħÑįÑĢÑįÐ³":12718,"à²¦à²¨":12719,"Ø§ØªÙĪ":12720,"ĠáīłáĪĺ":12721,"Õ¥ÖĢÕ«":12722,"àªĹàª®":12723,"ĠCounty":12724,"jÃº":12725,"ĠtÃ¨":12726,"Ġps":12727,"Ġmend":12728,"Ġnama":12729,"alde":12730,"atro":12731,"ĠhÃ´":12732,"Ġich":12733,"ĠÐºÑĭÑĤ":12734,"ĠÐ±ÑĥÐº":12735,"igin":12736,"ĠÑĤÐ¾Ð½":12737,"ÑĦÐ¾ÑĢÐ¼":12738,"åľŁ":12739,"ï»®":12740,"Ġokt":12741,"Ġdisp":12742,"à¹Ħà¸Ľ":12743,"Ġclub":12744,"ç¦ı":12745,"ĠÑĤÐµÑĢÑĢÐ¸ÑĤÐ¾ÑĢÐ¸Ñı":12746,"ĠÑĥÐ½Ð¸Ð²ÐµÑĢÑģÐ¸ÑĤÐµÑĤ":12747,"Ĳľ":12748,"Ġkale":12749,"Ø±ÙĨ":12750,"adin":12751,"Ð³ÑĢ":12752,"Ġáĥłáĥ":12753,"ĠÙĪØ²":12754,"Ã¨e":12755,"ĠÑĢÐµÐº":12756,"Î¹Î¬":12757,"siÄģ":12758,"Ġkabaleg":12759,"Ġllaqtapi":12760,"gang":12761,"Ð»Ð°ÑĢÑĭÐ½":12762,"Ġnou":12763,"Ø¯ÛĲ":12764,"akin":12765,"ÑĮÑİ":12766,"ĠKap":12767,"Ã³i":12768,"igs":12769,"Ø¨ÙĨ":12770,"ĠJi":12771,"ĠØ¬ÙħØ¹":12772,"ints":12773,"ritz":12774,"à¸ģà¸¥":12775,"ÐµÐ²Ð¸":12776,"ĠUnidos":12777,"áİ´áıħáıĵ":12778,"ä¿®":12779,"éĿŀ":12780,"á»ĩn":12781,"ìļ°":12782,"ÚĮ":12783,"Ĭ¸":12784,"Ġvul":12785,"ĠDit":12786,"abat":12787,"ÃŃd":12788,"ĠÐ½Ð¸":12789,"ÑĭÐ½ÑģÐ°":12790,"lif":12791,"ĠÐ³Ðµ":12792,"Ġmaa":12793,"Ġ49":12794,"ĠÃ¡l":12795,"Ġà²ħà²µà²°":12796,"à»ģàº¥àº°":12797,"Ġtelah":12798,"Ġkelas":12799,"Ġà¹Ģà¸Ľ":12800,"êµ¬":12801,"ĠÐ¾ÑģÐ½Ð¾Ð²":12802,"åķĨ":12803,"Ġëĭ¤":12804,"ije":12805,"nn":12806,"yz":12807,"×¥":12808,"Ġdod":12809,"enen":12810,"Ġpow":12811,"Ġkesk":12812,"Ġbá»¥":12813,"×Ļ×ĸ":12814,"Ã®t":12815,"Ð°ÐºÐ°":12816,"ijiet":12817,"à¨°à¨®":12818,"ĠÙģØ±Ùĩ":12819,"áŀĦáŀĸ":12820,"Ġ600":12821,"Õ¸ÖĤÕ½":12822,"ultan":12823,"ĠÐ°Ð»ÑĮ":12824,"å¸ĥ":12825,"ĠØ¨Ø±Ø§ÛĮ":12826,"åĳ¨":12827,"à½±à¼ĭ":12828,"SE":12829,"pis":12830,"onas":12831,"ĠpeteÄ©":12832,"ĠbÃ©":12833,"elf":12834,"àªı":12835,"ĠÃµ":12836,"ĠwÃ¤":12837,"ĠØ§Ø¤":12838,"áĪĮ":12839,"Ġlav":12840,"ĠHis":12841,"Ã´s":12842,"Ġà¤ħà¤Ĺ":12843,"Ã±e":12844,"ĠØ¢Ø²":12845,"ĠInt":12846,"Õ¡Õ¶Õ«":12847,"à®ªà®¤":12848,"Õ¸Õ½":12849,"ĠÏĦÎ¿ÏħÏĤ":12850,"Ġlugar":12851,"ÐºÐ¾Ð½Ð¾Ð¼":12852,"áº§n":12853,"Ġnwere":12854,"Ġà¤Ĺà¤¢à¤µ":12855,"Ø§Úª":12856,"atn":12857,"Ġoyo":12858,"Ġfyri":12859,"ĠØ¯Ùī":12860,"oven":12861,"Ð°Ð³I":12862,"Å¾a":12863,"Ø§ØªØ§":12864,"Ġà¤Ĩà¤¯":12865,"Ð¾ÐºÑģ":12866,"ratti":12867,"áıĵáİµ":12868,"Ġfilos":12869,"2013":12870,"Ġbatho":12871,"Ġà¥¨à¥¦":12872,"ĠkÃ¶z":12873,"Ġdze":12874,"usia":12875,"Ø¯ÛĴ":12876,"aken":12877,"à¤®à¤²":12878,"Ġenw":12879,"ĠHistor":12880,"ĠÐ¸Ñħ":12881,"Ġlev":12882,"ÄĥÐ»":12883,"Ġrealiz":12884,"Î·ÏĤ":12885,"ĠÐĴÐ°Ñģ":12886,"Ġmoun":12887,"Ġà¸Ń":12888,"áĢĽáĢĦ":12889,"huan":12890,"ÛķÚ©Ûķ":12891,"ĠØ¨ÛĮÙĩ":12892,"ĠÐ³ÑĮÐ°Ð±":12893,"ĠÙĨÛĮÚº":12894,"ĠÐ¿ÑĢÐ¾ÑĦ":12895,"hes":12896,"Ġsuku":12897,"Ġmost":12898,"Ġcikin":12899,"ĠÚĬ":12900,"ĠÐ±ÑĥÑĢ":12901,"ĠØ³Ûķ":12902,"ĠngÆ°á»Ŀi":12903,"under":12904,"Ġáĭį":12905,"ĠpaÃŃs":12906,"ÑĥÐºÑĬ":12907,"Ø°Ø§":12908,"ĠAbd":12909,"à»ĦàºĽ":12910,"Ġáĥŀáĥł":12911,"ĠWikipedia":12912,"Ðĸ":12913,"çĭ":12914,"Ð½Ð°ÑĪ":12915,"Ð²ÐµÐ»":12916,"Ø¯ÛĮØ§":12917,"ĠÑģÑĭ":12918,"abaw":12919,"Ø´Ø§Ùĩ":12920,"×ķ×Ĺ":12921,"laryÅĪ":12922,"ĠÚ¯Ùĩ":12923,"ĠÐ¶Ðµ":12924,"ëĭ¨":12925,"éĹľ":12926,"Pr":12927,"ÑĤÑįÐ½":12928,"ĠbÃ»":12929,"Ġwol":12930,"ĠAri":12931,"ĠMuse":12932,"ãģ¤":12933,"×ķ×ĸ":12934,"ĠÙ¾ÙĨØ¬":12935,"Ġterit":12936,"Ã©nt":12937,"à»ģàº¡":12938,"aziun":12939,"Ġclass":12940,"ĠÑįÐ¼Ð´Ð°":12941,"ÑĨÐ¸ÑĺÐ°":12942,"ced":12943,"syn":12944,"ÉĹ":12945,"ĠÖĦ":12946,"orio":12947,"Ġcos":12948,"ĠØ¯ÛĨ":12949,"ĠGri":12950,"Ð°ÑĤÐ¸Ð²":12951,"Ġà¤¸à¤¦":12952,"ĠJuan":12953,"Ġarr":12954,"ĠØ±Ø§Ø³":12955,"Õ¶Õ¥ÖĢÕ¨":12956,"áŀĺáŀĵ":12957,"Ġakan":12958,"à¹Ģà¸Ī":12959,"Ġà¤¶à¤ķ":12960,"uwen":12961,"Ġpopol":12962,"Ġà°¸à°®":12963,"Ã¬nh":12964,"ĠGeorg":12965,"ĠØ±ÙĪØ²":12966,"ĠÐ°Ð¹Ð¼":12967,"Ġhoj":12968,"Ġgou":12969,"Ð³Ð°Ð»":12970,"Ð²ÐµÐ½":12971,"ĠMy":12972,"ĠÑĤÑįÑĢ":12973,"ĠâĢł":12974,"ĠÐ½ÑįÑĢ":12975,"Ò¯Ð¿":12976,"ĠVil":12977,"Ġpresi":12978,"à¦¤à¦¨":12979,"åı·":12980,"ennu":12981,"Ġíĥ":12982,"ĠbhÃŃ":12983,"ä¸ĸçķĮ":12984,"ĠÙĤØ±Ø§Ø±":12985,"Ġpachak":12986,"Su":12987,"sid":12988,"ytt":12989,"Ġtako":12990,"ĠbÃ¶l":12991,"ĠfÃł":12992,"Ġink":12993,"Ġyil":12994,"ĠÙħÙħ":12995,"Ã¨k":12996,"Ð¸Ð½ÑĩÐ¸":12997,"Ġalla":12998,"ÏģÎ³":12999,"à½ģà½ĺà½¦":13000,"scha":13001,"Ġà¼¡à¼":13002,"Ġexemp":13003,"áŁīáŀ»":13004,"ĠØ¦ÛĨØª":13005,"Europ":13006,"fun":13007,"qar":13008,"some":13009,"Ġà½ĳà½Ĥ":13010,"itur":13011,"Ġoko":13012,"tee":13013,"tahi":13014,"iac":13015,"ĠKam":13016,"ĠØ¨Ø§ÙĬ":13017,"ĠJuli":13018,"ject":13019,"à²¤à²µ":13020,"ĠØ´ÙĪØ±":13021,"Ġà¤¬à¤°":13022,"embro":13023,"Åįr":13024,"à¸µà¹ī":13025,"éģĤ":13026,"Ġ1951":13027,"ĠÅ¡t":13028,"ĠÃ½a":13029,"Ġà¶ĳà¶ļ":13030,"nja":13031,"nica":13032,"Ġpast":13033,"Ġow":13034,"Ð³ÑĮ":13035,"ĠØ¯ÙĦ":13036,"Ú¯ÙĪ":13037,"eller":13038,"Ġmanip":13039,"ÑĨÐ¸Ð°Ð»":13040,"ÒķÐ°":13041,"Õ¾Õ¡Õ®":13042,"ìļ©":13043,"dabinons":13044,"ĠRoberto":13045,"lja":13046,"Ð°Ã§Ã§":13047,"Ġdra":13048,"ĠsÄĥ":13049,"Ġbug":13050,"ÙīØª":13051,"ĠDh":13052,"Ġleh":13053,"Ġà¥¬":13054,"ĠUs":13055,"ÙģÙĩ":13056,"à²ķà²°":13057,"áŀĦáŀĶ":13058,"ĠàºŃ":13059,"ĠÃ¡r":13060,"ĠÐ°ÑĢÑĭÐ½":13061,"aroa":13062,"Ġesset":13063,"ĠNobel":13064,"Ġsuka":13065,"áŀĥ":13066,"ĠmÃł":13067,"Ġmins":13068,"Ð´ÑįÐ³":13069,"ĠÃĵ":13070,"áıĲ":13071,"Ġwot":13072,"ĠPap":13073,"Ġ1914":13074,"ĠÑĤÐ¾Ð¼":13075,"ingan":13076,"à½łà½Ĳ":13077,"Ø¬ÙĨ":13078,"à¦²à¦¯":13079,"Ġ×Ĳ×ĸ":13080,"Ġminangka":13081,"ÙĦØ§Ø±ÙĨÙīÚŃ":13082,"Ġ×ĸ×Ļ×ļ":13083,"ĠÚ©ÙĬÚĸÙĬ":13084,"×Ļ×ł×¢":13085,"Ġbahin":13086,"áĢĿáĢĦ":13087,"è¶Ĭ":13088,"æĥħ":13089,"áĪĨáĬķ":13090,"may":13091,"ward":13092,"ĠÐ°Ð³Ð°":13093,"ĠsÃ£":13094,"Ġvin":13095,"Ġfebru":13096,"agna":13097,"Ä±ld":13098,"ĠÑĤÓĢ":13099,"ÑĬÑħÑĮ":13100,"ĠÐ´ÐµÐ½Ðµ":13101,"ĠØªÙĪØ±":13102,"ĠÐ³Ð¾ÑĢ":13103,"à²¨à²²":13104,"Ø²ÙĪ":13105,"Ġnoong":13106,"Ġonye":13107,"à´¯à´®":13108,"ÑĥÐ¼Ð°":13109,"Ġà²ħà²¤":13110,"Ġ1934":13111,"Ġhanesan":13112,"ÅŃng":13113,"àº½àºĩ":13114,"ĠXVIII":13115,"ichael":13116,"mir":13117,"Ð»Ò¯Ð¼":13118,"Ġcs":13119,"Ð³Ñį":13120,"usc":13121,"ĠLuc":13122,"ĠÙ¾Ø§Ú©":13123,"à¦¤à§°":13124,"ĠØ¦ÙĪØ±":13125,"Ġmax":13126,"ĠkoÊ»":13127,"à¹Ģà¸«":13128,"ĠÃ¤l":13129,"ĠàºĪ":13130,"Ġmenjadi":13131,"ĠÙħØ±Ú©":13132,"åı¯ä»¥":13133,"Ð´Ð°Ð³Ñĭ":13134,"khiÃ©u":13135,"Ġtwo":13136,"ĠkÃ»ng":13137,"ÑĭÑĤÐ°":13138,"Ġbere":13139,"asin":13140,"áıĶáıħ":13141,"anton":13142,"oof":13143,"×©×ľ":13144,"Ġ×©×Ķ":13145,"à¬¬à¬°":13146,"Ġcontin":13147,"áĥĶáĥ¤áĥ¡":13148,"ĠáıĤáİ¦":13149,"ĠXVI":13150,"ĠNgwagakete":13151,"Ġdhiworth":13152,"ĠÚ©Ø´ÙĪØ±":13153,"ÑĥÑĢÑĥÐ´Ð³Ð¾":13154,"--":13155,"08":13156,"yw":13157,"è°":13158,"Ġate":13159,"Ġmud":13160,"elek":13161,"Ġhil":13162,"Ġgot":13163,"ĠNag":13164,"ĠÙĪÙĤØª":13165,"ĠEin":13166,"Ġuku":13167,"iew":13168,"ĠFilm":13169,"see":13170,"à¨°à¨¸":13171,"Ġdesde":13172,"àºĻàºª":13173,"Ġà¦ıà¦Ł":13174,"Î®ÏĤ":13175,"ross":13176,"æ¨Ĥ":13177,"Ġngwagengsome":13178,"chhÄ«":13179,"ÑįÐºÓĢ":13180,"ìĽĶ":13181,"Ġngwagengkete":13182,"ĠNgwagakgolo":13183,"AR":13184,"lÃ¤":13185,"Ġsemp":13186,"Ġpav":13187,"Ġkrit":13188,"atio":13189,"chan":13190,"à°ĸ":13191,"ĠhÃ¸":13192,"Ã¡ny":13193,"ĠÑģÐµÐº":13194,"ĠÙĪØ´":13195,"ĠEw":13196,"×Ļ×¦":13197,"ÑĨÑİ":13198,"ĠÎ»":13199,"Ã¢y":13200,"ÉĻd":13201,"Ø¹ÙĨ":13202,"Ġì§":13203,"Ġìļ":13204,"ÙģÛĮ":13205,"ĠÐļÐ°Ð½":13206,"Ġ41":13207,"Â»)":13208,"ÚĨÙĩ":13209,"ampion":13210,"Î¿ÏħÎ½":13211,"à°µà°¸":13212,"ĠØ¨ÛĲØ±Ùī":13213,"07":13214,"gro":13215,"Ġlagu":13216,"isce":13217,"ossa":13218,"ĠAli":13219,"ÑĪÐ¾":13220,"ĠÑģÐ»Ñĥ":13221,"Ġanni":13222,"ukk":13223,"naÃ°":13224,"daw":13225,"ĠØ§ÙĦÙĦÙĩ":13226,"Ãµq":13227,"Ø·Ø§ÙĨ":13228,"Ġanns":13229,"ÚĵÙĩ":13230,"ĠìĿ¸":13231,"Ġvolt":13232,"gra":13233,"Û³":13234,"Ø§ÚŃ":13235,"Ġauch":13236,"Ġpure":13237,"chri":13238,"akten":13239,"ikh":13240,"Ø³ÛķØ±":13241,"ĠPang":13242,"Ã¤ll":13243,"ĠÑģÐ¸":13244,"ĠÑģÐ»":13245,"ĠÐ±Ò¯ÑĢ":13246,"ahe":13247,"à½ĺà½ī":13248,"ĠVic":13249,"ĠWash":13250,"áĢ¼áĢ¬áĢ¸":13251,"àº±à»Ī":13252,"Ġmeny":13253,"Æ°á»Ŀ":13254,"Ġklase":13255,"Ġrayon":13256,"áĭļáĪħ":13257,"iÅ¡":13258,"å´":13259,"ering":13260,"Ġpubl":13261,"aler":13262,"ĠgÃ³":13263,"ĠÐºÐº":13264,"icy":13265,"ĠØ¯Ø³":13266,"ĠHor":13267,"apada":13268,"Ġáİ£":13269,"iona":13270,"Ġqua":13271,"à°¿,":13272,"ĠÅº":13273,"Ð¸Ð´Ðµ":13274,"2015":13275,"à¸Īà¸°":13276,"ĠÐ¸Ð·Ð´":13277,"à¬ªà¬°":13278,"è¾°":13279,"ĠØ³Ø§Ø²ÙħØ§ÙĨ":13280,"ĠWindows":13281,"Ġpachakwata":13282,"ction":13283,"vas":13284,"ĤàºŃàºĩ":13285,"Ġnn":13286,"Ġlud":13287,"Ġgn":13288,"Ġfiv":13289,"áıī":13290,"ĠTai":13291,"Ġzd":13292,"à¤¸à¤²":13293,"ĠGran":13294,"ĠFried":13295,"àª¾.":13296,"Ġprv":13297,"ÑģÐºÐ°ÑĤÐ°":13298,"oua":13299,"Ã»r":13300,"áĢ½áĢ¾":13301,"å¸«":13302,"Ġscrit":13303,"ÑĥÑĮÐ½":13304,"áıįáıĨ":13305,"Ġartikel":13306,"é¦Ļæ¸¯":13307,"tin":13308,"uun":13309,"Ġbesk":13310,"Ġotor":13311,"Ġeis":13312,"à¤°à¤ľ":13313,"ĠÙĪÙĬÙĪ":13314,"ĠstÃł":13315,"Ġakk":13316,"ĠUnion":13317,"2002":13318,"Ø³ÙĦØ§Ùħ":13319,"adores":13320,"ëį°":13321,"Ð»ÐµÐºÐµÑĤ":13322,"'re":13323,"dag":13324,"mark":13325,"uva":13326,"ĠnÃ¨":13327,"áĥĺáĥĴ":13328,"Î¿Î¼":13329,"ĠÛ°":13330,"ĠØ¬Ø³":13331,"Ð´Ð°Ð°ÑģÑĤ":13332,"Ġà¤¨à¤¦":13333,"ÐµÐ´Ñĸ":13334,"Ġ×Ķ×ł":13335,"à²¸à²°":13336,"ĠØ¬ÙĬÚª":13337,"ĠSchool":13338,"ĠáĥĲáĥł":13339,"idades":13340,"ĠÐ±ÑĥÐ¹ÑĭÐ½ÑģÐ°":13341,"lit":13342,"nÃ½":13343,"zas":13344,"ĠlÃŃ":13345,"ÑĥÑĭ":13346,"à´«":13347,"Ø¯ÙĪØ¯":13348,"ĠÞ¢":13349,"à¤ªà¤¯":13350,"ãĤı":13351,"Ġà¤ħà¤¶":13352,"Ø¦Ùħ":13353,"ĠÃłwá»įn":13354,"ĠÚªÙĬ":13355,"ĠÚªÙĬÙĪ":13356,"Ġ1935":13357,"ÚĵÙĬ":13358,"àº½àº§":13359,"At":13360,"organ":13361,"ĠMaj":13362,"ĠCe":13363,"ĠnaÊ»e":13364,"ogn":13365,"ugo":13366,"ÙĥØ±":13367,"Å¼i":13368,"buah":13369,"Ġ1924":13370,"ikeun":13371,"Ġrelig":13372,"bayan":13373,"gel":13374,"sti":13375,"unci":13376,"áıĨ":13377,"ĠÑĤÑĥÑħ":13378,"erson":13379,"ĠÐ·Ð²":13380,"Õ«ÖĢ":13381,"ÛģØ±":13382,"akai":13383,"ĠkiÅŁi":13384,"áİ³áıĹ":13385,"Ġreven":13386,"ĠàŃ§àŃ":13387,"Ġà¦ľà¦¨à¦¸":13388,"çłĶ":13389,"Ð°Ã§Ã§ÐµÐ¹":13390,"Im":13391,"Ġpoc":13392,"ĠBill":13393,"ĠPlat":13394,"ĠÑģÐ¾ÑģÑĤ":13395,"ĠÑĤÐ¸Ðº":13396,"áĥĲáĥ¬":13397,"ÑĩÐ¸Ð»":13398,"ĠGir":13399,"ĠÚ©ÙĪØ±":13400,"Ã¢âģ¿":13401,"acc":13402,"ĠyaÅŁ":13403,"Ãµh":13404,"Ġimper":13405,"anyo":13406,"ĠÃ§h":13407,"ĠÒ¯Ó©ÑĢ":13408,"à»Ģàº¥":13409,"Ġ×©×ł":13410,"æŃĮ":13411,"æ°ı":13412,"Ġfaritr":13413,"ĠÐ¿ÑĢÐ¾ÑĨ":13414,"ĠáĪĭáĭŃ":13415,"ĠÙ¢":13416,"Ġgri":13417,"ĠrÄĽ":13418,"igt":13419,"Ã¶tt":13420,"Ġsau":13421,"ĠÑĥÑĭÐ´":13422,"×Ĳ×¤":13423,"Ġkeessatti":13424,"à¤·à¤ķ":13425,"ĠÑĩÐ¸":13426,"Ġspec":13427,"Ġáİłáİµ":13428,"ĠáıĻ":13429,"Ġ800":13430,"à»ĢàºĬ":13431,"Ġáĥ¡áĥĲáĥĽ":13432,"ĠÏĢÏģÎ¿":13433,"ronan":13434,"Ġ1928":13435,"æ³¢":13436,"ĠÄ«pan":13437,"Ġlater":13438,"Ã¦Ð¹Ñĭ":13439,"Ġgeneral":13440,"Ġnyoe":13441,"Ġà½łà½ĳ":13442,"orie":13443,"ĠcÃ¼mÃ¼":13444,"Ġrive":13445,"ĠSab":13446,"ĠDay":13447,"ĠÐ²Ð¸ÑĢ":13448,"áĭĽ":13449,"à¸²à¸Ī":13450,"ĠÙĤØ§Øª":13451,"Ø§ÛĮØª":13452,"ansel":13453,"à¦¬à¦²":13454,"Ð³Ð°Ð°":13455,"Ġmagnit":13456,"Ġklub":13457,"Ġsho":13458,"Ġpea":13459,"chÃ©":13460,"Ð²ÑĭÐ²":13461,"ĠÐºÑĭÑĢ":13462,"Ã¡b":13463,"Ð°Ð»Ð³":13464,"ĠKen":13465,"egh":13466,"ĠForm":13467,"ĠVI":13468,"aze":13469,"ÄįÄį":13470,"àª°àª®":13471,"ĠÑĩÑĤÐ¾":13472,"ĠÐ»Ð°ÑĤ":13473,"oju":13474,"à½Ĩà½Ĥà½¦":13475,"ÙĪÙħØªØ±":13476,"Ġmarka":13477,"Ø±Ø¯ÙĨ":13478,"ïºŃ":13479,"ÓĻÑĢÐµ":13480,"ĠÐºÐ¾Ð¼Ð¸":13481,"ç´Ħ":13482,"Õ¸ÖĤÕ©ÕµÕ¸ÖĤÕ¶Õ¨":13483,"ÎµÏĦÎ±Î¹":13484,"Ġìĭľ":13485,"ëŁ¬":13486,"Pro":13487,"dÄ±n":13488,"Ð½Ð¸Ð¼":13489,"Ġsad":13490,"Ġlj":13491,"esia":13492,"à§¯à§":13493,"ĠvÄĹ":13494,"Ã¡va":13495,"ĠØ¨Ø§Ø¨":13496,"ĠØ¯Ø³Øª":13497,"ĠÑĤÑĥÑģ":13498,"ĠRed":13499,"à¤µà¤®":13500,"Ð¸Ð½Ð´":13501,"ĠÐ¶Ð°":13502,"ĠÚĨÙĬ":13503,"áŀĬáŀĽ":13504,"æĺŁ":13505,"Ġskri":13506,"Ġ1933":13507,"ammad":13508,"sczi":13509,"ĠÐºÐ°ÐºÐ¾":13510,"won":13511,"Ð½Ñİ":13512,"Ġtik":13513,"Ġtud":13514,"Ġmum":13515,"Ġkill":13516,"ĠÙ½":13517,"ĠwÃ³":13518,"Ġwara":13519,"ĠØ¨ÛĬ":13520,"egr":13521,"obh":13522,"ĠÐ¡Ð¾":13523,"àº°àº¥":13524,"à¤ıà¤²":13525,"ÑĭÑģÑĭ":13526,"å¼µ":13527,"ĠPhilip":13528,"ĠÐºÐ¸Ò»Ð¸":13529,"ÌĤ-":13530,"ÄĹjÄĹs":13531,"ĠDiptera":13532,"fÃ¸":13533,"hib":13534,"pin":13535,"Ġmest":13536,"Ġbadan":13537,"ĠSz":13538,"ĠÙħÙīÙĦ":13539,"áĥĲáĥ¦":13540,"riu":13541,"ĠÐ´ÐµÑĢ":13542,"à¤Ĺà¤®":13543,"Ġì²":13544,"ÅĤu":13545,"Ġà¤Ĩà¤µ":13546,"Å«r":13547,"Ó¹ÑĨ":13548,"Ġ×Ĳ×Ļ×ł":13549,"çĻ½":13550,"ìłľ":13551,"zÃ«b":13552,"ç¸£":13553,"ĠSeptember":13554,"kap":13555,"zet":13556,"èĮ":13557,"ĠsÃ¼nd":13558,"Ð»Ð°ÑĢÑĭ":13559,"Ġtub":13560,"Ġkle":13561,"esha":13562,"Ġbiri":13563,"ĠÐºÑĥÑĤ":13564,"Ã¡in":13565,"ĠPed":13566,"ĠCatal":13567,"ĠÑģÐµÐ»":13568,"áĪĬ":13569,"utti":13570,"ĠÐ¼Ð°Ñģ":13571,"ĠáĢļ":13572,"ibwa":13573,"×¢×ŀ":13574,"ĠUt":13575,"Ð¾Ð´Ð¸":13576,"Ġsuur":13577,"ĠÐĲÐº":13578,"ĠÑĩÓĢ":13579,"gau":13580,"ohn":13581,"à·Ģà·ĥ":13582,"ĠÅļ":13583,"ĠÛĮØ¦":13584,"ÒĽÐ°Ð½":13585,"Ġà²ĩà²¤":13586,"Ġáİ¤áı¤áİµ":13587,"ĠAmerica":13588,"ĠÅĤe":13589,"Ġoldu":13590,"ĠÐ¾Ò¥Ð¾ÑĢ":13591,"aÃ°":13592,"ĠmÃ©s":13593,"Ġmula":13594,"Ġew":13595,"Ġeit":13596,"Ġrim":13597,"ĠÐºÑĭÐ·":13598,"ĠÐºÐ¸Ð¶":13599,"roo":13600,"Ġsebuah":13601,"ĠØªÛĲ":13602,"ĠÙĦØ¦ÛĮ":13603,"Ø¬Ø§Ø±":13604,"Ġhaavon":13605,"ĠÃ¾Äģ":13606,"Ġíı":13607,"ÛķÚ©ÛĮ":13608,"æŀľ":13609,"ĠÕ¥ÖĢÕ":13610,"adrado":13611,"Ġhogy":13612,"\").":13613,"ril":13614,"wanda":13615,"esar":13616,"Ð¼Ð°ÑĢ":13617,"Ð¼Ð°Ð»":13618,"Ġrip":13619,"ems":13620,"Ġzijn":13621,"Ð°Ð¹Ð´Ñĭ":13622,"Ð¾Ð²Ðµ":13623,"ÑģÐºÐ¸Ñħ":13624,"Ð¾Ð¼Ð¾Ð½":13625,"Ġthu":13626,"Ð¸Ð·Ð°":13627,"ä¸ĢåĢĭ":13628,"Ġ1922":13629,"Ð±ÑĥÑĢÐ³":13630,"ĠLouis":13631,"kir":13632,"vver":13633,"ĠÄģ":13634,"Ġcari":13635,"ĠSic":13636,"Ġjer":13637,"ĠLiet":13638,"ople":13639,"Ã¦g":13640,"ĠÙĦÙħ":13641,"Ø¬ÙĪ":13642,"à»Ģàº§":13643,"à½łà½ĳà½¦":13644,"éģ¸":13645,"Ġviet":13646,"Ġ1932":13647,"æĶ¯":13648,"ĠÐ°Ð²ÑĤÐ¾ÑĢ":13649,"ãģ§ãģ¯":13650,"à¹Ħà¸¡":13651,"Ġà¶ºà¶±":13652,"ĠTimÃ³r":13653,"Ġà¤ĳ":13654,"ÑĢÑĭÐ¼":13655,"amme":13656,"Ġjaz":13657,"ĠCBS":13658,"à¥Ģ-":13659,"ahay":13660,"ĠÑĤÐµÐ»":13661,"ĠÑĤÄĥÑĢ":13662,"Ø¨Ø§ÙĦ":13663,"ĠÙĪØª":13664,"ĠRes":13665,"Ø´Ùħ":13666,"Ð¶Ð°Ð²":13667,"iyy":13668,"owych":13669,"áŀĶáŀĦ":13670,"Ð°ÑħÐ°ÑĢ":13671,"Äĵo":13672,"áĥĲáĥľáĥĵ":13673,"éĢ£":13674,"æ´²":13675,"Ġkilomet":13676,"áĥĺáĥĿáĥľ":13677,"ĠGregorian":13678,"Ġhevur":13679,"Ù«":13680,"ĨĮ":13681,"anske":13682,"Ġsis":13683,"Ġtant":13684,"Ġmap":13685,"ØªÛĴ":13686,"áİ¿":13687,"Ġime":13688,"ÙīÙ¾":13689,"Ġjur":13690,"ĠLev":13691,"ĠÙĦÙ¾Ø§Ø±Ùĩ":13692,"Ġ×ĳ×¨":13693,"ä½ķ":13694,"×Ļ×Ļ×ľ":13695,"Ġ×Ļ×Ĳ×¨":13696,"àºĦàº§àº²àº¡":13697,"Ġprofess":13698,"ç½Ĺ":13699,"ĠÐłÐ¾ÑģÑģÐ¸Ñı":13700,"tÅį":13701,"Ġ?":13702,"alg":13703,"ÐºÐ»":13704,"Ġox":13705,"Ġfh":13706,"usto":13707,"iah":13708,"ĠÑģÑĳÑĢ":13709,"Ð°Ð¹Ñĭ":13710,"ĠáĢĿ":13711,"ãĥĨ":13712,"à¸Ļà¸Ļ":13713,"Ø®ÙĪ":13714,"Ġmetatra":13715,"ĠØ£ÙĪ":13716,"Ġpriv":13717,"ligi":13718,"à°¬à°¡":13719,"Ġà®Ĵà®°":13720,"tol":13721,"Ġmyr":13722,"Ġnti":13723,"isÃ«":13724,"ĠÃĪ":13725,"ĠjÃ¤r":13726,"à¦¾)":13727,"ĠCD":13728,"ĠÑĤÐ¾Ð´":13729,"Ð¿Ð¾Ð½":13730,"ãĤĦ":13731,"ĠØ¬Ùħ":13732,"Ġà¤ħà¤µ":13733,"ÙĥÙĦ":13734,"ÙĦÙīÙĨÙī":13735,"ĠÐľÐ°Ðº":13736,"iera":13737,"áį¤":13738,"Ġavec":13739,"Î»Îµ":13740,"Ġ250":13741,"Ġmayor":13742,"ÅĨa":13743,"Ġìłľ":13744,"ĠMartin":13745,"Ġsame":13746,"áĢī":13747,"ĠaÃ½":13748,"ĠtÄ«":13749,"esu":13750,"Ġwali":13751,"ÑĮÐº":13752,"idn":13753,"icus":13754,"ĠTrans":13755,"andin":13756,"ayna":13757,"Ġmaoy":13758,"Ù¾ÛĮ":13759,"ocrat":13760,"ĠAnn":13761,"à¬¤à¬°":13762,"ĠÒ¯Ð½Ð´":13763,"ashon":13764,"ÙīÙĦÛķØ±":13765,"ĠÎ±ÏĢÎ¿":13766,"Õ«Õ¿":13767,"ladÄ±":13768,"ĠplanÃ©t":13769,"Ġkontak":13770,"Ġà¶ļà¶»à¶±":13771,"alifornia":13772,"AN":13773,"FL":13774,"{{":13775,"à²ħ":13776,"Ġtiene":13777,"Ġmann":13778,"alik":13779,"itis":13780,"amis":13781,"Ġveri":13782,"Ġfos":13783,"Ð³Ó©":13784,"Ø¯ÙĪØ±":13785,"imat":13786,"ĠPos":13787,"ĠPenns":13788,"ĠÐ±Ò¯ÑĤ":13789,"lip":13790,"ĠØ¦Ø§ÙĬ":13791,"Ġsuv":13792,"Ġetc":13793,"æľª":13794,"Ġona":13795,"à¤¥à¤®":13796,"Ġ1926":13797,"ĠÕ°Õ¥Õ¿":13798,"Ġikke":13799,"áĥĶáĥļáĥ¡":13800,"ĠÑģÐ²Ð¾":13801,"çµĲ":13802,"Ġnahim":13803,"á»±c":13804,"ç®¡":13805,"ĠÐ±Ð¾Ð»Ð³Ð°ÑĪ":13806,"bt":13807,"kÃ²":13808,"yll":13809,"}}":13810,"Ġsug":13811,"Ġlahi":13812,"Ġgat":13813,"áŁĹ":13814,"agne":13815,"ĠTal":13816,"Ġzat":13817,"entos":13818,"ĠHit":13819,"ĠÚ©Ùī":13820,"Õ¡ÖĦ":13821,"ĠÐ²ÑĭÑĢ":13822,"Ġà¤¸à¤¤":13823,"ĠØ³ÛĮØ§":13824,"ÛĲØªÙī":13825,"à½Ĥà½¦à½¢":13826,"ĠÙĤÙĪ":13827,"àªµàª¸":13828,"Ġmoom":13829,"ĠÒ¯Ñĩ":13830,"Ġokanye":13831,"ĠÚªØªØ§Ø¨":13832,"Ġáĭ¨áĬł":13833,"ĠÐ¾Ð±Ñī":13834,"Ġnahimutang":13835,"fal":13836,"fter":13837,"Ġkwi":13838,"ĠlÃª":13839,"Ġwy":13840,"idin":13841,"ekÃ®":13842,"ĠIni":13843,"ĠÐ´ÐµÐ»":13844,"Ø´Ùĩ":13845,"Ġard":13846,"Ġstre":13847,"ãĤ°":13848,"Å¾u":13849,"à¤Łà¤²":13850,"illo":13851,"Ġ×Ķ×§":13852,"à¦¬à¦°":13853,"Ġbeen":13854,"ĠÐ£Ð»":13855,"Ø§Ø²Ùĩ":13856,"ammen":13857,"æĻ®":13858,"ĠEmmanuel":13859,"bul":13860,"fÃ¬":13861,"ljen":13862,"serv":13863,"Ñĵ":13864,"áĥŁ":13865,"Ġtest":13866,"ĠpÃ´":13867,"Ġkali":13868,"à®¸":13869,"Ã¤Ã¤r":13870,"Ġà¨Ł":13871,"ĠDir":13872,"anaa":13873,"Ġprote":13874,"àª°àªķ":13875,"ĠildÉĻ":13876,"ĠStates":13877,"Ġà¸«":13878,"Ġ1931":13879,"Ġguerra":13880,"æĽ´":13881,"Ġà¥§à¥®":13882,"Ġìłķ":13883,"gj":13884,"rig":13885,"é½":13886,"Ġsatu":13887,"Ð¸Ð½Ñĭ":13888,"à¬°à¬®":13889,"ĠogsÃ¥":13890,"Ġapar":13891,"Ġactiv":13892,"à»Ģàºª":13893,"ĠMae":13894,"ĠáĥĲáĥĵ":13895,"à¨¼à©Ģ":13896,"Ġsonra":13897,"åĮħ":13898,"×ķ×¢×Ł":13899,"Ġà¥§à¥¦":13900,"yun":13901,"ê·¸":13902,"ì°":13903,"ĠpÃ³d":13904,"Ġnna":13905,"ĠSeb":13906,"ĠPra":13907,"ngÃ¬n":13908,"ĠFritz":13909,"ĠÐ¸ÑģÐ¿":13910,"Ø¹Ø±":13911,"ĠÐĲÑĤ":13912,"tres":13913,"Ġcomu":13914,"à²¡à²²":13915,"ĠilÉĻ":13916,"à½Ĩà½ĳ":13917,"Ø§Ø³ÙĬ":13918,"Ġà¸Ľ":13919,"Ġumi":13920,"Ø®ØªÙĦÙģ":13921,"Ð²Ð»ÓĵÐ½":13922,"Ġà¨Ĩà¨ª":13923,"Ġfyrir":13924,"Ġà¥¨à¥¦à¥§à¥":13925,"Û±":13926,"Û¹":13927,"Ð½Ð°Ñģ":13928,"ÑģÐ°ÑĢ":13929,"ĠCat":13930,"ngá¹³":13931,"ĠÐ¿Ð°ÑĪ":13932,"ĠNas":13933,"ĠÙĪÙģ":13934,"ĠFi":13935,"ĠØªÛĮ":13936,"ĠÙĩØ¦":13937,"Ġkoje":13938,"Ġ53":13939,"indo":13940,"áĮħ":13941,"ØµÙĪ":13942,"sport":13943,"ÐµÑĪÐµ":13944,"ÅĽe":13945,"ĠGrand":13946,"à¾Ļà½º":13947,"Ġpunika":13948,"Ġpouor":13949,"Ġà¦ıà¦ķà¦Ł":13950,"ĠboÊ»l":13951,"Ġmarcapada":13952,"ĠWashington":13953,"ĠdÃ¼":13954,"Ġkall":13955,"Ġbien":13956,"anger":13957,"Ð¿Ð°Ð»":13958,"áĥĶáĥĻ":13959,"acional":13960,"à¸²à¸¥":13961,"à¤ļà¤²":13962,"áıįáİ¦":13963,"áĢĲáĢħ":13964,"Ġaktiv":13965,"ĠÃ§ÑĥÐ»":13966,"à¸Ĺà¸¢":13967,"áŀľáŀĶ":13968,"jarah":13969,"ĠÐ¿Ð¾Ð»Ð¸ÑĤ":13970,"ĠnÃ©bula":13971,"Ġolarak":13972,"Úī":13973,"Ġureu":13974,"ĠpÃ©":13975,"ĠkÃ³":13976,"Ġvod":13977,"Ġvog":13978,"idde":13979,"iaÅĦ":13980,"ĠÙħØ§ÙĦ":13981,"ĠÙħØ§Ø¯":13982,"ĠÑĤI":13983,"lee":13984,"ĠÐ´Ð°Ð²":13985,"ĠÑħÑĥÐ´":13986,"áŀĵáŀŁ":13987,"à¸²à¸ķ":13988,"Ã°u":13989,"inea":13990,"ordin":13991,"àº²àºĹ":13992,"ÑĳÐ²":13993,"ÓĵÑĢ":13994,"ussen":13995,"Ġ×Ķ×Ĳ×ĳ×Ł":13996,"éķ¿":13997,"stitut":13998,"Ġìĺ¤":13999,"He":14000,"lap":14001,"çĮ":14002,"áĢĵ":14003,"ÙĨØ³":14004,"ĠbÄ§":14005,"Ġcab":14006,"Ġcod":14007,"Ġviz":14008,"Ġeerste":14009,"Ġfav":14010,"Ð¼Ð¾":14011,"umin":14012,"Ð±ÐµÑĢ":14013,"ĠRod":14014,"ĠÐ´Ð¾Ð±":14015,"ĠÚ©ÙĪÙĦ":14016,"ĠØ¬Ø§Ùħ":14017,"owi":14018,"Ġtax":14019,"lardan":14020,"ĠÙĤØ¯":14021,"ieren":14022,"Ġáİłáİ¾":14023,"àªµàª¨":14024,"ĠØŃØ³":14025,"à¸´à¹Ī":14026,"ĠÚªØ±":14027,"Ġcirca":14028,"ĠÐ¿ÑĭÑĢÑĭÑĪÑĭ":14029,"gun":14030,"hit":14031,"ĠdÄĹ":14032,"Ġkis":14033,"Ġgb":14034,"áıĶ":14035,"ĠMill":14036,"imento":14037,"ingar":14038,"Ġanca":14039,"ĠÐ¼Ð¾ÐºÑĪ":14040,"Ø²Ùħ":14041,"Ġ54":14042,"ĠáĪį":14043,"ydh":14044,"ĠÑĨÐµÐ½ÑĤ":14045,"Ã¢nt":14046,"Ġà°®à°°":14047,"Ġà¤®à¤¹à¤¤":14048,"éłĺ":14049,"ĠÙ¾ÛĮØ´":14050,"ãģķãĤĮãģŁ":14051,"Ð½Ð¸ÐºÐ°":14052,"Ġother":14053,"Ġeftir":14054,"à¶ł":14055,"tip":14056,"ĠBund":14057,"ĠÑĤÑĥÑĤ":14058,"ĠØ¦ÙĬ":14059,"ĠìĻ":14060,"Ġà¤ľà¤®":14061,"annoo":14062,"ĠØ®ÛķÙĦ":14063,"Ġsocial":14064,"ä»¶":14065,"ĠÚĨØ§Ø±":14066,"ondronan":14067,"áįĭ":14068,"Ġtermin":14069,"áĥķáĥĲáĥļ":14070,"ÑįÑħÑį":14071,"à¸ļà¸£":14072,"Ġà»Ĥ":14073,"è¨ĺ":14074,"Ġáĥĺáĥľ":14075,"Ġpopular":14076,"à¹Ĥà¸Ķà¸¢":14077,"æĶ¿åºľ":14078,"åĤ³":14079,"Ġfivondronan":14080,"cÄ±":14081,"tit":14082,"Ġsend":14083,"atet":14084,"Ð´Ó¹":14085,"áı¬":14086,"Ã©an":14087,"iae":14088,"ĠTV":14089,"Ġugu":14090,"×ķ×Ľ":14091,"ĠstÃª":14092,"Ġà¥Ń":14093,"Å¾o":14094,"Ð¸ÑĤÐ°":14095,"weun":14096,"ØŃØ±":14097,"Ġsport":14098,"ĠÐ¶Ð¸Ð²":14099,"ĠÐĺÑĢ":14100,"plic":14101,"áĥķáĥĺáĥ¡":14102,"ĠÔ²":14103,"Ġ×Ļ×©":14104,"Ð½ÑĥÑİ":14105,"éļĽ":14106,"ĠEstados":14107,"ç©¶":14108,"á»ģu":14109,"fn":14110,"the":14111,"Ġgia":14112,"ikat":14113,"tio":14114,"Ġjas":14115,"ĠÐºÑĥÐ´":14116,"ayu":14117,"ĠÐ³ÑĥÐ±":14118,"upo":14119,"Ġstro":14120,"Î±Ïĥ":14121,"Ø¹ÙĦ":14122,"Ä«s":14123,"àª°àª£":14124,"ÙĦÙīÙ¾":14125,"áº¯":14126,"ĠÚĨÙĪÙĨ":14127,"å®£":14128,"ĠØŃØ§ÙĦ":14129,"ÙĨÙĩÙĨØ¬":14130,"å·Ŀ":14131,"ìĿ´ëĭ¤":14132,"áĥĿáĥĳáĥĲ":14133,"Ġproduk":14134,"ituzten":14135,"dn":14136,"wara":14137,"Öĥ":14138,"Ð½ÐµÑĢ":14139,"insa":14140,"Ġture":14141,"Ġbers":14142,"elwa":14143,"itiv":14144,"Ġhr":14145,"ĠgÃł":14146,"ĠPre":14147,"ĠTok":14148,"ĠÐ¼ÐµÑģÑĤ":14149,"Ġdaa":14150,"ĠOri":14151,"Äĵt":14152,"à®°à®®":14153,"ĠÃ§he":14154,"ÛķØªÛĮ":14155,"Ġradyo":14156,"ĠNederland":14157,"Ġparlament":14158,"ensa":14159,"ises":14160,"ĠÑģÑĥÐ»":14161,"ĠTan":14162,"egua":14163,"ogg":14164,"ãĤµ":14165,"áŀĵáŀĳ":14166,"Ð¸ÑħÑĬ":14167,"ÅĽci":14168,"ĠÐ¸Ð½ÑģÑĤÐ¸ÑĤÑĥÑĤ":14169,"ìĦł":14170,"Ã¡rini":14171,"Ġsabagai":14172,"Ġantara":14173,"Ġà¨īà¨¹":14174,"èĭı":14175,"ĠÐ½Ð°ÑĢÐ¾Ð´":14176,"fab":14177,"çĹ":14178,"Ġbob":14179,"itÃ¦":14180,"ilgan":14181,"áİ§":14182,"Ġà¤¸à¤Ļ":14183,"à®Łà®®":14184,"ĠÑĦÐ°Ðº":14185,"Ġush":14186,"Ġminist":14187,"ĠÎµÎº":14188,"Ġà°ħà°¨":14189,"à¨ĩà¨Ĩ":14190,"ĠØ³ÙĨØ¯Ø³":14191,"cas":14192,"cter":14193,"ķáİ¸":14194,"Ġdus":14195,"Ġfis":14196,"ĠrÃŃ":14197,"ĠÐºÐ°Ð¿":14198,"ĠDiv":14199,"ĠÚ©ØªØ§Ø¨":14200,"ĠViren":14201,"à¾²à½´à¼ĭ":14202,"Ġassa":14203,"ĠÐļÐ¾Ð»":14204,"ÑĺÐ°":14205,"ĠStadt":14206,"Ò¯Ð»ÓĻÑĤ":14207,"Ġwaxa":14208,"XV":14209,"Ġà²«":14210,"áĥĲáĥŀ":14211,"ÑĬÑĤ":14212,"ĠÚ©ÛĮØ§":14213,"Ã¶h":14214,"Ã¶m":14215,"á»³":14216,"ĠÛ´":14217,"ÑĭÐ»ÒĵÐ°":14218,"ellen":14219,"ĠØ§ÛĮØ³":14220,"Ġà²µà²°":14221,"à¾©à½²":14222,"ĠÃºr":14223,"Ġpanag":14224,"Ġtroch":14225,"Ø§Ø±ÙĬØ®":14226,"Ġnorte":14227,"lum":14228,"ÏĪ":14229,"Ġbira":14230,"iliki":14231,"âĢŀ":14232,"ĠyÃ®":14233,"tay":14234,"ĠBon":14235,"Ã¨i":14236,"ĠFri":14237,"×¨×ĺ":14238,"à§°à¦ķ":14239,"Ä«g":14240,"Ġà¨¸à¨®":14241,"ãģ«ãģ¯":14242,"áĢ¡áĢģ":14243,"à²¬à²°":14244,"çīĩ":14245,"ĠdÃ©i":14246,"íķĺê³ł":14247,"ÑģÑĤÐ²ÐµÐ½":14248,"Ġ×Ľ×Ļ×ł×¢":14249,"Ġsmoo":14250,"áº£i":14251,"Den":14252,"Ph":14253,"nitt":14254,"wys":14255,"èĸ":14256,"áĢĹ":14257,"Ð¼Ñĸ":14258,"aksi":14259,"ĠAqu":14260,"ĠÐ¼Ð°ÑģÑĤÐ¾ÑĢ":14261,"ĠÙĨØ¦":14262,"ĠÑĢÐ°Ðº":14263,"à«ĩ,":14264,"ĠØ´Ø±ÙĪ":14265,"Ġdell":14266,"ÛİØ±":14267,"Ġresult":14268,"æĽ²":14269,"ĠÑĤÑĥÑĢÐ³Ð°Ð½":14270,"ĠRepublik":14271,"Ġradio":14272,"ì¹ĺ":14273,"das":14274,"jum":14275,"Éª":14276,"erah":14277,"Ġska":14278,"atit":14279,"elis":14280,"ĠÃĿ":14281,"à¤ķà¤¡":14282,"ĠFilip":14283,"Ġchin":14284,"á»ķ":14285,"Ġprog":14286,"ĠÙĩØ§Ú©":14287,"annt":14288,"ĠÐĲÐ½Ð´":14289,"ĠÐ»Ñİ":14290,"Ø¶ÙĪ":14291,"ÐµÐºÑĤÐ¾ÑĢ":14292,"Ø¸Ùħ":14293,"Ġáİ¤áıģ":14294,"Ġ);":14295,"Der":14296,"TÄ«":14297,"pun":14298,"éº":14299,"íĬ¸":14300,"Ġdapat":14301,"Ġmien":14302,"Ġmass":14303,"Ġkama":14304,"Ġbig":14305,"Ð¼ÄķÑĪ":14306,"Ġrun":14307,"edh":14308,"ulat":14309,"ĠBab":14310,"Ä±g":14311,"à¤®à¤¸":14312,"ĠEur":14313,"ionale":14314,"ĠÐ²Ð¾Ñģ":14315,"ĠÑħÐ°Ð½":14316,"áĭ±":14317,"Ã®r":14318,"ĠperÃ²":14319,"ĠvarÃ°":14320,"ĠØ§ÙĨØ¬":14321,"èĩ£":14322,"éĻ½":14323,"Æ°Æ¡":14324,"Ġmunicipal":14325,"lk":14326,"Ġtec":14327,"Ġtark":14328,"áİ«":14329,"ĠBret":14330,"Ã¤g":14331,"ĠDec":14332,"à±Į":14333,"udio":14334,"nach":14335,"ĠÕ¨":14336,"ÏĦÎ¿":14337,"äºļ":14338,"Ġ52":14339,"amaa":14340,"ĠØ¹Ø¯":14341,"à°²à°¨":14342,"áŀĻáŀŁ":14343,"à½Ĳà½ĸà½¦":14344,"ÓĵÐ½":14345,"à¾©à½ºà¼ĭ":14346,"ĠÃ´ng":14347,"Ġpolitik":14348,"Ġgrupo":14349,"Ġmajor":14350,"áĥĺáĥ£áĥł":14351,"×Ļ×¡×ĺ":14352,"Ø±ÛĮÚ©Ø§":14353,"Sch":14354,"áŀ¿":14355,"Ġpem":14356,"Ġnib":14357,"ĠÚ³":14358,"Ġjih":14359,"Ð°ÑĤÐµÐ»":14360,"Ã¶g":14361,"Ð¾Ð½Ñĥ":14362,"ists":14363,"Ġleen":14364,"Ġarab":14365,"Ġarbe":14366,"Ø¹ÙħØ§ÙĦ":14367,"Ġì¶":14368,"ĠÙĤØ·":14369,"à®¤à®²":14370,"Ġspi":14371,"ohang":14372,"åĪ¥":14373,"Ġà¸ĭ":14374,"Ġê¸°":14375,"ĠáīłáĬł":14376,"áĢ¡áĢĲ":14377,"æĶ»":14378,"alment":14379,"ĠNgÄģ":14380,"ĠÐ¾Ð»Ð¾Ð½":14381,"ì¡±":14382,"ĠApril":14383,"Ġdiplomatik":14384,"ĠKabupat":14385,"Ġtoerana":14386,"czi":14387,"fÃ´ng":14388,"Ġdisk":14389,"Ġkter":14390,"elÃ¶l":14391,"adis":14392,"Ġjuni":14393,"à½ĳà½¢":14394,"umen":14395,"ĠÐ¿Ð°Ñģ":14396,"Ð±Ð°ÑĤ":14397,"Ġena":14398,"Ġlef":14399,"Ó©Ð¹":14400,"Ġà¤¬à¤²":14401,"ÙĪÙĦÙĩ":14402,"à¾Ĵà½¼à¼ĭ":14403,"Ú¾Ø±":14404,"å®Ī":14405,"à½ķà½ĵ":14406,"Ġàºķ":14407,"ä½ı":14408,"ities":14409,"ĠÛĮÛķÚ©":14410,"à¾³à½´":14411,"ĠÄĳÃ£":14412,"Ġpostu":14413,"amiÃ©n":14414,"ĠÅ¾iv":14415,"áĪĪáĭį":14416,"ç¤º":14417,"Ġà³§à³":14418,"Î¸Î·ÎºÎµ":14419,"ycz":14420,"Ġdov":14421,"Ġmenn":14422,"ĠmÃ¨t":14423,"champ":14424,"ĠØ¯Ø§Ø¯":14425,"Ð±Ð°Ð½":14426,"ĠØ³Ú©":14427,"upan":14428,"ÑįÐ½ÑįÐ¹":14429,"à°²à°²":14430,"à·Ģà¶»":14431,"àºĻàº§":14432,"ĠUnong":14433,"Ġ1923":14434,"ãģ¨ãģĹãģ¦":14435,"Ġà¤ķà¤°à¤¨":14436,"Ġprimor":14437,"ĠÐ³ÑĢÐ°Ð´":14438,"áĥĺáĥĵáĥĲáĥľ":14439,"è§Ĵ":14440,"No":14441,"jekt":14442,"rÃ³":14443,"sol":14444,"ĨĴ":14445,"Ĭ¹":14446,"Ġcam":14447,"Ġema":14448,"Ġfort":14449,"Ð²ÑĭÐ»":14450,"Ġà²Ł":14451,"ties":14452,"ĠBil":14453,"igur":14454,"ĠHab":14455,"Ġà°Ī":14456,"ĠØ³Ø§Ùħ":14457,"Ð°Ð´Ð°ÑĢ":14458,"avan":14459,"ĠÑĢÐµÑģÐ¿ÑĥÐ±Ð»Ð¸Ðº":14460,"ĠØ´Ûĩ":14461,"Ø®Ùħ":14462,"ĠÚ¯Ø¦ÙĦ":14463,"à¥Ī,":14464,"ĠÑĦÐµÐ´ÐµÑĢ":14465,"lymp":14466,"Ġserie":14467,"Ġcumo":14468,"Ġtotal":14469,"Ġpartir":14470,"ĠìŀĪëĭ¤":14471,"ĠBureau":14472,"Ġtokko":14473,"áŁ¡áŁ":14474,"pal":14475,"work":14476,"Ð½Ð°Ð²":14477,"Ġkho":14478,"ĠGouv":14479,"ĠÐ¼ÑĥÑĢ":14480,"cij":14481,"ariu":14482,"Ð¸ÑıÐ»":14483,"ÑĭÑĢÑĤ":14484,"ĠÐŁÐ°ÑĢ":14485,"ĠAllah":14486,"Ġ...":14487,"ĠÐ±Ð¾Ð»Ð¾":14488,"Ġ1927":14489,"ĠÕ¡Õ¼":14490,"Ġrepresent":14491,"áİªáıĹáıĹ":14492,"vid":14493,"ansk":14494,"Ġasa":14495,"Ġkand":14496,"ĠÑģÐ¾Ð´":14497,"ĠÑģÐ¾Ð±":14498,"Ġáĥ°":14499,"ÑĸÐ¿":14500,"Ø¨Øª":14501,"ĠÐ´ÑĥÐ½":14502,"ĠFebru":14503,"Ġà´¯":14504,"ĠáĢĹ":14505,"ĠÙ¾Ø³":14506,"ĠÙ¾Ø±ÙĪ":14507,"áŀĵáŀĩ":14508,"ebra":14509,"ĠÑĢÐ¾Ð´":14510,"orden":14511,"ÚĨÙīÙĦÙī":14512,"áģį":14513,"Ê¼Ã¡":14514,"Ġmuy":14515,"Ð¸Ð·Ðµ":14516,"ÑĭÐºÑĤÑĭ":14517,"erdin":14518,"ĠciÃ¡h":14519,"áĢ½áĢ¬":14520,"à¶½à¶º":14521,"ĠÄĳá»Ļ":14522,"Ġïºĭ":14523,"alawigan":14524,"Ġtaraf":14525,"Ð»Ð°ÑĤÐ¸Ð½Ð»Óĵ":14526,"Ġrevenuo":14527,"Æ°Æ¡ng":14528,"DA":14529,"cor":14530,"Ġmata":14531,"atte":14532,"Ġvet":14533,"Ð³ÑĥÑģÑĤ":14534,"ĠAote":14535,"iec":14536,"ĠFar":14537,"laÊ¼":14538,"Ġà¥®":14539,"áŀļáŀł":14540,"à¬°à¬£":14541,"áĥĿáĥ®":14542,"ĠÐ¿ÑĢÐ¾Ð²":14543,"àº§àºį":14544,"ĠÚ¾ÛķÙħ":14545,"aturen":14546,"ĠJohr":14547,"×Ļ×©×¢":14548,"zbek":14549,"estival":14550,"Ad":14551,"ER":14552,"Ġtien":14553,"Ġphax":14554,"Ġbib":14555,"ĠSem":14556,"Ġipan":14557,"ĠÙħØ«":14558,"ingo":14559,"rieb":14560,"lib":14561,"áĥĶáĥ£áĥ":14562,"Ġì¹":14563,"Ã´ÅĤ":14564,"alaÅ¡":14565,"ÛĮØ§Ø¯":14566,"Ġorang":14567,"Ø±ÙĬØ©":14568,"Ð¸ÑģÑĤÐ¾Ð½":14569,"ĠProgr":14570,"Ġà¦ĩà¦¯":14571,"Ġklima":14572,"çĪ¶":14573,"ĠØ§ÙĦØªÙĬ":14574,"ÑĥÐ³Ð°Ð°ÑĢ":14575,"ĠOromoo":14576,"ĠsÃ´":14577,"áıİ":14578,"edz":14579,"ÑıÐ³":14580,"Ġ1910":14581,"Ġzar":14582,"utar":14583,"áĥĺáĥĺáĥ¡":14584,"à¦¿à¦Ĥ":14585,"ĠáĢĤ":14586,"âĢĻâĢĻ":14587,"Ġesti":14588,"Ã§y":14589,"Ġ×Ķ×¢":14590,"ĠØ¹Ø±Ø¨":14591,"alee":14592,"Ġhef":14593,"Ġandre":14594,"áĢ½áĢ²áĢ·":14595,"Ġpluse":14596,"áıĽáİ´áıħáıĵ":14597,"Ġinterna":14598,"Ġ1925":14599,"Ġ×ĸ×¢×ł×¢×Ł":14600,"Ġkanggo":14601,"Ġtersebut":14602,"yv":14603,"´Ģ":14604,"áł":14605,"Ġsong":14606,"arre":14607,"áŀ²":14608,"Ġmund":14609,"Ġbeste":14610,"Ġcrit":14611,"ĠgÃ¼n":14612,"Ã©re":14613,"ĠÐºÐ¸ÑĪ":14614,"ĠCas":14615,"ĠKer":14616,"ĠÑĤÐµÐº":14617,"ĠId":14618,"Ġenpres":14619,"ĠFern":14620,"Ð°Ð¹ÑĤ":14621,"ĠÎĿ":14622,"Ġcompos":14623,"ruz":14624,"Ġmeer":14625,"ĠsiÃ¢âģ¿":14626,"à½Ĳà½Ħ":14627,"áĥĶáĥĳáĥĺáĥĹ":14628,"Ġàªªàª£":14629,"íķĺëĬĶ":14630,"ĠØ®ÙĪØ±Ø´ÛĮ":14631,"Pa":14632,"lÃŃ":14633,"pat":14634,"pak":14635,"tak":14636,"Ġà½ļ":14637,"áĥ«":14638,"itte":14639,"Ġcres":14640,"ĠSci":14641,"tige":14642,"ĠKos":14643,"Ġàª«":14644,"Ð¾Ð»Ð¸":14645,"ĠJep":14646,"Ġisla":14647,"à¤Ĺà¤¢":14648,"Ġì¤ĳ":14649,"ÅĤts":14650,"à¤ľà¤ķ":14651,"Ġestasyon":14652,"ĠÐłÐµÑģÐ¿ÑĥÐ±Ð»Ð¸ÐºÐ°":14653,"à¬¨à¬Ļ":14654,"Ġà®ĩà®¤":14655,"ĠØ¦ÛĩÙĨÙīÚŃ":14656,"Ġligger":14657,"ĠÚ©ÛĮÙĦÙĪÙħØªØ±":14658,"On":14659,"lisch":14660,"rÄ«":14661,"Ġsow":14662,"ÑĤÐ°ÑĢÑĭÐ½":14663,"ĠmÃ¥n":14664,"chá¹³":14665,"Ġvro":14666,"ural":14667,"uses":14668,"ĠØ§ÙĨØ¯":14669,"ikir":14670,"Ð°ÑĢÑĮ":14671,"taj":14672,"Ã¤v":14673,"ĠÐ±Ð¾Ð´":14674,"ĠÑĤÑĭÐ»":14675,"à¾±à½ºà¼ĭ":14676,"ĠEnd":14677,"Ġà¬ĸ":14678,"anter":14679,"iyas":14680,"Ġà¤ľà¤¬":14681,"Ãºt":14682,"ĠØ´Ø§ÙħÙĦ":14683,"Ø§ÙħØ¨Ø±":14684,"ĠÑįÐ³":14685,"Å«t":14686,"Ġopo":14687,"àºĩàºģ":14688,"áŀħáŀĢ":14689,"ĠÃ¾Ã¦s":14690,"Ġàª¸àª®":14691,"alarÄ±":14692,"à¤«à¤²":14693,"Ġpresent":14694,"ĠFrant":14695,"×¨×Ĳ×ľ":14696,"ĠìĦ±":14697,"Ãłlla":14698,".Â»":14699,"rz":14700,"Ø§ÙĪØ±":14701,"isÃŃ":14702,"urch":14703,"ĠØ§Ø´":14704,"ĠWill":14705,"à¤Ĺà¤£à¤¨":14706,"ĠÐ·Ð°Ð±":14707,"ĠÐ¶ÑĭÐ»":14708,"ilian":14709,"chiu":14710,"ÐµÐ³Ð¸":14711,"2003":14712,"ĠÐ³Ð¾Ð´Ð·Ðµ":14713,"ĠSpesies":14714,"ĠÐ°ÑģÐºÐµÑĢ":14715,"ĠNovember":14716,"ĠÐĲÐ»ÐµÐºÑģÐ°Ð½Ð´":14717,"nov":14718,"ĠdÉĻ":14719,"ensi":14720,"Ġiad":14721,"ĠCons":14722,"ÐµÑĢÐ¼":14723,"Ð¶ÑįÑį":14724,"ĠÙĦØ±":14725,"Ð¸ÐºÐ¸":14726,"alais":14727,"ÙĦÙīØ¯Ûĩ":14728,"ĠÐľÐ¾Ð½Ð³Ð¾Ð»":14729,"ĠÚ¯ÛĮÙĦ":14730,"ohr":14731,"ÑĺÑĥ":14732,"ffa":14733,"Ð¾Ð·Ð¸":14734,"å¤§åŃ¦":14735,"Ġjoy":14736,"ÛķÛĮÛķ":14737,"ĠÐŃÑĢ":14738,"ëıĻ":14739,"ĠÐ³ÑĢÑĥÐ¿Ð¿":14740,"Ġesseva":14741,"weuners":14742,"IC":14743,"day":14744,"ÓŁ":14745,"íļĮ":14746,"Ġdul":14747,"Ġlil":14748,"Ġled":14749,"elg":14750,"Ġvec":14751,"Ġgep":14752,"ĠgÃ¡u":14753,"Ġrif":14754,"angen":14755,"Ġzaman":14756,"Ġanak":14757,"ÙĤØ±":14758,"ival":14759,"áŀļáŀİ":14760,"Ø¬Ø§ÙĨ":14761,"ÑİÐ·":14762,"Ø®Ø§ÙĨ":14763,"×ł×ĺ":14764,"ÐµÐ²ÐµÑĢ":14765,"Ġà²ķà²°":14766,"Ġmenm":14767,"æķ°":14768,"Ð°ÑĢÐ°Ð°":14769,"Ġrelasyon":14770,"Åŀ":14771,"Ġseng":14772,"Ġtog":14773,"Ġnast":14774,"essi":14775,"Ġeile":14776,"Ġfen":14777,"Ã¡nd":14778,"ĠÐ²ÓĵÑĪ":14779,"jew":14780,"Ġiste":14781,"Ġquel":14782,"aver":14783,"ĠÑĢÐ°Ð±Ð¾ÑĤ":14784,"ÙĥØ©":14785,"Ð¸ÑıÐ½ÑĮ":14786,"Ġnej":14787,"arten":14788,"achi":14789,"Ġáı°áİµ":14790,"ÄķÐ¿Ðµ":14791,"ĠÙĥÛĪ":14792,"ÛķØ±ÛĮ":14793,"ĠØŃØ§ØµÙĦ":14794,"Ġ×ŀ×©":14795,"Ã¨nman":14796,"áİ¬áı©":14797,"Ġkapit":14798,"Ġà¦Ĺà¦¨à¦¨":14799,"çµĦ":14800,"ï¯ĺ":14801,"ĠáıĤáıĽáİ´áıħáıĵ":14802,"ë¬¸":14803,"ĠAotearoa":14804,"Ha":14805,"bra":14806,"Ġoor":14807,"Ġville":14808,"ĠMann":14809,"Ġà¨¯":14810,"rew":14811,"ĠDin":14812,"Ġenerg":14813,"opol":14814,"Ġà¤ªà¤¡":14815,"Ġpru":14816,"maan":14817,"Ð°Ð±Ð¸Ð»":14818,"ĠthÃłnh":14819,"ĠáıŃ":14820,"à´°à´µ":14821,"Ġmanera":14822,"ĠÐ¹Ð¸ÑĪ":14823,"ĠMarc":14824,"à©Īà¨Ĥ":14825,"Ġinterpr":14826,"ÃŃnh":14827,"ÙĨÚ«":14828,"à±Ĩà°Ĥ":14829,"reyÃ²l":14830,"Ġmooy":14831,"ĠJesus":14832,"Ġáİ¢áı§":14833,"fir":14834,"jang":14835,"zv":14836,"²áį":14837,"Ġdub":14838,"Ġbla":14839,"Ġhari":14840,"Ð³Ð¾ÑĢ":14841,"Ġij":14842,"tev":14843,"angwa":14844,"ĠPod":14845,"Ã¶y":14846,"ipp":14847,"Ġele":14848,"ĠÐ·Ð¾Ð½":14849,"ĠÐĲÐ´":14850,"åľĴ":14851,"Ġumum":14852,"ĠØ²ÙĨØ¯":14853,"ĠÃ§al":14854,"à®³à®¤":14855,"åĭĻ":14856,"Ġidenti":14857,"Ġdurch":14858,"è®Ĭ":14859,"Ġretire":14860,"åķı":14861,"æºĲ":14862,"±°":14863,"Ð°Ñī":14864,"Ġsg":14865,"onni":14866,"Ġmog":14867,"atri":14868,"itse":14869,"etism":14870,"ÙĬÙīÙĨ":14871,"ustu":14872,"Ġinic":14873,"à½ĸà½Ĥ":14874,"ãģĪ":14875,"ĠHigh":14876,"leÅŁ":14877,"ĠØ³Øª":14878,"ĠÐļÐ°Ð·":14879,"ÙĦÙīØ´Ùī":14880,"ojo":14881,"Ãµes":14882,"à¦¹à¦°":14883,"Ð¸Ð³ÑįÑĢ":14884,"ĠáĢ¡áĢģ":14885,"ç»Ł":14886,"ĠØ¦ÛĨØ²":14887,"áĥĶáĥĿáĥĳ":14888,"kri":14889,"rupa":14890,"sim":14891,"Ð°Ò»":14892,"Ġding":14893,"arie":14894,"ĠmÃ¢":14895,"Ġleta":14896,"elj":14897,"àªĩ":14898,"Ġcensus":14899,"ÑĮÐµ":14900,"ĠRoba":14901,"ÑĨÑĤ":14902,"kau":14903,"ĠÙĦÚ¯":14904,"ĠØ´ÙħØ§ÙĦ":14905,"Ġkouman":14906,"ĠØ¢Ø¨":14907,"àº²àº¥":14908,"Ġkomm":14909,"å°ģ":14910,"Ġplay":14911,"Ġnasod":14912,"zyÃ¨m":14913,"Ġà¬ıà¬¬":14914,"Ġgebru":14915,"çıŃ":14916,"ëªħ":14917,"ĠÐ´ÓĻÒ¯Ð»ÓĻÑĤ":14918,"Ġotorite":14919,"íĨ":14920,"onis":14921,"ussa":14922,"Ð·ÐµÐ½":14923,"ĠTre":14924,"Ġáĥ«":14925,"ĠÐ¿Ð°ÑĢÑĤ":14926,"ĠHans":14927,"à¸Ļà¸Ķ":14928,"ĠÐ¶Ð°Ð½":14929,"Ø§Ø¯Ø±":14930,"Ġáİ¤áİ¾áı":14931,"lyg":14932,"ĠØ¯Ø±ÛĮØ§":14933,"ĠÒ¯ÐµÐ´":14934,"ĠØ·ÙĪØ±":14935,"à¾Ĳà¾±à½ºà¼ĭ":14936,"ĠLongchamp":14937,"ĠÐ±ÑĥÐ³Ð¾":14938,"kpo":14939,"lÄ«":14940,"æļ":14941,"arda":14942,"ÑĤÐ°ÑĢÑĭ":14943,"Ġtrib":14944,"Ġlalawigan":14945,"Ð´Ð¾Ð½":14946,"ĠcÄ±":14947,"ĠdezyÃ¨m":14948,"ollo":14949,"Ġradi":14950,"akti":14951,"Ġ1912":14952,"ĠKreyÃ²l":14953,"ĠÙħØ³Øª":14954,"Ø§ÙĨØ³":14955,"Ð¿Ð°ÑĢ":14956,"Ġunha":14957,"Ð°Ð¹Ð³":14958,"ÙĤØ§Øª":14959,"ĠÑħÐ¾ÑĢ":14960,"Ġì£¼":14961,"Ã§o":14962,"Ġetter":14963,"Ú¾ÙĨ":14964,"ĠÐ¶Ð°ÑĤ":14965,"ostlin":14966,"ĠÊ»akau":14967,"àºĻàºķ":14968,"ĠÃ¦ÑĢ":14969,"×¢×ł×ĺ":14970,"Ð°Ð½Ð¸Ðµ":14971,"ĠAyisyen":14972,"ĠëĤĺ":14973,"á»¯ng":14974,"ĠdwÃ¨t":14975,"ĠÐ²ÓĵÑĪÐ»Ð¸":14976,"\"),":14977,"So":14978,"lal":14979,"lÃº":14980,"vert":14981,"wig":14982,"çª":14983,"Ġsisp":14984,"Ġmamp":14985,"à¬«":14986,"ÑĮÐ¼":14987,"ĠMichael":14988,"áĪ»":14989,"ĠLen":14990,"ĠLis":14991,"ÐµÐ½Ð½Ñı":14992,"áĥĺáĥ¥":14993,"ĠÐ¾ÑĦ":14994,"ĠØªÛĪØ±":14995,"ĠprÃ©":14996,"ãĥ¡":14997,"Ø¬Ø¯":14998,"ÙĥÙħ":14999,"Ġabi":15000,"à½ļà½Ħ":15001,"Ġpoi":15002,"ĠÑģÑĤÐ°ÑĤ":15003,"ÐµÑĩÐµ":15004,"ĠÐ°Ð²Ð°Ð¹":15005,"Ã¤das":15006,"press":15007,"Ġdakbayan":15008,"ganizasyon":15009,"ĠLorosa":15010,"Ġáİłáİ¹":15011,"ĠGouvÃ¨nman":15012,"Ġsispann":15013,"Popil":15014,"noc":15015,"rÅ¡":15016,"zit":15017,"æĤ":15018,"Ġmundo":15019,"Ġdeh":15020,"ĠSie":15021,"ÙīÚĨÛķ":15022,"Ġinweuners":15023,"ĠPlan":15024,"Ġà¨Ĳ":15025,"ĠTam":15026,"ĠÙĪØ£":15027,"ĠÐ´Ñĥ":15028,"Ġà¤ķà¤¹":15029,"ĠOEA":15030,"Ġise":15031,"ĠÑĥÐ´":15032,"áĭķ":15033,"Ø²Ø§":15034,"ĠØ²ÙĪ":15035,"àª²àª¨":15036,"×Ĵ×¨":15037,"ĠÃ¼ber":15038,"áĥĲáĥłáĥĽ":15039,"ĠÃ²ganizasyon":15040,"à¦ĵà¦¯":15041,"Ġperiod":15042,"akarta":15043,"Ġ300000":15044,"ĠRelasyon":15045,"Ġfilosof":15046,"Ġkoumanse":15047,"dh":15048,"ĠÈĽi":15049,"Ð»Ð°Ð´Ð°":15050,"onc":15051,"Ġkac":15052,"Ġoma":15053,"Ġhul":15054,"Ġweb":15055,"Ġinta":15056,"Ġyam":15057,"ules":15058,"à¤ķà¤¸":15059,"Ġchansel":15060,"ĠarÄ«":15061,"ugos":15062,"Þ°ØĮ":15063,"Ġasp":15064,"àª°àª¨":15065,"tris":15066,"ensia":15067,"à¸ĩà¸ģ":15068,"áŀĻáŀĺ":15069,"Ġteritor":15070,"iyaa":15071,"ĠÃ¶ver":15072,"Ġbirnin":15073,"è¿Ļ":15074,"Ġà®®à®±":15075,"ĠThomas":15076,"Ġreprann":15077,"ĠÒĽÐ°ÑĢ":15078,"à¨Ĺà¨°":15079,"Ġà®ħà®®":15080,"Ġsimipi":15081,"ÚĻÙĬ":15082,"Ġinclud":15083,"çłĶç©¶":15084,"ĠRobaina":15085,"ĠÐ²ÓĵÑĪÐ»Ð¸ÓĵÐ»ÑĤ":15086,"Popilasyon":15087,"Ġchanselye":15088,"Az":15089,"vez":15090,"Ġsok":15091,"Ġtad":15092,"Ġtorn":15093,"ĠnÃły":15094,"Ġrat":15095,"Ġanim":15096,"Ã¶z":15097,"à§ĩ,":15098,"Ã¦Ñħ":15099,"ĠUng":15100,"ĠÑĪÑĤÐ°ÑĤ":15101,"Ð¾ÑĤÐ¸":15102,"assen":15103,"ä¼¯":15104,"Ġ×ł×Ĳ":15105,"ĠEurope":15106,"ĠØ¯ÛķÙ¾":15107,"Ġterritori":15108,"Ġì¡°":15109,"è¾°åħī":15110,"gw":15111,"rá»¥":15112,"tam":15113,"éĬ":15114,"eres":15115,"Ġpikeun":15116,"ilor":15117,"Ġdee":15118,"ĠwÃ¦s":15119,"ÙħØ³":15120,"Ġyels":15121,"Ġjuli":15122,"Ġà¨¡":15123,"rap":15124,"Ġzaf":15125,"Ð¿Ð¸":15126,"ĠEmp":15127,"Ð¾Ð²Ñĭ":15128,"ĠÐ³ÑĭÑĩ":15129,"ãĥĹ":15130,"allen":15131,"ĠYe":15132,"à¦¬à§°":15133,"Ġestr":15134,"ĠàºĻ":15135,"áĢĽáĢĶ":15136,"Ġáİ¤áıĻ":15137,"ĠÃ±e":15138,"Ġulohang":15139,"áĪĪáīµ":15140,"olution":15141,"èģĶ":15142,"àºĪàº²àºģ":15143,"Ò·Ð¸Ðº":15144,"TV":15145,"hand":15146,"uah":15147,"ĠmÉĻ":15148,"Ġkenn":15149,"Ġbuvo":15150,"chem":15151,"Ġfinn":15152,"Ġyen":15153,"ÑħÑĤÑĮ":15154,"ÑĪÐ°Ð»":15155,"áĪĻ":15156,"eker":15157,"ÑĸÑĸ":15158,"Ġzan":15159,"ĠuÅ¾":15160,"ĠÙ¾ÙĨÙĩÙĨØ¬":15161,"aco":15162,"ÐµÑĤÑĮ":15163,"Ġkoj":15164,"ÏģÎ·":15165,"ĠáĬŃ":15166,"Õ¸ÖĤÖĢ":15167,"ĠáĪĨ":15168,"Ġpais":15169,"Ã¼nde":15170,"è¦ĸ":15171,"ĠÎ¿ÏĢÎ¿":15172,"Ã¼Ã¼t":15173,"ĠÐ¸Ð¼Ð¿ÐµÑĢ":15174,"Ġtengi":15175,"Ġprimordial":15176,"Ä·":15177,"ķĮ":15178,"Ġbho":15179,"ilig":15180,"Ġfab":15181,"usion":15182,"ĠÙħÙĪØ±":15183,"Ġlaik":15184,"Ġuno":15185,"stre":15186,"ĠÐ²ÐµÐº":15187,"lij":15188,"Ã¢ts":15189,"ĠJuni":15190,"áŀĵáŀĵ":15191,"even":15192,"Ġproces":15193,"à¦²à¦¤":15194,"ÑįÑĢÐ¸Ð½":15195,"Ø§ØªÙĩ":15196,"à¸Ńà¸ļ":15197,"Ġimm":15198,"ĠÑģÑĤÑĥÐ´":15199,"Ø±Ø¨Ø¹":15200,"ĠÐºÐ¾Ð¼Ð°Ð½Ð´":15201,"Ġibabaw":15202,"áıĥáİ®":15203,"ĠÙħØ¬ÙħÙĪ":15204,"Ġtemperatura":15205,"×©×ł×ª":15206,"Ge":15207,"OS":15208,"wes":15209,"yit":15210,"ØŁ":15211,"Ġvier":15212,"Ð³Ð¸Ð»":15213,"à¤µà¤µ":15214,"Ú©Ø§":15215,"Ġchng":15216,"ÑģÐºÑĸÐ¼":15217,"ÑģÐºÐ¾Ðµ":15218,"Ð°Ð³Ð°Ð¹":15219,"Ġtoi":15220,"ĠØŃØ¶":15221,"Ä§u":15222,"Ġà¦ħà¦¸à¦®":15223,"à¦ļà¦¨":15224,"ĠezalÃŃ":15225,"Ġzuen":15226,"Ġàª¥àª¯":15227,"ĠÐ¶ÑĥÑĢÐ½Ð°Ð»":15228,"ĠÃ¤lÃ¶d":15229,"hir":15230,"tes":15231,"xh":15232,"zÄħ":15233,"Û¸":15234,"èĴ":15235,"Ġdab":15236,"Ð»ÑįÐ»":15237,"ĠtÉĻ":15238,"onie":15239,"ÛķÙĨØ¯":15240,"ims":15241,"ĠÐºÑıÐ»ÑĮ":15242,"ÃŃr":15243,"Ġzm":15244,"ãĢİ":15245,"istu":15246,"Ġsue":15247,"Ã½an":15248,"Ġ51":15249,"à¶»à¶ļ":15250,"Åįn":15251,"×©×ĺ":15252,"ÑįÐ»Ñħ":15253,"ĠParti":15254,"å¼ķ":15255,"ografi":15256,"Ġhalk":15257,"éłŃ":15258,"àº¶à»Ī":15259,"Õ¸ÖĢÕ®":15260,"Ġavei":15261,"Ġbabaen":15262,"jut":15263,"tok":15264,"áĢı":15265,"Ð»Ð°Ð³ÑĮ":15266,"onz":15267,"akter":15268,"áŁĮ":15269,"ĠMidd":15270,"à¤¤à¤¸":15271,"ayÄ±":15272,"ĠKaz":15273,"Ġzna":15274,"ĠNA":15275,"ãĢı":15276,"Ò¯Ð·":15277,"ĠÎĶ":15278,"Ġseen":15279,"ĠÑĢÑĥÑģ":15280,"Ġteor":15281,"ĠÑĪÑĭÐ²":15282,"à¾Ĵà¾²à½²":15283,"amaan":15284,"Ġitti":15285,"ĠYo":15286,"ĠÃ¤lab":15287,"Ġà²ªà²¡":15288,"ÑĥÐ³Ñĥ":15289,"Ã©ncia":15290,"ĠÛģÙĨ":15291,"ÙīÙĦØ§Ø±":15292,"×Ľ×ľ":15293,"Ġà¤ľà¤¨à¤Ĺà¤£à¤¨":15294,"ĠáıĹáİ¦":15295,"ĠÐ±Ð¾ÑİÐ½":15296,"ĠÃĦdabinons":15297,"Ġlomanefs":15298,"Ġ×Ĵ×¢×ķ×ķ×¢×Ł":15299,"æ¹ĸ":15300,"ĠfamÃ¼ls":15301,"ĠÐ¿ÑĢÐ¾Ð³ÑĢÐ°Ð¼":15302,"lÃ¼":15303,"nem":15304,"çĨ":15305,"íĶ":15306,"erman":15307,"Ġsym":15308,"Ġbru":15309,"asch":15310,"Ġvita":15311,"Ġfiz":15312,"ĠMagn":15313,"ĠHun":15314,"ogue":15315,"ĠÑħÐ¾ÑĤ":15316,"ĠÑĪÐ¸Ð½":15317,"Ġ58":15318,"ĠZu":15319,"Ġ700":15320,"à¹Ģà¸§":15321,"ĠÃ¤so":15322,"à¦Ĺà¦®":15323,"Ġà¦Ĩà¦¨":15324,"ĠLeague":15325,"å±¬":15326,"Åºi":15327,"Ġfrugetism":15328,"ĠÃ¤binÃ¤dons":15329,"ĠÃ¤soelÃ¶l":15330,"cal":15331,"kor":15332,"kow":15333,"lige":15334,"oir":15335,"ĠÐ«":15336,"ÑĢÐ¾Ð¿":15337,"Ġnob":15338,"Ġked":15339,"atos":15340,"elah":15341,"itza":15342,"Ã©na":15343,"ĠØ§ÙĨÙĩ":15344,"aghey":15345,"Ã¡ik":15346,"áĪ½":15347,"ĠÙĪØ±ÙĪ":15348,"Ð±Ð°Ð»":15349,"ogh":15350,"Ġsaw":15351,"Ġà¤ªà¤Ľ":15352,"ĠÕ¬":15353,"à¤¦à¤²":15354,"Ó§ÑĢÑĤ":15355,"Ò»Ð¾Ð½":15356,"ĠÑĦÐ¸Ð½":15357,"Ġà¤īà¤ļ":15358,"Ð½Ð¸Ñĩ":15359,"landa":15360,"ĠÃ§Ä±":15361,"Õ¥Õ´":15362,"áĥłáĥĺ":15363,"áıĤáİ¨":15364,"éĻį":15365,"à½ĸà½ŀà½Ĥ":15366,"ìĭĿ":15367,"Saint":15368,"íĥĢ":15369,"Ġà¹Ĥà¸Ķà¸¢":15370,"ĠØ®ÛķÙĦÙĤ":15371,"qip":15372,"tir":15373,"Ġmidd":15374,"ÛĮØ§ÙĨ":15375,"ÐºÐ°Ð¼":15376,"Ġgreg":15377,"edig":15378,"ĠDun":15379,"egt":15380,"ãģ©":15381,"Ġuur":15382,"ciÅŃ":15383,"Ġarea":15384,"sky":15385,"ĠÙĨÙĬ":15386,"ĠÑĢÐ°":15387,"Ä«v":15388,"ĠÐ»ÑĥÐ½":15389,"à½ŀà½£":15390,"Ð¾ÑģÐ»Ð°Ð²":15391,"Ó¹ÑĤ":15392,"Ø·Ùĩ":15393,"ÑŀÑģÑı":15394,"Ġ×ĳ×ª":15395,"ÙĪÛĮØ¨":15396,"ÑĭÑħÑĮ":15397,"ĠItali":15398,"Ġ1905":15399,"ĠÐ¾ÐºÑĤ":15400,"ĠÑģÐºÐ»Ð°Ð´":15401,"ĠrokÃ¹":15402,"ĠGermania":15403,"ĠPopul":15404,"ìĥģ":15405,"helm":15406,"»áį":15407,"Ġtele":15408,"chas":15409,"unto":15410,"Ð´Ð¸Ð·":15411,"Ġwana":15412,"angk":15413,"ĠÑģÑĥÑĥ":15414,"ĠÐ±ÐµÐ·":15415,"áĪİ":15416,"ãģł":15417,"Ġà¬ĩ":15418,"Ð¾ÑĢÑĥ":15419,"ĠÎ¬":15420,"Ġpret":15421,"ĠÐ³ÑĥÑĢ":15422,"izh":15423,"Ø§ÙĦÙģ":15424,"Ã®k":15425,"Ð°Ð³Ð°Ð½":15426,"Ġmaar":15427,"evi":15428,"Äįu":15429,"ÐµÐ¼Ð°ÑĤ":15430,"ĠÑĩÐµÑĤ":15431,"Ġ56":15432,"à¤ĥ,":15433,"áŀĻáŀĶ":15434,"×Ĵ×ľ":15435,"äººæ°ĳ":15436,"Ã¨nt":15437,"imiento":15438,"ĠAmerik":15439,"Ġà½¢à½Ħ":15440,"sczÃ©gÃ²":15441,"rg":15442,"ÞĿ":15443,"èħ":15444,"Ġdira":15445,"inus":15446,"Ġà²ı":15447,"imbo":15448,"rope":15449,"ĠÙĪÙĤ":15450,"Ã¨res":15451,"ĠÐ¼Ðµ":15452,"estra":15453,"áĥĺáĥ®":15454,"ĠØ§ÙĦØ·":15455,"upun":15456,"azar":15457,"Äįki":15458,"Ä«m":15459,"Ġthan":15460,"×ŀ×Ķ":15461,"Ġà§¬":15462,"Ġfuq":15463,"à·Ħà¶±":15464,"ÅĻÃŃ":15465,"ä¸Ĭæµ·":15466,"ãģ£ãģ¦":15467,"áº§u":15468,"å¨ģ":15469,"ÐºÑĪ":15470,"ÛķÚµ":15471,"ĠÐ¿Ð¸Ñģ":15472,"rii":15473,"ĠÐ¼Ð°Ð³":15474,"Ġà°Ń":15475,"ungi":15476,"ĠÑĪÐ°ÑĢ":15477,"ĠÑĪÐ¸ÑĢ":15478,"tru":15479,"Ġ63":15480,"å¤±":15481,"ĠÑıÐ²":15482,"Ġáīµ":15483,"Ġshen":15484,"ĠÐºÑĬÑĥÑĢ":15485,"Ġmatan":15486,"ĠPrin":15487,"Ġmereka":15488,"Õ«Õ´":15489,"ãģ¦ãģĦãģŁ":15490,"Ġprotest":15491,"ĠØªØµÙĪÛĮØ¨":15492,"sociation":15493,"Ġà¹ĥà¸Ļ":15494,"Ġkeng":15495,"Ġdeer":15496,"ĠCla":15497,"ĠDol":15498,"ĠGeneral":15499,"Ã¨sa":15500,"Ð¾Ð½Ð´Ð°":15501,"Ú©Ø§ÙĨ":15502,"ĠFu":15503,"ukrain":15504,"naw":15505,"à²¦à²ķ":15506,"áŀļáŀħ":15507,"ÑģÐºÐ¾Ð¼":15508,"Ġà¤¹à¤µ":15509,"æľį":15510,"ĠInde":15511,"åį¡":15512,"ÐµÐ³Ðµ":15513,"ÐĲÐ»":15514,"à¦¥à¦®":15515,"Ġjedh":15516,"æ´¾":15517,"Ġyeroo":15518,"áºŃt":15519,"Æ°á»Ľc":15520,"Ġphaxsin":15521,"hod":15522,"vik":15523,"wlet":15524,"ĠdÃ¥":15525,"alem":15526,"Ð´Ð°Ð¹":15527,"Ġcuk":15528,"Ġram":15529,"×ķ×ķ×Ļ×":15530,"ĠÐ¾Ñĩ":15531,"Ġpris":15532,"engen":15533,"ĠÙĦØ§Ø¡":15534,"inii":15535,"à©Ģà¨Ĥ":15536,"hof":15537,"Ġspr":15538,"Ġáĭµ":15539,"Ġorient":15540,"Ġà¦¬à§°":15541,"Ġáī£":15542,"Ð¸ÑģÑĤÐ°Ð½":15543,"ĠdrÅ¾":15544,"ĠÕ§ÖĢ":15545,"áĥĲáĥĵáĥĴ":15546,"ç¬¬ä¸Ģ":15547,"ĠKanada":15548,"ëĦ":15549,"ģ¬":15550,"enci":15551,"Ġmong":15552,"Ġkung":15553,"Ġkry":15554,"ĠcÄĥ":15555,"Ġeil":15556,"roy":15557,"ĠKim":15558,"áĪĲ":15559,"ahar":15560,"iston":15561,"ãĥ£":15562,"à¨°à¨ķ":15563,"Ġ57":15564,"Ê¼aÅĤ":15565,"à¶ļà¶»":15566,"ÄŁi":15567,"Ġsaboh":15568,"çİ°":15569,"ĠÑĥÑĢÑĭÐ½":15570,"Ġà¨¬à¨£":15571,"Ġpunto":15572,"ÑĨÑĭÑĸ":15573,"Ġsuccess":15574,"ĠÙħÛĮÙĦØ§Ø¯ÛĮ":15575,"cast":15576,"jalan":15577,"Ù°":15578,"Ġdog":15579,"Ġvad":15580,"Ġihuan":15581,"Ġinst":15582,"Ð°Ð»ÑĭÐ½":15583,"ĠTop":15584,"abit":15585,"à½ĺà½ĩ":15586,"Ð¿Ð°Ð½":15587,"ĠÐ¼Ð¸Ð»":15588,"ä¸İ":15589,"uper":15590,"áī»":15591,"ĠÙĨÙĤ":15592,"owane":15593,"eca":15594,"ÑĥÐ»Ð°ÑĢ":15595,"ĠYou":15596,"onten":15597,"Ġà¤¯à¤ķ":15598,"shan":15599,"Ð»Ð°ÑģÑĤ":15600,"Ġ×ĳ×¢":15601,"à®µà®¤":15602,"ïº®":15603,"ëĭĪ":15604,"ÛķÚ©ÛķÛĮ":15605,"Ġà´ħà´µ":15606,"å¿ħ":15607,"ç¥ĸ":15608,"Ġgemeente":15609,"ĠÐ±Ð¾ÑİÐ½ÑĩÐ°":15610,"jur":15611,"wek":15612,"Ġpian":15613,"Ġnhi":15614,"Ġbank":15615,"Ġves":15616,"Ġgrav":15617,"Ġflu":15618,"Ġwannan":15619,"ĠMis":15620,"ĠPla":15621,"à¦¾,":15622,"ĠKurd":15623,"ĠØ¨Ûģ":15624,"Ã«ve":15625,"ĠÐ¼Ð°Ð¼":15626,"à²°à²²":15627,"Ð¾Ð»Ð¾":15628,"ĠÐ¾Ð¼":15629,"waan":15630,"Ġquam":15631,"ÐµÐ»ÐµÑĢ":15632,"Ú¯Ø§Ø±":15633,"Ã´ne":15634,"ĠÑĢÐ¾Ñģ":15635,"tua":15636,"Ġà¤¤à¤®":15637,"ØºÙĦ":15638,"áĢĲáĢĦ":15639,"ÑĥÐ´Ð°ÑĢ":15640,"à¤ĸà¤²":15641,"Ìģ.":15642,"ific":15643,"ĠÐ³Ð¾Ð´Ð¸Ð½Ðµ":15644,"Õ¡ÕµÕ«":15645,"ÑģÐºÐ¸Ð¾ÑĤ":15646,"ĠPlant":15647,"ĠÑĤÐµÐ°ÑĤÑĢ":15648,"Ø§Ú»ÙĬ":15649,"à¥¦à¥¦à¥¦":15650,"ĠÐ°Ð¿ÑĢ":15651,"Æ¡n":15652,"fri":15653,"çĥ":15654,"ĪĴ":15655,"Ġpens":15656,"Ġlh":15657,"Ġvat":15658,"Ġea":15659,"Ġwux":15660,"Ã¡ban":15661,"ĠCum":15662,"ĠØ¨Ùħ":15663,"ĠIst":15664,"áīĨ":15665,"áĥĿáĥĹ":15666,"Äįin":15667,"ÑİÑĩ":15668,"ĠÐŁÐ¾Ð»ÑĮ":15669,"Ã©sz":15670,"à¾³à½º":15671,"ĠÓ©ÑĤ":15672,"Ġ×ķ×ĳ":15673,"ä¸ŃåĽ½":15674,"ĠØ§ÙĦÙħØµ":15675,"ØªÙīÙĨ":15676,"ĠÐ±Ð°Ð¹Ð³ÑĥÑĥÐ»":15677,"Ġastronom":15678,"Õ¾Õ¸ÖĤÕ´":15679,"áĥĿáĥłáĥĹ":15680,"ĠsayÄ±sÄ±":15681,"Ġà®Ĩà®ķ":15682,"ĠáĭĪáĭ°":15683,"Ġpromed":15684,"jit":15685,"§à«":15686,"ĠØ¸":15687,"Ġtep":15688,"ĠkÃ¼l":15689,"ÑĥÐºÐ°":15690,"oran":15691,"etto":15692,"irg":15693,"ĠMot":15694,"ĠÐ²Ó§":15695,"à¦°à¦°":15696,"×Ĳ×Ł":15697,"Ġconstitu":15698,"Ð°Ð·ÑĥÐ»":15699,"sii":15700,"erden":15701,"Ġobra":15702,"ãģ«ãĤĪ":15703,"ĠÔ¿":15704,"ĠKarl":15705,"à»ĢàºĶ":15706,"ĠÐ¸ÑģÑĤÐ¾ÑĢ":15707,"Ġgovern":15708,"Ġëĵ±":15709,"LA":15710,"tti":15711,"yÃ©":15712,"Ð®":15713,"Ð¸Ð¾":15714,"Ġbwa":15715,"orit":15716,"Ġgru":15717,"Ġfle":15718,"tea":15719,"Ġzak":15720,"Ã¼ck":15721,"ĠÑħÑĥÐ¶":15722,"åı«":15723,"Å«i":15724,"ĠÃ©d":15725,"ondre":15726,"ÑĳÐ¼":15727,"Ġmedi":15728,"ĠÑĨÓĢ":15729,"Ġwood":15730,"íķĺìĹ¬":15731,"Ġprimer":15732,"ĠÙħÙĪØ¬ÙĪØ¯":15733,"Ġáĥ¨áĥĶáĥĽ":15734,"æ¬Ĭ":15735,"ĠÙĪÛĮÚ©ÛĮ":15736,"ĠAustralia":15737,"Ka":15738,"Ġtchi":15739,"Ġpola":15740,"Ġmwa":15741,"Ġmagh":15742,"Ġlaga":15743,"âĢ²":15744,"Ġgla":15745,"ĠgÃ©n":15746,"ĠSek":15747,"ĠÐºÑĭÐ»Ð´":15748,"Ã¤st":15749,"ĠÑģÐ°Ð´":15750,"ĠTour":15751,"Ġano":15752,"okr":15753,"à¦°à¦£":15754,"ĠJapan":15755,"Ġpron":15756,"ibys":15757,"ĠÑħÓĢ":15758,"Î¿Î³":15759,"Ø²ÙĦ":15760,"arii":15761,"nio":15762,"Ø¬Ø±":15763,"ĠÐļÐ¾ÑĢ":15764,"ĠÙĤÙĪÙĬ":15765,"Ġ×Ķ×¤":15766,"nyi":15767,"ÐµÑģÐµ":15768,"ĠÐ¢Ð¾":15769,"Ġàºļ":15770,"ĠÛĮØ§Ø±":15771,"ìĹĪ":15772,"ĠFrancia":15773,"perti":15774,"Ġposta":15775,"æĶ¶":15776,"Ġ×¢×¡":15777,"ĠIsland":15778,"Ã³lÇ«":15779,"ĠJosÃ©":15780,"ibliote":15781,"Ġindepend":15782,"ĠÑĢÐµÐ´Ð°Ðº":15783,"ĠÕ¨Õ¶":15784,"dor":15785,"wane":15786,"Ħĸ":15787,"Ð½ÑĭÐ½":15788,"eron":15789,"Ġtay":15790,"Ġpula":15791,"ÑĭÑĸ":15792,"ature":15793,"Ġcad":15794,"Ġhenn":15795,"Ġvert":15796,"ÙĬÛķ":15797,"Ġ1911":15798,"ĠÐ±Ó©Ð»":15799,"egar":15800,"Ø§Ø±ÙĦÙīÙĤ":15801,"laÅŁ":15802,"Ġpremi":15803,"Ġà¤¨à¤¹":15804,"ÙĦÙīÙĥÙī":15805,"Ġkuwe":15806,"Ġapa":15807,"Ġmetal":15808,"ĠÛģÛĮ":15809,"à´²à´¯":15810,"×Ļ×Ļ×¢":15811,"à¸«à¸¡":15812,"ÄĻd":15813,"ĠIndon":15814,"ãģĵãģ®":15815,"ĠÕºÕ¡Õ¿":15816,"Ð¸Ð½Ð¸ÑģÑĤÑĢÐ°ÑĤ":15817,"Ġadministrativu":15818,"èĺŃ":15819,"Ġhá»įc":15820,"à½ĺà½īà½ĺ":15821,"Ð¾Ò£":15822,
[...]
